{
  "version": "1.0",
  "truncation": null,
  "padding": null,
  "added_tokens": [
    {
      "id": 0,
      "content": "[UNK]",
      "single_word": false,
      "lstrip": false,
      "rstrip": false,
      "normalized": false,
      "special": true
    },
    {
      "id": 1,
      "content": "[PAD]",
      "single_word": false,
      "lstrip": false,
      "rstrip": false,
      "normalized": false,
      "special": true
    },
    {
      "id": 2,
      "content": "[CLS]",
      "single_word": false,
      "lstrip": false,
      "rstrip": false,
      "normalized": false,
      "special": true
    },
    {
      "id": 3,
      "content": "[SEP]",
      "single_word": false,
      "lstrip": false,
      "rstrip": false,
      "normalized": false,
      "special": true
    },
    {
      "id": 4,
      "content": "[MASK]",
      "single_word": false,
      "lstrip": false,
      "rstrip": false,
      "normalized": false,
      "special": true
    }
  ],
  "normalizer": {
    "type": "BertNormalizer",
    "clean_text": true,
    "handle_chinese_chars": true,
    "strip_accents": null,
    "lowercase": true
  },
  "pre_tokenizer": {
    "type": "BertPreTokenizer"
  },
  "post_processor": {
    "type": "TemplateProcessing",
    "single": [
      {
        "SpecialToken": {
          "id": "[CLS]",
          "type_id": 0
        }
      },
      {
        "Sequence": {
          "id": "A",
          "type_id": 0
        }
      },
      {
        "SpecialToken": {
          "id": "[SEP]",
          "type_id": 0
        }
      }
    ],
    "pair": [
      {
        "SpecialToken": {
          "id": "[CLS]",
          "type_id": 0
        }
      },
      {
        "Sequence": {
          "id": "A",
          "type_id": 0
        }
      },
      {
        "SpecialToken": {
          "id": "[SEP]",
          "type_id": 0
        }
      },
      {
        "Sequence": {
          "id": "B",
          "type_id": 1
        }
      },
      {
        "SpecialToken": {
          "id": "[SEP]",
          "type_id": 1
        }
      }
    ],
    "special_tokens": {
      "[CLS]": {
        "id": "[CLS]",
        "ids": [
          2
        ],
        "tokens": [
          "[CLS]"
        ]
      },
      "[SEP]": {
        "id": "[SEP]",
        "ids": [
          3
        ],
        "tokens": [
          "[SEP]"
        ]
      }
    }
  },
  "decoder": {
    "type": "WordPiece",
    "prefix": "##",
    "cleanup": true
  },
  "model": {
    "type": "WordPiece",
    "unk_token": "[UNK]",
    "continuing_subword_prefix": "##",
    "max_input_chars_per_word": 100,
    "vocab": {
      "[UNK]": 0,
      "[PAD]": 1,
      "[CLS]": 2,
      "[SEP]": 3,
      "[MASK]": 4,
      "!": 5,
      "\"": 6,
      "#": 7,
      "$": 8,
      "%": 9,
      "&": 10,
      "'": 11,
      "(": 12,
      ")": 13,
      "*": 14,
      "+": 15,
      ",": 16,
      "-": 17,
      ".": 18,
      "/": 19,
      "0": 20,
      "1": 21,
      "2": 22,
      "3": 23,
      "4": 24,
      "5": 25,
      "6": 26,
      "7": 27,
      "8": 28,
      "9": 29,
      ":": 30,
      ";": 31,
      "<": 32,
      "=": 33,
      ">": 34,
      "?": 35,
      "@": 36,
      "[": 37,
      "\\": 38,
      "]": 39,
      "^": 40,
      "_": 41,
      "`": 42,
      "a": 43,
      "b": 44,
      "c": 45,
      "d": 46,
      "e": 47,
      "f": 48,
      "g": 49,
      "h": 50,
      "i": 51,
      "j": 52,
      "k": 53,
      "l": 54,
      "m": 55,
      "n": 56,
      "o": 57,
      "p": 58,
      "q": 59,
      "r": 60,
      "s": 61,
      "t": 62,
      "u": 63,
      "v": 64,
      "w": 65,
      "x": 66,
      "y": 67,
      "z": 68,
      "{": 69,
      "|": 70,
      "}": 71,
      "~": 72,
      "¡": 73,
      "£": 74,
      "¤": 75,
      "¥": 76,
      "§": 77,
      "¨": 78,
      "©": 79,
      "ª": 80,
      "«": 81,
      "¬": 82,
      "®": 83,
      "°": 84,
      "±": 85,
      "²": 86,
      "³": 87,
      "´": 88,
      "µ": 89,
      "·": 90,
      "¸": 91,
      "¹": 92,
      "º": 93,
      "»": 94,
      "¼": 95,
      "½": 96,
      "¾": 97,
      "¿": 98,
      "×": 99,
      "ß": 100,
      "æ": 101,
      "ð": 102,
      "÷": 103,
      "ø": 104,
      "đ": 105,
      "ı": 106,
      "ł": 107,
      "ǁ": 108,
      "ǆ": 109,
      "ə": 110,
      "ʿ": 111,
      "˘": 112,
      "˚": 113,
      "˛": 114,
      "α": 115,
      "β": 116,
      "γ": 117,
      "δ": 118,
      "ε": 119,
      "ζ": 120,
      "η": 121,
      "θ": 122,
      "ι": 123,
      "κ": 124,
      "λ": 125,
      "μ": 126,
      "ν": 127,
      "ο": 128,
      "π": 129,
      "ρ": 130,
      "σ": 131,
      "τ": 132,
      "φ": 133,
      "ω": 134,
      "а": 135,
      "б": 136,
      "в": 137,
      "г": 138,
      "д": 139,
      "е": 140,
      "ж": 141,
      "з": 142,
      "и": 143,
      "к": 144,
      "л": 145,
      "м": 146,
      "н": 147,
      "о": 148,
      "п": 149,
      "р": 150,
      "с": 151,
      "т": 152,
      "у": 153,
      "ф": 154,
      "х": 155,
      "ц": 156,
      "ч": 157,
      "ш": 158,
      "щ": 159,
      "ъ": 160,
      "ы": 161,
      "ь": 162,
      "э": 163,
      "ю": 164,
      "я": 165,
      "є": 166,
      "і": 167,
      "ғ": 168,
      "қ": 169,
      "ң": 170,
      "ү": 171,
      "ұ": 172,
      "ә": 173,
      "ө": 174,
      "ا": 175,
      "ة": 176,
      "ت": 177,
      "ح": 178,
      "د": 179,
      "ر": 180,
      "س": 181,
      "ك": 182,
      "ل": 183,
      "م": 184,
      "و": 185,
      "ي": 186,
      "ः": 187,
      "अ": 188,
      "आ": 189,
      "इ": 190,
      "ई": 191,
      "उ": 192,
      "ऊ": 193,
      "ऋ": 194,
      "ऍ": 195,
      "ए": 196,
      "ऐ": 197,
      "ऑ": 198,
      "ऒ": 199,
      "ओ": 200,
      "औ": 201,
      "क": 202,
      "ख": 203,
      "ग": 204,
      "घ": 205,
      "च": 206,
      "छ": 207,
      "ज": 208,
      "झ": 209,
      "ञ": 210,
      "ट": 211,
      "ठ": 212,
      "ड": 213,
      "ढ": 214,
      "ण": 215,
      "त": 216,
      "थ": 217,
      "द": 218,
      "ध": 219,
      "न": 220,
      "प": 221,
      "फ": 222,
      "ब": 223,
      "भ": 224,
      "म": 225,
      "य": 226,
      "र": 227,
      "ल": 228,
      "व": 229,
      "श": 230,
      "ष": 231,
      "स": 232,
      "ह": 233,
      "ा": 234,
      "ि": 235,
      "ी": 236,
      "ॉ": 237,
      "ो": 238,
      "ौ": 239,
      "।": 240,
      "०": 241,
      "१": 242,
      "२": 243,
      "३": 244,
      "४": 245,
      "५": 246,
      "६": 247,
      "७": 248,
      "८": 249,
      "९": 250,
      "॰": 251,
      "চ": 252,
      "দ": 253,
      "ন": 254,
      "ব": 255,
      "ভ": 256,
      "র": 257,
      "ষ": 258,
      "স": 259,
      "া": 260,
      "ᄍ": 261,
      "ᅢ": 262,
      "‐": 263,
      "–": 264,
      "—": 265,
      "―": 266,
      "‘": 267,
      "’": 268,
      "“": 269,
      "”": 270,
      "„": 271,
      "†": 272,
      "•": 273,
      "…": 274,
      "‰": 275,
      "′": 276,
      "⁰": 277,
      "⁴": 278,
      "⁵": 279,
      "⁶": 280,
      "⁷": 281,
      "⁻": 282,
      "₀": 283,
      "₁": 284,
      "₂": 285,
      "€": 286,
      "₹": 287,
      "™": 288,
      "⅓": 289,
      "⅔": 290,
      "⅕": 291,
      "⅖": 292,
      "⅗": 293,
      "⅘": 294,
      "⅙": 295,
      "←": 296,
      "→": 297,
      "−": 298,
      "∕": 299,
      "√": 300,
      "∞": 301,
      "∣": 302,
      "∨": 303,
      "∶": 304,
      "≤": 305,
      "≥": 306,
      "⋯": 307,
      "⌈": 308,
      "⌉": 309,
      "⌊": 310,
      "⌋": 311,
      "⌘": 312,
      "─": 313,
      "☺": 314,
      "☻": 315,
      "♪": 316,
      "♫": 317,
      "➣": 318,
      "、": 319,
      "。": 320,
      "あ": 321,
      "い": 322,
      "う": 323,
      "え": 324,
      "か": 325,
      "き": 326,
      "く": 327,
      "け": 328,
      "こ": 329,
      "さ": 330,
      "し": 331,
      "す": 332,
      "せ": 333,
      "そ": 334,
      "た": 335,
      "ち": 336,
      "っ": 337,
      "つ": 338,
      "て": 339,
      "と": 340,
      "な": 341,
      "に": 342,
      "の": 343,
      "は": 344,
      "ひ": 345,
      "へ": 346,
      "ま": 347,
      "み": 348,
      "め": 349,
      "も": 350,
      "よ": 351,
      "ら": 352,
      "り": 353,
      "る": 354,
      "れ": 355,
      "を": 356,
      "ん": 357,
      "ァ": 358,
      "ア": 359,
      "ィ": 360,
      "イ": 361,
      "ウ": 362,
      "エ": 363,
      "ォ": 364,
      "オ": 365,
      "カ": 366,
      "ク": 367,
      "コ": 368,
      "サ": 369,
      "シ": 370,
      "ス": 371,
      "タ": 372,
      "ッ": 373,
      "テ": 374,
      "ト": 375,
      "ニ": 376,
      "ネ": 377,
      "ハ": 378,
      "ヒ": 379,
      "フ": 380,
      "ヘ": 381,
      "ホ": 382,
      "マ": 383,
      "ム": 384,
      "メ": 385,
      "モ": 386,
      "ョ": 387,
      "ラ": 388,
      "リ": 389,
      "ル": 390,
      "レ": 391,
      "ロ": 392,
      "ワ": 393,
      "ン": 394,
      "ー": 395,
      "一": 396,
      "上": 397,
      "下": 398,
      "不": 399,
      "両": 400,
      "並": 401,
      "了": 402,
      "他": 403,
      "付": 404,
      "作": 405,
      "使": 406,
      "保": 407,
      "信": 408,
      "傭": 409,
      "優": 410,
      "元": 411,
      "先": 412,
      "入": 413,
      "全": 414,
      "共": 415,
      "内": 416,
      "再": 417,
      "出": 418,
      "分": 419,
      "切": 420,
      "利": 421,
      "削": 422,
      "前": 423,
      "力": 424,
      "加": 425,
      "動": 426,
      "化": 427,
      "匿": 428,
      "参": 429,
      "可": 430,
      "同": 431,
      "名": 432,
      "否": 433,
      "含": 434,
      "員": 435,
      "報": 436,
      "境": 437,
      "変": 438,
      "外": 439,
      "大": 440,
      "失": 441,
      "妖": 442,
      "始": 443,
      "字": 444,
      "存": 445,
      "定": 446,
      "容": 447,
      "対": 448,
      "小": 449,
      "広": 450,
      "度": 451,
      "庸": 452,
      "当": 453,
      "待": 454,
      "後": 455,
      "従": 456,
      "必": 457,
      "悠": 458,
      "情": 459,
      "態": 460,
      "憂": 461,
      "成": 462,
      "戻": 463,
      "所": 464,
      "手": 465,
      "打": 466,
      "承": 467,
      "択": 468,
      "抹": 469,
      "拒": 470,
      "接": 471,
      "揺": 472,
      "擁": 473,
      "敗": 474,
      "数": 475,
      "断": 476,
      "新": 477,
      "方": 478,
      "既": 479,
      "明": 480,
      "時": 481,
      "曜": 482,
      "更": 483,
      "替": 484,
      "最": 485,
      "有": 486,
      "未": 487,
      "本": 488,
      "様": 489,
      "正": 490,
      "毎": 491,
      "求": 492,
      "洋": 493,
      "消": 494,
      "満": 495,
      "溶": 496,
      "漢": 497,
      "点": 498,
      "熔": 499,
      "版": 500,
      "状": 501,
      "環": 502,
      "用": 503,
      "由": 504,
      "病": 505,
      "登": 506,
      "直": 507,
      "知": 508,
      "短": 509,
      "確": 510,
      "示": 511,
      "秒": 512,
      "細": 513,
      "終": 514,
      "続": 515,
      "編": 516,
      "置": 517,
      "羊": 518,
      "耀": 519,
      "者": 520,
      "能": 521,
      "脱": 522,
      "自": 523,
      "致": 524,
      "般": 525,
      "色": 526,
      "葉": 527,
      "行": 528,
      "表": 529,
      "複": 530,
      "要": 531,
      "見": 532,
      "規": 533,
      "覧": 534,
      "設": 535,
      "詳": 536,
      "認": 537,
      "謡": 538,
      "象": 539,
      "起": 540,
      "越": 541,
      "追": 542,
      "送": 543,
      "通": 544,
      "連": 545,
      "遥": 546,
      "選": 547,
      "重": 548,
      "録": 549,
      "開": 550,
      "関": 551,
      "除": 552,
      "集": 553,
      "離": 554,
      "順": 555,
      "預": 556,
      "ﬁ": 557,
      "ﬂ": 558,
      "：": 559,
      "？": 560,
      "##j": 561,
      "##h": 562,
      "##a": 563,
      "##r": 564,
      "##o": 565,
      "##p": 566,
      "##n": 567,
      "##t": 568,
      "##e": 569,
      "##i": 570,
      "##l": 571,
      "##c": 572,
      "##s": 573,
      "##g": 574,
      "##d": 575,
      "##y": 576,
      "##u": 577,
      "##m": 578,
      "##v": 579,
      "##k": 580,
      "##3": 581,
      "##6": 582,
      "##b": 583,
      "##w": 584,
      "##0": 585,
      "##7": 586,
      "##2": 587,
      "##f": 588,
      "##z": 589,
      "##8": 590,
      "##x": 591,
      "##1": 592,
      "##q": 593,
      "##о": 594,
      "##и": 595,
      "##д": 596,
      "##е": 597,
      "##5": 598,
      "##4": 599,
      "##ड": 600,
      "##ी": 601,
      "##л": 602,
      "##у": 603,
      "##ч": 604,
      "##т": 605,
      "##н": 606,
      "##м": 607,
      "##ж": 608,
      "##а": 609,
      "##с": 610,
      "##9": 611,
      "##र": 612,
      "##क": 613,
      "##ा": 614,
      "##श": 615,
      "##ि": 616,
      "##त": 617,
      "##न": 618,
      "##ज": 619,
      "##इ": 620,
      "##ट": 621,
      "##स": 622,
      "##ह": 623,
      "##ッ": 624,
      "##ク": 625,
      "##ア": 626,
      "##フ": 627,
      "##ञ": 628,
      "##व": 629,
      "##た": 630,
      "##ब": 631,
      "##ल": 632,
      "##ү": 633,
      "##к": 634,
      "##і": 635,
      "##च": 636,
      "##қ": 637,
      "##ұ": 638,
      "##ध": 639,
      "##ई": 640,
      "##ॉ": 641,
      "##в": 642,
      "##ら": 643,
      "##य": 644,
      "##º": 645,
      "##ष": 646,
      "##°": 647,
      "##п": 648,
      "##з": 649,
      "##द": 650,
      "##×": 651,
      "##म": 652,
      "##¬": 653,
      "##ो": 654,
      "##ख": 655,
      "##ь": 656,
      "##आ": 657,
      "##б": 658,
      "##г": 659,
      "##ʿ": 660,
      "##फ": 661,
      "##थ": 662,
      "##ग": 663,
      "##प": 664,
      "##р": 665,
      "##я": 666,
      "##ы": 667,
      "##ю": 668,
      "##ß": 669,
      "##ң": 670,
      "##औ": 671,
      "##£": 672,
      "##ц": 673,
      "##ı": 674,
      "##ン": 675,
      "##ハ": 676,
      "##ー": 677,
      "##か": 678,
      "##オ": 679,
      "##ラ": 680,
      "##イ": 681,
      "##に": 682,
      "##な": 683,
      "##っ": 684,
      "##ł": 685,
      "##अ": 686,
      "##ौ": 687,
      "##८": 688,
      "##१": 689,
      "##७": 690,
      "##☻": 691,
      "##०": 692,
      "##®": 693,
      "##ः": 694,
      "##उ": 695,
      "##ө": 696,
      "##ш": 697,
      "##щ": 698,
      "##ғ": 699,
      "##ओ": 700,
      "##६": 701,
      "##て": 702,
      "##テ": 703,
      "##ト": 704,
      "##ण": 705,
      "##ネ": 706,
      "##ワ": 707,
      "##½": 708,
      "##ए": 709,
      "##の": 710,
      "##¾": 711,
      "##ل": 712,
      "##ا": 713,
      "##م": 714,
      "##ر": 715,
      "##ي": 716,
      "##ك": 717,
      "##ة": 718,
      "##コ": 719,
      "##マ": 720,
      "##リ": 721,
      "##ス": 722,
      "##さ": 723,
      "##れ": 724,
      "##ま": 725,
      "##す": 726,
      "##ロ": 727,
      "##х": 728,
      "##い": 729,
      "##カ": 730,
      "##ウ": 731,
      "##を": 732,
      "##و": 733,
      "##ت": 734,
      "##☺": 735,
      "##æ": 736,
      "##ъ": 737,
      "##є": 738,
      "##α": 739,
      "##σ": 740,
      "##τ": 741,
      "##ε": 742,
      "##λ": 743,
      "##ο": 744,
      "##ρ": 745,
      "##ι": 746,
      "##ζ": 747,
      "##ф": 748,
      "##√": 749,
      "##く": 750,
      "##あ": 751,
      "##り": 752,
      "##せ": 753,
      "##ん": 754,
      "##ル": 755,
      "##भ": 756,
      "##ठ": 757,
      "##ᄍ": 758,
      "##ᅢ": 759,
      "##س": 760,
      "##±": 761,
      "##し": 762,
      "##⁰": 763,
      "##エ": 764,
      "##ð": 765,
      "##¹": 766,
      "##る": 767,
      "##ァ": 768,
      "##५": 769,
      "##∶": 770,
      "##ヒ": 771,
      "##²": 772,
      "##₁": 773,
      "##タ": 774,
      "##छ": 775,
      "##¤": 776,
      "##¨": 777,
      "##¥": 778,
      "##ª": 779,
      "##घ": 780,
      "##ø": 781,
      "##−": 782,
      "##¼": 783,
      "##∕": 784,
      "##メ": 785,
      "##ऊ": 786,
      "##レ": 787,
      "##३": 788,
      "##³": 789,
      "##こ": 790,
      "##と": 791,
      "##き": 792,
      "##つ": 793,
      "##は": 794,
      "##´": 795,
      "##झ": 796,
      "##も": 797,
      "##ヘ": 798,
      "##み": 799,
      "##よ": 800,
      "##う": 801,
      "##ә": 802,
      "##४": 803,
      "##ム": 804,
      "##˛": 805,
      "##¸": 806,
      "##ə": 807,
      "##˘": 808,
      "##⁴": 809,
      "##シ": 810,
      "##ョ": 811,
      "##ढ": 812,
      "##ऑ": 813,
      "##₂": 814,
      "##ح": 815,
      "##د": 816,
      "##γ": 817,
      "##η": 818,
      "##サ": 819,
      "##ホ": 820,
      "##そ": 821,
      "##ভ": 822,
      "##া": 823,
      "##ষ": 824,
      "##÷": 825,
      "##µ": 826,
      "##९": 827,
      "##२": 828,
      "##⁻": 829,
      "##™": 830,
      "##♫": 831,
      "##ﬂ": 832,
      "##ィ": 833,
      "##μ": 834,
      "##₀": 835,
      "##ニ": 836,
      "##স": 837,
      "##へ": 838,
      "##©": 839,
      "##ォ": 840,
      "##モ": 841,
      "##え": 842,
      "##ন": 843,
      "##দ": 844,
      "##র": 845,
      "##ऍ": 846,
      "th": 847,
      "the": 848,
      "##er": 849,
      "##nd": 850,
      "##in": 851,
      "##at": 852,
      "##on": 853,
      "##es": 854,
      "##en": 855,
      "##or": 856,
      "##ed": 857,
      "of": 858,
      "##ou": 859,
      "##ar": 860,
      "and": 861,
      "in": 862,
      "##an": 863,
      "##is": 864,
      "##al": 865,
      "##it": 866,
      "to": 867,
      "##ing": 868,
      "##re": 869,
      "##ion": 870,
      "##as": 871,
      "##ic": 872,
      "##om": 873,
      "##ll": 874,
      "##ent": 875,
      "be": 876,
      "wh": 877,
      "##le": 878,
      "is": 879,
      "##ve": 880,
      "##ct": 881,
      "re": 882,
      "##ot": 883,
      "for": 884,
      "pr": 885,
      "you": 886,
      "##ut": 887,
      "##st": 888,
      "##ur": 889,
      "##se": 890,
      "##id": 891,
      "##ly": 892,
      "##ay": 893,
      "##ow": 894,
      "##ce": 895,
      "##ation": 896,
      "##et": 897,
      "##ad": 898,
      "on": 899,
      "he": 900,
      "it": 901,
      "##ch": 902,
      "##am": 903,
      "##ir": 904,
      "##ver": 905,
      "that": 906,
      "##im": 907,
      "##il": 908,
      "##ig": 909,
      "as": 910,
      "##ess": 911,
      "an": 912,
      "st": 913,
      "##od": 914,
      "##ith": 915,
      "##th": 916,
      "de": 917,
      "not": 918,
      "##ter": 919,
      "or": 920,
      "##ol": 921,
      "se": 922,
      "sh": 923,
      "##ment": 924,
      "all": 925,
      "we": 926,
      "##ill": 927,
      "su": 928,
      "con": 929,
      "##op": 930,
      "with": 931,
      "ha": 932,
      "are": 933,
      "##ul": 934,
      "##ge": 935,
      "##ers": 936,
      "com": 937,
      "they": 938,
      "fr": 939,
      "##ab": 940,
      "##ld": 941,
      "##ate": 942,
      "##ain": 943,
      "this": 944,
      "ex": 945,
      "ind": 946,
      "ch": 947,
      "##est": 948,
      "##if": 949,
      "##ak": 950,
      "by": 951,
      "pro": 952,
      "##iv": 953,
      "who": 954,
      "have": 955,
      "them": 956,
      "was": 957,
      "##ah": 958,
      "from": 959,
      "##ie": 960,
      "##ist": 961,
      "will": 962,
      "##ht": 963,
      "tr": 964,
      "##em": 965,
      "##pe": 966,
      "##all": 967,
      "##us": 968,
      "his": 969,
      "##and": 970,
      "##ity": 971,
      "un": 972,
      "ne": 973,
      "##ere": 974,
      "##ich": 975,
      "##os": 976,
      "##ive": 977,
      "at": 978,
      "##ies": 979,
      "do": 980,
      "so": 981,
      "##ant": 982,
      "##ac": 983,
      "##um": 984,
      "en": 985,
      "has": 986,
      "which": 987,
      "al": 988,
      "go": 989,
      "their": 990,
      "##art": 991,
      "##pp": 992,
      "##ould": 993,
      "##un": 994,
      "##ction": 995,
      "##ra": 996,
      "but": 997,
      "##ight": 998,
      "##ard": 999,
      "wor": 1000,
      "##ia": 1001,
      "##ore": 1002,
      "##ort": 1003,
      "##ind": 1004,
      "##ose": 1005,
      "there": 1006,
      "##our": 1007,
      "##pt": 1008,
      "##ci": 1009,
      "allah": 1010,
      "##ous": 1011,
      "##ust": 1012,
      "your": 1013,
      "##ure": 1014,
      "le": 1015,
      "him": 1016,
      "sa": 1017,
      "##ri": 1018,
      "##ish": 1019,
      "##oun": 1020,
      "##her": 1021,
      "me": 1022,
      "##ord": 1023,
      "pl": 1024,
      "ab": 1025,
      "##ome": 1026,
      "ad": 1027,
      "##ag": 1028,
      "dis": 1029,
      "##el": 1030,
      "##ect": 1031,
      "##age": 1032,
      "us": 1033,
      "##ong": 1034,
      "man": 1035,
      "##ud": 1036,
      "can": 1037,
      "ac": 1038,
      "##qu": 1039,
      "if": 1040,
      "lo": 1041,
      "im": 1042,
      "pe": 1043,
      "when": 1044,
      "res": 1045,
      "##ast": 1046,
      "co": 1047,
      "no": 1048,
      "ar": 1049,
      "am": 1050,
      "##ated": 1051,
      "comp": 1052,
      "one": 1053,
      "##ount": 1054,
      "up": 1055,
      "##ance": 1056,
      "##ame": 1057,
      "br": 1058,
      "##able": 1059,
      "##ans": 1060,
      "gr": 1061,
      "any": 1062,
      "##ence": 1063,
      "##ear": 1064,
      "##now": 1065,
      "##av": 1066,
      "those": 1067,
      "##ok": 1068,
      "##oug": 1069,
      "what": 1070,
      "cont": 1071,
      "##ap": 1072,
      "per": 1073,
      "comm": 1074,
      "##so": 1075,
      "##nder": 1076,
      "##ip": 1077,
      "##ther": 1078,
      "mo": 1079,
      "##ach": 1080,
      "our": 1081,
      "ag": 1082,
      "int": 1083,
      "had": 1084,
      "know": 1085,
      "god": 1086,
      "##ry": 1087,
      "india": 1088,
      "peop": 1089,
      "af": 1090,
      "##out": 1091,
      "were": 1092,
      "##ib": 1093,
      "cl": 1094,
      "##ary": 1095,
      "##ice": 1096,
      "ev": 1097,
      "people": 1098,
      "been": 1099,
      "##pl": 1100,
      "##ik": 1101,
      "##ult": 1102,
      "##fer": 1103,
      "te": 1104,
      "##one": 1105,
      "##ail": 1106,
      "##act": 1107,
      "##ical": 1108,
      "##ath": 1109,
      "##au": 1110,
      "bel": 1111,
      "##ake": 1112,
      "part": 1113,
      "out": 1114,
      "##ue": 1115,
      "then": 1116,
      "inc": 1117,
      "##iz": 1118,
      "##ire": 1119,
      "##og": 1120,
      "##ions": 1121,
      "##ide": 1122,
      "day": 1123,
      "shall": 1124,
      "##ine": 1125,
      "tim": 1126,
      "##ens": 1127,
      "said": 1128,
      "##ound": 1129,
      "other": 1130,
      "##ile": 1131,
      "po": 1132,
      "##gr": 1133,
      "##ations": 1134,
      "##vel": 1135,
      "may": 1136,
      "##ace": 1137,
      "its": 1138,
      "##ase": 1139,
      "pres": 1140,
      "##ings": 1141,
      "under": 1142,
      "##ual": 1143,
      "my": 1144,
      "say": 1145,
      "##ade": 1146,
      "##ang": 1147,
      "acc": 1148,
      "##ign": 1149,
      "lord": 1150,
      "sp": 1151,
      "imp": 1152,
      "##ial": 1153,
      "app": 1154,
      "spe": 1155,
      "##ert": 1156,
      "##orm": 1157,
      "bo": 1158,
      "##ass": 1159,
      "##ack": 1160,
      "act": 1161,
      "##ru": 1162,
      "also": 1163,
      "##ber": 1164,
      "ser": 1165,
      "##ian": 1166,
      "19": 1167,
      "sub": 1168,
      "##ise": 1169,
      "##ough": 1170,
      "pre": 1171,
      "##vers": 1172,
      "##reat": 1173,
      "only": 1174,
      "##ro": 1175,
      "new": 1176,
      "##00": 1177,
      "rel": 1178,
      "fo": 1179,
      "would": 1180,
      "inter": 1181,
      "bec": 1182,
      "##urn": 1183,
      "##fore": 1184,
      "op": 1185,
      "##ory": 1186,
      "##ree": 1187,
      "some": 1188,
      "such": 1189,
      "##ition": 1190,
      "prov": 1191,
      "##lic": 1192,
      "tw": 1193,
      "rec": 1194,
      "##old": 1195,
      "belie": 1196,
      "time": 1197,
      "##ike": 1198,
      "rem": 1199,
      "em": 1200,
      "##te": 1201,
      "over": 1202,
      "ear": 1203,
      "work": 1204,
      "##sel": 1205,
      "these": 1206,
      "##are": 1207,
      "##ite": 1208,
      "cr": 1209,
      "##vern": 1210,
      "govern": 1211,
      "year": 1212,
      "##ious": 1213,
      "##ub": 1214,
      "inf": 1215,
      "ver": 1216,
      "##cess": 1217,
      "wr": 1218,
      "##ject": 1219,
      "##ause": 1220,
      "off": 1221,
      "##own": 1222,
      "##ied": 1223,
      "##uc": 1224,
      "like": 1225,
      "more": 1226,
      "##ff": 1227,
      "should": 1228,
      "gu": 1229,
      "about": 1230,
      "##ater": 1231,
      "##uth": 1232,
      "after": 1233,
      "##oc": 1234,
      "ever": 1235,
      "fe": 1236,
      "than": 1237,
      "##ted": 1238,
      "made": 1239,
      "##ward": 1240,
      "##cial": 1241,
      "mar": 1242,
      "##ild": 1243,
      "inst": 1244,
      "mess": 1245,
      "into": 1246,
      "rep": 1247,
      "cons": 1248,
      "bet": 1249,
      "##ife": 1250,
      "des": 1251,
      "##eng": 1252,
      "bl": 1253,
      "##ful": 1254,
      "##ident": 1255,
      "exp": 1256,
      "reg": 1257,
      "##ational": 1258,
      "##we": 1259,
      "cent": 1260,
      "good": 1261,
      "her": 1262,
      "##ities": 1263,
      "ob": 1264,
      "sy": 1265,
      "##way": 1266,
      "##ution": 1267,
      "two": 1268,
      "inde": 1269,
      "how": 1270,
      "##ved": 1271,
      "##cept": 1272,
      "pers": 1273,
      "sc": 1274,
      "qu": 1275,
      "par": 1276,
      "right": 1277,
      "thr": 1278,
      "government": 1279,
      "state": 1280,
      "fir": 1281,
      "before": 1282,
      "see": 1283,
      "##ness": 1284,
      "##ces": 1285,
      "##ep": 1286,
      "set": 1287,
      "##aj": 1288,
      "##iss": 1289,
      "ass": 1290,
      "##ress": 1291,
      "count": 1292,
      "again": 1293,
      "form": 1294,
      "min": 1295,
      "add": 1296,
      "##wn": 1297,
      "##oss": 1298,
      "mu": 1299,
      "sec": 1300,
      "##ily": 1301,
      "fl": 1302,
      "##ric": 1303,
      "where": 1304,
      "##sh": 1305,
      "dec": 1306,
      "trans": 1307,
      "##ph": 1308,
      "##ific": 1309,
      "##eth": 1310,
      "life": 1311,
      "##lect": 1312,
      "prop": 1313,
      "##velop": 1314,
      "world": 1315,
      "##led": 1316,
      "##ks": 1317,
      "##ower": 1318,
      "could": 1319,
      "ph": 1320,
      "##ates": 1321,
      "##oth": 1322,
      "call": 1323,
      "cre": 1324,
      "##ments": 1325,
      "most": 1326,
      "develop": 1327,
      "##ons": 1328,
      "##other": 1329,
      "gen": 1330,
      "pol": 1331,
      "every": 1332,
      "ap": 1333,
      "ed": 1334,
      "##rib": 1335,
      "##llow": 1336,
      "inv": 1337,
      "ro": 1338,
      "ter": 1339,
      "ke": 1340,
      "giv": 1341,
      "great": 1342,
      "##ents": 1343,
      "sch": 1344,
      "##aw": 1345,
      "serv": 1346,
      "##ors": 1347,
      "str": 1348,
      "way": 1349,
      "##igh": 1350,
      "down": 1351,
      "##int": 1352,
      "did": 1353,
      "##ves": 1354,
      "##ever": 1355,
      "even": 1356,
      "she": 1357,
      "unt": 1358,
      "att": 1359,
      "make": 1360,
      "being": 1361,
      "dif": 1362,
      "prod": 1363,
      "##ink": 1364,
      "through": 1365,
      "sign": 1366,
      "##ull": 1367,
      "president": 1368,
      "##amm": 1369,
      "dr": 1370,
      "##ning": 1371,
      "##ism": 1372,
      "book": 1373,
      "##cy": 1374,
      "##ally": 1375,
      "##nds": 1376,
      "first": 1377,
      "section": 1378,
      "well": 1379,
      "indian": 1380,
      "##pect": 1381,
      "ret": 1382,
      "##ft": 1383,
      "indeed": 1384,
      "##li": 1385,
      "back": 1386,
      "follow": 1387,
      "##its": 1388,
      "many": 1389,
      "##ave": 1390,
      "##ating": 1391,
      "##oy": 1392,
      "come": 1393,
      "dist": 1394,
      "hel": 1395,
      "20": 1396,
      "nor": 1397,
      "##ween": 1398,
      "##ange": 1399,
      "earth": 1400,
      "between": 1401,
      "sure": 1402,
      "##ative": 1403,
      "pur": 1404,
      "mem": 1405,
      "id": 1406,
      "upon": 1407,
      "person": 1408,
      "##arm": 1409,
      "among": 1410,
      "num": 1411,
      "used": 1412,
      "gener": 1413,
      "##lish": 1414,
      "supp": 1415,
      "##ided": 1416,
      "##xt": 1417,
      "##ank": 1418,
      "bh": 1419,
      "##uring": 1420,
      "##ati": 1421,
      "use": 1422,
      "cert": 1423,
      "ord": 1424,
      "let": 1425,
      "##ular": 1426,
      "help": 1427,
      "def": 1428,
      "##ick": 1429,
      "##ible": 1430,
      "mod": 1431,
      "child": 1432,
      "val": 1433,
      "##ages": 1434,
      "pub": 1435,
      "sm": 1436,
      "##itt": 1437,
      "##ought": 1438,
      "cour": 1439,
      "now": 1440,
      "##ax": 1441,
      "##ving": 1442,
      "get": 1443,
      "ins": 1444,
      "own": 1445,
      "mon": 1446,
      "eff": 1447,
      "char": 1448,
      "name": 1449,
      "progr": 1450,
      "against": 1451,
      "##stem": 1452,
      "just": 1453,
      "##olog": 1454,
      "here": 1455,
      "##ble": 1456,
      "##ised": 1457,
      "very": 1458,
      "##gan": 1459,
      "##ether": 1460,
      "take": 1461,
      "because": 1462,
      "##red": 1463,
      "##end": 1464,
      "##les": 1465,
      "dep": 1466,
      "##atter": 1467,
      "dire": 1468,
      "sent": 1469,
      "inform": 1470,
      "system": 1471,
      "fin": 1472,
      "##air": 1473,
      "bas": 1474,
      "mus": 1475,
      "##self": 1476,
      "##ple": 1477,
      "years": 1478,
      "does": 1479,
      "const": 1480,
      "ye": 1481,
      "##ond": 1482,
      "##als": 1483,
      "high": 1484,
      "list": 1485,
      "pass": 1486,
      "believe": 1487,
      "200": 1488,
      "country": 1489,
      "##con": 1490,
      "##ited": 1491,
      "##ility": 1492,
      "##iew": 1493,
      "national": 1494,
      "##ood": 1495,
      "##ost": 1496,
      "show": 1497,
      "##ature": 1498,
      "need": 1499,
      "##bel": 1500,
      "end": 1501,
      "turn": 1502,
      "car": 1503,
      "power": 1504,
      "open": 1505,
      "##ob": 1506,
      "bu": 1507,
      "##ts": 1508,
      "import": 1509,
      "##ural": 1510,
      "war": 1511,
      "account": 1512,
      "produ": 1513,
      "##ren": 1514,
      "tak": 1515,
      "cle": 1516,
      "##min": 1517,
      "gl": 1518,
      "hum": 1519,
      "file": 1520,
      "conf": 1521,
      "ref": 1522,
      "given": 1523,
      "ple": 1524,
      "##hi": 1525,
      "men": 1526,
      "av": 1527,
      "##lud": 1528,
      "##ices": 1529,
      "must": 1530,
      "differ": 1531,
      "wom": 1532,
      "##ivers": 1533,
      "mer": 1534,
      "##belie": 1535,
      "cur": 1536,
      "give": 1537,
      "requ": 1538,
      "while": 1539,
      "##ute": 1540,
      "auth": 1541,
      "place": 1542,
      "##not": 1543,
      "##ission": 1544,
      "cor": 1545,
      "equ": 1546,
      "fil": 1547,
      "want": 1548,
      "##ather": 1549,
      "##tern": 1550,
      "sin": 1551,
      "##read": 1552,
      "loc": 1553,
      "long": 1554,
      "det": 1555,
      "##ash": 1556,
      "##ror": 1557,
      "hind": 1558,
      "##ives": 1559,
      "development": 1560,
      "dev": 1561,
      "pun": 1562,
      "##cc": 1563,
      "##ures": 1564,
      "water": 1565,
      "##ne": 1566,
      "prom": 1567,
      "truth": 1568,
      "##ms": 1569,
      "##ision": 1570,
      "##ced": 1571,
      "var": 1572,
      "disc": 1573,
      "number": 1574,
      "sur": 1575,
      "##ister": 1576,
      "##ote": 1577,
      "201": 1578,
      "surely": 1579,
      "cap": 1580,
      "##ha": 1581,
      "during": 1582,
      "##ouse": 1583,
      "information": 1584,
      "eng": 1585,
      "##ug": 1586,
      "away": 1587,
      "found": 1588,
      "##ene": 1589,
      "cond": 1590,
      "##ides": 1591,
      "heav": 1592,
      "ent": 1593,
      "##per": 1594,
      "##selves": 1595,
      "adv": 1596,
      "indust": 1597,
      "##man": 1598,
      "law": 1599,
      "forg": 1600,
      "public": 1601,
      "cannot": 1602,
      "compan": 1603,
      "##ix": 1604,
      "wind": 1605,
      "direct": 1606,
      "start": 1607,
      "##ell": 1608,
      "##ty": 1609,
      "whom": 1610,
      "art": 1611,
      "each": 1612,
      "##chn": 1613,
      "sou": 1614,
      "lar": 1615,
      "##alth": 1616,
      "ask": 1617,
      "order": 1618,
      "##ants": 1619,
      "##ting": 1620,
      "another": 1621,
      "heart": 1622,
      "word": 1623,
      "er": 1624,
      "organ": 1625,
      "##und": 1626,
      "main": 1627,
      "##ata": 1628,
      "##res": 1629,
      "educ": 1630,
      "col": 1631,
      "select": 1632,
      "##ee": 1633,
      "lead": 1634,
      "both": 1635,
      "ty": 1636,
      "##ains": 1637,
      "##iness": 1638,
      "est": 1639,
      "enter": 1640,
      "bus": 1641,
      "conc": 1642,
      "##ider": 1643,
      "##pend": 1644,
      "fam": 1645,
      "##ained": 1646,
      "##oup": 1647,
      "##ital": 1648,
      "techn": 1649,
      "includ": 1650,
      "land": 1651,
      "spec": 1652,
      "##ys": 1653,
      "##ict": 1654,
      "find": 1655,
      "dem": 1656,
      "##ship": 1657,
      "aff": 1658,
      "instit": 1659,
      "process": 1660,
      "fear": 1661,
      "##ified": 1662,
      "fa": 1663,
      "certain": 1664,
      "med": 1665,
      "##ale": 1666,
      "beh": 1667,
      "unto": 1668,
      "sl": 1669,
      "##ec": 1670,
      "rece": 1671,
      "author": 1672,
      "resp": 1673,
      "som": 1674,
      "prev": 1675,
      "sing": 1676,
      "best": 1677,
      "##ledge": 1678,
      "same": 1679,
      "pay": 1680,
      "mark": 1681,
      "things": 1682,
      "read": 1683,
      "##ody": 1684,
      "present": 1685,
      "message": 1686,
      "##angu": 1687,
      "play": 1688,
      "return": 1689,
      "coll": 1690,
      "ext": 1691,
      "##ize": 1692,
      "cal": 1693,
      "div": 1694,
      "comple": 1695,
      "except": 1696,
      "##ya": 1697,
      "##par": 1698,
      "mak": 1699,
      "stud": 1700,
      "##ral": 1701,
      "##ety": 1702,
      "##day": 1703,
      "##lim": 1704,
      "sw": 1705,
      "sim": 1706,
      "look": 1707,
      "langu": 1708,
      "##ner": 1709,
      "group": 1710,
      "without": 1711,
      "knowledge": 1712,
      "##ove": 1713,
      "##ries": 1714,
      "occ": 1715,
      "##conom": 1716,
      "##ern": 1717,
      "##esh": 1718,
      "case": 1719,
      "##ctions": 1720,
      "messeng": 1721,
      "commun": 1722,
      "econom": 1723,
      "et": 1724,
      "tem": 1725,
      "##ists": 1726,
      "fact": 1727,
      "clear": 1728,
      "##ope": 1729,
      "##less": 1730,
      "##ived": 1731,
      "relig": 1732,
      "called": 1733,
      "view": 1734,
      "offic": 1735,
      "stand": 1736,
      "prof": 1737,
      "house": 1738,
      "last": 1739,
      "project": 1740,
      "oper": 1741,
      "came": 1742,
      "##af": 1743,
      "poss": 1744,
      "three": 1745,
      "jud": 1746,
      "vis": 1747,
      "##iving": 1748,
      "##wards": 1749,
      "##rb": 1750,
      "might": 1751,
      "##ics": 1752,
      "partic": 1753,
      "##up": 1754,
      "support": 1755,
      "fold": 1756,
      "full": 1757,
      "##ruct": 1758,
      "fac": 1759,
      "suc": 1760,
      "different": 1761,
      "etc": 1762,
      "##ired": 1763,
      "##ient": 1764,
      "tax": 1765,
      "matter": 1766,
      "##iod": 1767,
      "hand": 1768,
      "del": 1769,
      "children": 1770,
      "sk": 1771,
      "##ana": 1772,
      "##ven": 1773,
      "disbelie": 1774,
      "##aug": 1775,
      "women": 1776,
      "leg": 1777,
      "##ense": 1778,
      "appe": 1779,
      "##ars": 1780,
      "##iter": 1781,
      "period": 1782,
      "mah": 1783,
      "much": 1784,
      "##ention": 1785,
      "##ology": 1786,
      "commit": 1787,
      "##bers": 1788,
      "small": 1789,
      "intern": 1790,
      "ca": 1791,
      "##aining": 1792,
      "##ption": 1793,
      "##gg": 1794,
      "window": 1795,
      "move": 1796,
      "punish": 1797,
      "interest": 1798,
      "es": 1799,
      "consider": 1800,
      "human": 1801,
      "real": 1802,
      "rest": 1803,
      "never": 1804,
      "##ues": 1805,
      "##lf": 1806,
      "##form": 1807,
      "avail": 1808,
      "##oin": 1809,
      "grow": 1810,
      "ele": 1811,
      "red": 1812,
      "contin": 1813,
      "##ark": 1814,
      "bank": 1815,
      "##oses": 1816,
      "##eds": 1817,
      "means": 1818,
      "bring": 1819,
      "thou": 1820,
      "exam": 1821,
      "##ament": 1822,
      "opp": 1823,
      "arr": 1824,
      "incre": 1825,
      "isl": 1826,
      "meet": 1827,
      "##ually": 1828,
      "##atch": 1829,
      "##stand": 1830,
      "income": 1831,
      "head": 1832,
      "##ither": 1833,
      "##ret": 1834,
      "polic": 1835,
      "created": 1836,
      "iss": 1837,
      "think": 1838,
      "whether": 1839,
      "sat": 1840,
      "##ify": 1841,
      "applic": 1842,
      "bre": 1843,
      "##rit": 1844,
      "fail": 1845,
      "evil": 1846,
      "##ock": 1847,
      "##ield": 1848,
      "##thing": 1849,
      "address": 1850,
      "wrong": 1851,
      "net": 1852,
      "##wor": 1853,
      "effect": 1854,
      "##mit": 1855,
      "bene": 1856,
      "##ploy": 1857,
      "education": 1858,
      "##ency": 1859,
      "##of": 1860,
      "##crib": 1861,
      "court": 1862,
      "faith": 1863,
      "contr": 1864,
      "univers": 1865,
      "##olution": 1866,
      "accord": 1867,
      "keep": 1868,
      "##ized": 1869,
      "##ai": 1870,
      "free": 1871,
      "social": 1872,
      "accept": 1873,
      "dest": 1874,
      "put": 1875,
      "happ": 1876,
      "muslim": 1877,
      "ht": 1878,
      "constit": 1879,
      "##ief": 1880,
      "plan": 1881,
      "business": 1882,
      "prin": 1883,
      "den": 1884,
      "verily": 1885,
      "fire": 1886,
      "service": 1887,
      "error": 1888,
      "command": 1889,
      "respect": 1890,
      "become": 1891,
      "old": 1892,
      "fun": 1893,
      "##ont": 1894,
      "sci": 1895,
      "allow": 1896,
      "four": 1897,
      "##aid": 1898,
      "18": 1899,
      "##iting": 1900,
      "company": 1901,
      "##ten": 1902,
      "rev": 1903,
      "##osition": 1904,
      "oth": 1905,
      "##hing": 1906,
      "language": 1907,
      "light": 1908,
      "##ara": 1909,
      "cult": 1910,
      "times": 1911,
      "frie": 1912,
      "##ls": 1913,
      "central": 1914,
      "others": 1915,
      "themselves": 1916,
      "##ines": 1917,
      "important": 1918,
      "lim": 1919,
      "left": 1920,
      "hist": 1921,
      "##han": 1922,
      "dra": 1923,
      "days": 1924,
      "##ablish": 1925,
      "today": 1926,
      "##iver": 1927,
      "schem": 1928,
      "establish": 1929,
      "##str": 1930,
      "known": 1931,
      "##ari": 1932,
      "##idd": 1933,
      "thus": 1934,
      "##ently": 1935,
      "##ets": 1936,
      "taken": 1937,
      "within": 1938,
      "month": 1939,
      "##cu": 1940,
      "##ways": 1941,
      "enc": 1942,
      "mind": 1943,
      "##ool": 1944,
      "amount": 1945,
      "proble": 1946,
      "##erg": 1947,
      "ra": 1948,
      "level": 1949,
      "employ": 1950,
      "##ething": 1951,
      "quest": 1952,
      "path": 1953,
      "pop": 1954,
      "body": 1955,
      "better": 1956,
      "therefore": 1957,
      "##ember": 1958,
      "something": 1959,
      "##ium": 1960,
      "success": 1961,
      "polit": 1962,
      "soci": 1963,
      "states": 1964,
      "web": 1965,
      "chang": 1966,
      "10": 1967,
      "due": 1968,
      "##arn": 1969,
      "activ": 1970,
      "near": 1971,
      "##orts": 1972,
      "data": 1973,
      "large": 1974,
      "expl": 1975,
      "imm": 1976,
      "yet": 1977,
      "##ared": 1978,
      "##ength": 1979,
      "change": 1980,
      "sever": 1981,
      "ide": 1982,
      "##gress": 1983,
      "##ased": 1984,
      "ut": 1985,
      "too": 1986,
      "##ime": 1987,
      "going": 1988,
      "tre": 1989,
      "air": 1990,
      "class": 1991,
      "done": 1992,
      "##ctor": 1993,
      "folder": 1994,
      "run": 1995,
      "##ters": 1996,
      "##hip": 1997,
      "##ases": 1998,
      "kind": 1999,
      "##br": 2000,
      "health": 2001,
      "##arch": 2002,
      "purp": 2003,
      "benef": 2004,
      "maj": 2005,
      "##ination": 2006,
      "general": 2007,
      "##gin": 2008,
      "##mb": 2009,
      "signs": 2010,
      "##ences": 2011,
      "prot": 2012,
      "met": 2013,
      "##ger": 2014,
      "ir": 2015,
      "please": 2016,
      "provided": 2017,
      "##raph": 2018,
      "point": 2019,
      "programm": 2020,
      "##eness": 2021,
      "far": 2022,
      "appro": 2023,
      "special": 2024,
      "send": 2025,
      "refer": 2026,
      "##por": 2027,
      "##ware": 2028,
      "punishment": 2029,
      "self": 2030,
      "non": 2031,
      "however": 2032,
      "##soci": 2033,
      "less": 2034,
      "##osed": 2035,
      "##ior": 2036,
      "##istr": 2037,
      "create": 2038,
      "raj": 2039,
      "heavens": 2040,
      "cause": 2041,
      "though": 2042,
      "value": 2043,
      "##ically": 2044,
      "sit": 2045,
      "various": 2046,
      "true": 2047,
      "bar": 2048,
      "coun": 2049,
      "associ": 2050,
      "result": 2051,
      "build": 2052,
      "##eric": 2053,
      "food": 2054,
      "ram": 2055,
      "text": 2056,
      "ann": 2057,
      "gre": 2058,
      "##ract": 2059,
      "save": 2060,
      "ve": 2061,
      "##pr": 2062,
      "fore": 2063,
      "##ead": 2064,
      "product": 2065,
      "type": 2066,
      "date": 2067,
      "invest": 2068,
      "depart": 2069,
      "asse": 2070,
      "death": 2071,
      "why": 2072,
      "minister": 2073,
      "sol": 2074,
      "islam": 2075,
      "policy": 2076,
      "home": 2077,
      "ru": 2078,
      "##me": 2079,
      "##az": 2080,
      "qual": 2081,
      "comput": 2082,
      "himself": 2083,
      "bir": 2084,
      "##ator": 2085,
      "##ode": 2086,
      "services": 2087,
      "curr": 2088,
      "hard": 2089,
      "understand": 2090,
      "##ateg": 2091,
      "##work": 2092,
      "##asht": 2093,
      "family": 2094,
      "elect": 2095,
      "members": 2096,
      "##ulation": 2097,
      "exist": 2098,
      "love": 2099,
      "available": 2100,
      "vi": 2101,
      "ey": 2102,
      "##ov": 2103,
      "shri": 2104,
      "##ason": 2105,
      "towards": 2106,
      "common": 2107,
      "##hamm": 2108,
      "believers": 2109,
      "##att": 2110,
      "##rap": 2111,
      "messenger": 2112,
      "pray": 2113,
      "##ession": 2114,
      "cop": 2115,
      "aut": 2116,
      "night": 2117,
      "##atic": 2118,
      "##ued": 2119,
      "##alk": 2120,
      "##oint": 2121,
      "##iful": 2122,
      "second": 2123,
      "##na": 2124,
      "brought": 2125,
      "##ization": 2126,
      "eas": 2127,
      "##tend": 2128,
      "test": 2129,
      "subject": 2130,
      "speak": 2131,
      "worship": 2132,
      "##amp": 2133,
      "reach": 2134,
      "object": 2135,
      "king": 2136,
      "americ": 2137,
      "##itions": 2138,
      "control": 2139,
      "el": 2140,
      "action": 2141,
      "##ittle": 2142,
      "economic": 2143,
      "sal": 2144,
      "hy": 2145,
      "contact": 2146,
      "##used": 2147,
      "peace": 2148,
      "##utions": 2149,
      "charact": 2150,
      "##aim": 2151,
      "secur": 2152,
      "until": 2153,
      "post": 2154,
      "12": 2155,
      "15": 2156,
      "##inal": 2157,
      "finan": 2158,
      "##ined": 2159,
      "little": 2160,
      "school": 2161,
      "trad": 2162,
      "##ready": 2163,
      "rul": 2164,
      "spir": 2165,
      "already": 2166,
      "ur": 2167,
      "area": 2168,
      "199": 2169,
      "wish": 2170,
      "##put": 2171,
      "##avan": 2172,
      "##ying": 2173,
      "dou": 2174,
      "##gn": 2175,
      "field": 2176,
      "##ately": 2177,
      "fre": 2178,
      "equal": 2179,
      "propert": 2180,
      "##uty": 2181,
      "nothing": 2182,
      "hold": 2183,
      "liter": 2184,
      "rele": 2185,
      "##lement": 2186,
      "dele": 2187,
      "creat": 2188,
      "##ury": 2189,
      "according": 2190,
      "##ser": 2191,
      "rs": 2192,
      "search": 2193,
      "mult": 2194,
      "whole": 2195,
      "##ged": 2196,
      "pal": 2197,
      "##ceed": 2198,
      "##ternal": 2199,
      "##earch": 2200,
      "tot": 2201,
      "vers": 2202,
      "research": 2203,
      "key": 2204,
      "##alf": 2205,
      "guid": 2206,
      "gave": 2207,
      "##ential": 2208,
      "commission": 2209,
      "having": 2210,
      "##ource": 2211,
      "##ected": 2212,
      "pan": 2213,
      "##ising": 2214,
      "##jee": 2215,
      "tog": 2216,
      "port": 2217,
      "poet": 2218,
      "##io": 2219,
      "vill": 2220,
      "##ried": 2221,
      "thee": 2222,
      "able": 2223,
      "proph": 2224,
      "age": 2225,
      "words": 2226,
      "next": 2227,
      "technology": 2228,
      "##ances": 2229,
      "##uss": 2230,
      "##orn": 2231,
      "fur": 2232,
      "ill": 2233,
      "few": 2234,
      "reve": 2235,
      "image": 2236,
      "lab": 2237,
      "brit": 2238,
      "always": 2239,
      "still": 2240,
      "capital": 2241,
      "tas": 2242,
      "together": 2243,
      "mag": 2244,
      "pract": 2245,
      "press": 2246,
      "teach": 2247,
      "##eous": 2248,
      "##ection": 2249,
      "regard": 2250,
      "above": 2251,
      "##line": 2252,
      "society": 2253,
      "local": 2254,
      "##acy": 2255,
      "major": 2256,
      "hear": 2257,
      "env": 2258,
      "##rict": 2259,
      "hearts": 2260,
      "based": 2261,
      "wit": 2262,
      "detail": 2263,
      "record": 2264,
      "fav": 2265,
      "##oney": 2266,
      "care": 2267,
      "particular": 2268,
      "thought": 2269,
      "init": 2270,
      "docu": 2271,
      "gand": 2272,
      "mil": 2273,
      "market": 2274,
      "remember": 2275,
      "##ng": 2276,
      "spirit": 2277,
      "##ened": 2278,
      "orig": 2279,
      "##ery": 2280,
      "mail": 2281,
      "ban": 2282,
      "sett": 2283,
      "tell": 2284,
      "mor": 2285,
      "nation": 2286,
      "dom": 2287,
      "11": 2288,
      "##ification": 2289,
      "nature": 2290,
      "##ivid": 2291,
      "selected": 2292,
      "international": 2293,
      "religion": 2294,
      "don": 2295,
      "##ges": 2296,
      "five": 2297,
      "manage": 2298,
      "##ured": 2299,
      "belong": 2300,
      "##aled": 2301,
      "##ability": 2302,
      "leave": 2303,
      "seek": 2304,
      "later": 2305,
      "thir": 2306,
      "##ems": 2307,
      "following": 2308,
      "##ey": 2309,
      "whose": 2310,
      "ach": 2311,
      "mill": 2312,
      "perform": 2313,
      "cost": 2314,
      "nam": 2315,
      "respons": 2316,
      "plac": 2317,
      "##ners": 2318,
      "##over": 2319,
      "short": 2320,
      "certainly": 2321,
      "meas": 2322,
      "parli": 2323,
      "gard": 2324,
      "exper": 2325,
      "##ians": 2326,
      "##ling": 2327,
      "application": 2328,
      "##uct": 2329,
      "bal": 2330,
      "##ortun": 2331,
      "cred": 2332,
      "##har": 2333,
      "##ma": 2334,
      "political": 2335,
      "cir": 2336,
      "deeds": 2337,
      "failed": 2338,
      "witness": 2339,
      "##bo": 2340,
      "##ript": 2341,
      "countries": 2342,
      "making": 2343,
      "parliament": 2344,
      "son": 2345,
      "stat": 2346,
      "##isions": 2347,
      "##kher": 2348,
      "##hammad": 2349,
      "scheme": 2350,
      "history": 2351,
      "##itor": 2352,
      "authority": 2353,
      "took": 2354,
      "deb": 2355,
      "##kherjee": 2356,
      "files": 2357,
      "question": 2358,
      "individ": 2359,
      "mis": 2360,
      "##iqu": 2361,
      "areas": 2362,
      "stor": 2363,
      "provide": 2364,
      "##ructure": 2365,
      "sum": 2366,
      "region": 2367,
      "bill": 2368,
      "##otion": 2369,
      "sector": 2370,
      "nat": 2371,
      "cust": 2372,
      "##isation": 2373,
      "##get": 2374,
      "term": 2375,
      "har": 2376,
      "mount": 2377,
      "committe": 2378,
      "bes": 2379,
      "further": 2380,
      "pain": 2381,
      "financial": 2382,
      "##oad": 2383,
      "##play": 2384,
      "seen": 2385,
      "##cl": 2386,
      "position": 2387,
      "chec": 2388,
      "necess": 2389,
      "thing": 2390,
      "feel": 2391,
      "priv": 2392,
      "pran": 2393,
      "mean": 2394,
      "##ck": 2395,
      "chr": 2396,
      "around": 2397,
      "admin": 2398,
      "complete": 2399,
      "cover": 2400,
      "industry": 2401,
      "current": 2402,
      "strength": 2403,
      "##ala": 2404,
      "artic": 2405,
      "money": 2406,
      "line": 2407,
      "##icult": 2408,
      "##uced": 2409,
      "muhammad": 2410,
      "individual": 2411,
      "##tp": 2412,
      "##oh": 2413,
      "live": 2414,
      "foreign": 2415,
      "constitution": 2416,
      "hour": 2417,
      "bhavan": 2418,
      "total": 2419,
      "hindi": 2420,
      "##idence": 2421,
      "since": 2422,
      "lib": 2423,
      "top": 2424,
      "along": 2425,
      "report": 2426,
      "mercy": 2427,
      "agric": 2428,
      "british": 2429,
      "saw": 2430,
      "agricult": 2431,
      "##edi": 2432,
      "diff": 2433,
      "friend": 2434,
      "fund": 2435,
      "express": 2436,
      "once": 2437,
      "##rael": 2438,
      "rasht": 2439,
      "##ats": 2440,
      "ii": 2441,
      "##row": 2442,
      "network": 2443,
      "access": 2444,
      "repres": 2445,
      "##ier": 2446,
      "close": 2447,
      "ans": 2448,
      "display": 2449,
      "reward": 2450,
      "external": 2451,
      "pranab": 2452,
      "father": 2453,
      "bi": 2454,
      "news": 2455,
      "function": 2456,
      "party": 2457,
      "aud": 2458,
      "##atever": 2459,
      "whatever": 2460,
      "sun": 2461,
      "arm": 2462,
      "##reme": 2463,
      "trib": 2464,
      "growth": 2465,
      "##oph": 2466,
      "university": 2467,
      "assess": 2468,
      "israel": 2469,
      "knows": 2470,
      "##ises": 2471,
      "cast": 2472,
      "conn": 2473,
      "ce": 2474,
      "including": 2475,
      "##iding": 2476,
      "##cil": 2477,
      "check": 2478,
      "inn": 2479,
      "trust": 2480,
      "gandhi": 2481,
      "hon": 2482,
      "side": 2483,
      "forth": 2484,
      "mother": 2485,
      "##ilities": 2486,
      "##ouch": 2487,
      "became": 2488,
      "mater": 2489,
      "##ication": 2490,
      "english": 2491,
      "##ins": 2492,
      "##ished": 2493,
      "##ands": 2494,
      "reason": 2495,
      "##ogn": 2496,
      "##rapati": 2497,
      "cho": 2498,
      "##after": 2499,
      "##ples": 2500,
      "possible": 2501,
      "security": 2502,
      "##omp": 2503,
      "office": 2504,
      "custom": 2505,
      "young": 2506,
      "##ards": 2507,
      "anim": 2508,
      "##ream": 2509,
      "pen": 2510,
      "strong": 2511,
      "dise": 2512,
      "##omes": 2513,
      "##cell": 2514,
      "face": 2515,
      "pati": 2516,
      "##onment": 2517,
      "flow": 2518,
      "achie": 2519,
      "##uted": 2520,
      "inte": 2521,
      "relations": 2522,
      "assist": 2523,
      "delhi": 2524,
      "san": 2525,
      "la": 2526,
      "department": 2527,
      "several": 2528,
      "merc": 2529,
      "character": 2530,
      "required": 2531,
      "rashtrapati": 2532,
      "fall": 2533,
      "city": 2534,
      "beng": 2535,
      "rad": 2536,
      "management": 2537,
      "mal": 2538,
      "##wer": 2539,
      "hands": 2540,
      "di": 2541,
      "thy": 2542,
      "quality": 2543,
      "moses": 2544,
      "tor": 2545,
      "##ned": 2546,
      "anything": 2547,
      "##illed": 2548,
      "##ude": 2549,
      "civ": 2550,
      "bengal": 2551,
      "doub": 2552,
      "server": 2553,
      "##just": 2554,
      "secret": 2555,
      "exch": 2556,
      "##umb": 2557,
      "mad": 2558,
      "hath": 2559,
      "##dom": 2560,
      "##oud": 2561,
      "therein": 2562,
      "begin": 2563,
      "categ": 2564,
      "repl": 2565,
      "ge": 2566,
      "force": 2567,
      "rate": 2568,
      "impro": 2569,
      "hindu": 2570,
      "deli": 2571,
      "instru": 2572,
      "##cribed": 2573,
      "went": 2574,
      "soul": 2575,
      "either": 2576,
      "offer": 2577,
      "circ": 2578,
      "plant": 2579,
      "##augh": 2580,
      "clause": 2581,
      "enj": 2582,
      "princi": 2583,
      "##ait": 2584,
      "soon": 2585,
      "progress": 2586,
      "##ocr": 2587,
      "occas": 2588,
      "cell": 2589,
      "ten": 2590,
      "working": 2591,
      "##ron": 2592,
      "past": 2593,
      "##mission": 2594,
      "deal": 2595,
      "related": 2596,
      "singh": 2597,
      "ident": 2598,
      "ant": 2599,
      "pet": 2600,
      "administr": 2601,
      "meeting": 2602,
      "##adesh": 2603,
      "##bar": 2604,
      "##ault": 2605,
      "deter": 2606,
      "000": 2607,
      "##ources": 2608,
      "production": 2609,
      "congress": 2610,
      "previous": 2611,
      "contrib": 2612,
      "##uly": 2613,
      "personal": 2614,
      "share": 2615,
      "using": 2616,
      "grant": 2617,
      "webs": 2618,
      "civil": 2619,
      "lay": 2620,
      "works": 2621,
      "prophet": 2622,
      "recogn": 2623,
      "##ech": 2624,
      "property": 2625,
      "received": 2626,
      "none": 2627,
      "south": 2628,
      "independ": 2629,
      "alm": 2630,
      "learn": 2631,
      "abs": 2632,
      "computer": 2633,
      "prepar": 2634,
      "forward": 2635,
      "example": 2636,
      "eur": 2637,
      "lot": 2638,
      "union": 2639,
      "bear": 2640,
      "wise": 2641,
      "guidance": 2642,
      "hell": 2643,
      "##gu": 2644,
      "agree": 2645,
      "deliver": 2646,
      "course": 2647,
      "envir": 2648,
      "copy": 2649,
      "itself": 2650,
      "difficult": 2651,
      "##rial": 2652,
      "six": 2653,
      "harm": 2654,
      "infl": 2655,
      "##ony": 2656,
      "##eration": 2657,
      "##ibility": 2658,
      "http": 2659,
      "##ann": 2660,
      "ange": 2661,
      "vir": 2662,
      "##aster": 2663,
      "phys": 2664,
      "fut": 2665,
      "##itional": 2666,
      "##itten": 2667,
      "##els": 2668,
      "messages": 2669,
      "vol": 2670,
      "treat": 2671,
      "greater": 2672,
      "size": 2673,
      "##aps": 2674,
      "meth": 2675,
      "##ama": 2676,
      "merciful": 2677,
      "##akh": 2678,
      "norm": 2679,
      "task": 2680,
      "hig": 2681,
      "certific": 2682,
      "revealed": 2683,
      "decl": 2684,
      "situ": 2685,
      "committee": 2686,
      "concern": 2687,
      "##ably": 2688,
      "living": 2689,
      "asked": 2690,
      "super": 2691,
      "rrb": 2692,
      "higher": 2693,
      "##soever": 2694,
      "##itation": 2695,
      "##ully": 2696,
      "behind": 2697,
      "obser": 2698,
      "held": 2699,
      "qur": 2700,
      "righteous": 2701,
      "council": 2702,
      "material": 2703,
      "link": 2704,
      "energ": 2705,
      "integr": 2706,
      "fight": 2707,
      "ho": 2708,
      "##ension": 2709,
      "purpose": 2710,
      "##isl": 2711,
      "farm": 2712,
      "arch": 2713,
      "muslims": 2714,
      "opportun": 2715,
      "industrial": 2716,
      "##wh": 2717,
      "blood": 2718,
      "judge": 2719,
      "got": 2720,
      "sac": 2721,
      "deep": 2722,
      "chief": 2723,
      "big": 2724,
      "website": 2725,
      "gra": 2726,
      "till": 2727,
      "##ively": 2728,
      "user": 2729,
      "environment": 2730,
      "goods": 2731,
      "transfer": 2732,
      "activities": 2733,
      "vide": 2734,
      "glob": 2735,
      "color": 2736,
      "##edom": 2737,
      "europe": 2738,
      "step": 2739,
      "trade": 2740,
      "##imum": 2741,
      "saying": 2742,
      "##rod": 2743,
      "##ush": 2744,
      "claim": 2745,
      "district": 2746,
      "##ta": 2747,
      "host": 2748,
      "##icient": 2749,
      "represent": 2750,
      "necessary": 2751,
      "saf": 2752,
      "soft": 2753,
      "simil": 2754,
      "method": 2755,
      "source": 2756,
      "institutions": 2757,
      "written": 2758,
      "##ograph": 2759,
      "comes": 2760,
      "conv": 2761,
      "terror": 2762,
      "16": 2763,
      "west": 2764,
      "occasion": 2765,
      "##rop": 2766,
      "experi": 2767,
      "##ffer": 2768,
      "##well": 2769,
      "##ton": 2770,
      "legisl": 2771,
      "kh": 2772,
      "ones": 2773,
      "hous": 2774,
      "started": 2775,
      "page": 2776,
      "remove": 2777,
      "bur": 2778,
      "implement": 2779,
      "bud": 2780,
      "disp": 2781,
      "eyes": 2782,
      "changes": 2783,
      "destro": 2784,
      "##ek": 2785,
      "east": 2786,
      "tool": 2787,
      "default": 2788,
      "lrb": 2789,
      "whoever": 2790,
      "calc": 2791,
      "future": 2792,
      "##ipp": 2793,
      "##ointed": 2794,
      "tree": 2795,
      "story": 2796,
      "separ": 2797,
      "besides": 2798,
      "told": 2799,
      "tra": 2800,
      "programme": 2801,
      "north": 2802,
      "speech": 2803,
      "movement": 2804,
      "##oura": 2805,
      "provisions": 2806,
      "problem": 2807,
      "neither": 2808,
      "modern": 2809,
      "design": 2810,
      "alone": 2811,
      "##land": 2812,
      "established": 2813,
      "##cent": 2814,
      "answer": 2815,
      "##fully": 2816,
      "##ape": 2817,
      "##ival": 2818,
      "##aged": 2819,
      "sab": 2820,
      "##ones": 2821,
      "training": 2822,
      "pot": 2823,
      "river": 2824,
      "##word": 2825,
      "##oke": 2826,
      "14": 2827,
      "wealth": 2828,
      "##den": 2829,
      "officer": 2830,
      "##anch": 2831,
      "opt": 2832,
      "nic": 2833,
      "protect": 2834,
      "turned": 2835,
      "196": 2836,
      "##mitted": 2837,
      "vari": 2838,
      "official": 2839,
      "sup": 2840,
      "##unch": 2841,
      "credit": 2842,
      "doing": 2843,
      "single": 2844,
      "bad": 2845,
      "mach": 2846,
      "months": 2847,
      "loss": 2848,
      "25": 2849,
      "exec": 2850,
      "energy": 2851,
      "community": 2852,
      "cit": 2853,
      "jun": 2854,
      "##port": 2855,
      "##ening": 2856,
      "leaders": 2857,
      "minist": 2858,
      "##acity": 2859,
      "htm": 2860,
      "science": 2861,
      "persons": 2862,
      "nar": 2863,
      "ess": 2864,
      "eat": 2865,
      "believed": 2866,
      "bea": 2867,
      "ground": 2868,
      "astr": 2869,
      "##know": 2870,
      "unbelie": 2871,
      "##cious": 2872,
      "consum": 2873,
      "tar": 2874,
      "##istan": 2875,
      "exchange": 2876,
      "squ": 2877,
      "##go": 2878,
      "sound": 2879,
      "everything": 2880,
      "document": 2881,
      "load": 2882,
      "member": 2883,
      "aw": 2884,
      "favour": 2885,
      "##uction": 2886,
      "##oid": 2887,
      "##hood": 2888,
      "sil": 2889,
      "shar": 2890,
      "excell": 2891,
      "subst": 2892,
      "entire": 2893,
      "##airs": 2894,
      "ens": 2895,
      "script": 2896,
      "fru": 2897,
      "often": 2898,
      "je": 2899,
      "really": 2900,
      "messengers": 2901,
      "democr": 2902,
      "program": 2903,
      "mode": 2904,
      "board": 2905,
      "appointed": 2906,
      "pap": 2907,
      "confer": 2908,
      "mr": 2909,
      "##ilt": 2910,
      "publish": 2911,
      "destroy": 2912,
      "problems": 2913,
      "##action": 2914,
      "initi": 2915,
      "##itive": 2916,
      "america": 2917,
      "attach": 2918,
      "freedom": 2919,
      "pat": 2920,
      "role": 2921,
      "arab": 2922,
      "13": 2923,
      "guard": 2924,
      "da": 2925,
      "sea": 2926,
      "low": 2927,
      "##uf": 2928,
      "##pal": 2929,
      "viol": 2930,
      "specified": 2931,
      "dece": 2932,
      "students": 2933,
      "similar": 2934,
      "certificate": 2935,
      "ign": 2936,
      "join": 2937,
      "intell": 2938,
      "##aries": 2939,
      "198": 2940,
      "acqu": 2941,
      "firm": 2942,
      "invol": 2943,
      "reject": 2944,
      "194": 2945,
      "fast": 2946,
      "##kind": 2947,
      "poor": 2948,
      "##ires": 2949,
      "village": 2950,
      "mention": 2951,
      "install": 2952,
      "sense": 2953,
      "ded": 2954,
      "natural": 2955,
      "mukherjee": 2956,
      "cut": 2957,
      "##ental": 2958,
      "neg": 2959,
      "parts": 2960,
      "##men": 2961,
      "sam": 2962,
      "considered": 2963,
      "##itude": 2964,
      "##aint": 2965,
      "occur": 2966,
      "enjoy": 2967,
      "tele": 2968,
      "bless": 2969,
      "##ested": 2970,
      "197": 2971,
      "write": 2972,
      "paid": 2973,
      "try": 2974,
      "##itable": 2975,
      "##ji": 2976,
      "mankind": 2977,
      "opens": 2978,
      "duty": 2979,
      "earli": 2980,
      "##uk": 2981,
      "rich": 2982,
      "makes": 2983,
      "category": 2984,
      "suff": 2985,
      "suffer": 2986,
      "##aves": 2987,
      "jour": 2988,
      "expect": 2989,
      "terms": 2990,
      "knowing": 2991,
      "##ops": 2992,
      "##ests": 2993,
      "books": 2994,
      "job": 2995,
      "religious": 2996,
      "burn": 2997,
      "dead": 2998,
      "scient": 2999,
      "rule": 3000,
      "##mber": 3001,
      "##omm": 3002,
      "talk": 3003,
      "##cing": 3004,
      "rights": 3005,
      "passed": 3006,
      "particip": 3007,
      "corpor": 3008,
      "approach": 3009,
      "taking": 3010,
      "gives": 3011,
      "justice": 3012,
      "demand": 3013,
      "creation": 3014,
      "##atives": 3015,
      "says": 3016,
      "visit": 3017,
      "innov": 3018,
      "building": 3019,
      "spread": 3020,
      "break": 3021,
      "fel": 3022,
      "rules": 3023,
      "rural": 3024,
      "needs": 3025,
      "wo": 3026,
      "pradesh": 3027,
      "##istic": 3028,
      "##idden": 3029,
      "195": 3030,
      "maint": 3031,
      "operation": 3032,
      "li": 3033,
      "brother": 3034,
      "centre": 3035,
      "##ina": 3036,
      "partners": 3037,
      "##side": 3038,
      "united": 3039,
      "transl": 3040,
      "carry": 3041,
      "space": 3042,
      "fal": 3043,
      "##ixed": 3044,
      "increase": 3045,
      "angels": 3046,
      "##rect": 3047,
      "early": 3048,
      "global": 3049,
      "chand": 3050,
      "##ison": 3051,
      "event": 3052,
      "##imate": 3053,
      "tur": 3054,
      "manner": 3055,
      "pra": 3056,
      "##utes": 3057,
      "##erv": 3058,
      "writing": 3059,
      "discuss": 3060,
      "##hold": 3061,
      "doubt": 3062,
      "basis": 3063,
      "password": 3064,
      "matters": 3065,
      "conduct": 3066,
      "stay": 3067,
      "provision": 3068,
      "##rish": 3069,
      "citiz": 3070,
      "third": 3071,
      "referred": 3072,
      "half": 3073,
      "revel": 3074,
      "video": 3075,
      "##bit": 3076,
      "benefit": 3077,
      "multip": 3078,
      "status": 3079,
      "woman": 3080,
      "##ering": 3081,
      "conditions": 3082,
      "##aught": 3083,
      "##ows": 3084,
      "disease": 3085,
      "wid": 3086,
      "##ring": 3087,
      "colle": 3088,
      "birth": 3089,
      "##ulf": 3090,
      "##ift": 3091,
      "##rah": 3092,
      "##asing": 3093,
      "literature": 3094,
      "private": 3095,
      "town": 3096,
      "least": 3097,
      "##iveness": 3098,
      "##ruction": 3099,
      "autom": 3100,
      "article": 3101,
      "17": 3102,
      "bab": 3103,
      "fu": 3104,
      "emp": 3105,
      "30": 3106,
      "supreme": 3107,
      "extend": 3108,
      "##ani": 3109,
      "##olk": 3110,
      "##iction": 3111,
      "mass": 3112,
      "tour": 3113,
      "evolution": 3114,
      "##der": 3115,
      "million": 3116,
      "determin": 3117,
      "receive": 3118,
      "rain": 3119,
      "hereafter": 3120,
      "##ung": 3121,
      "##uses": 3122,
      "disbelieve": 3123,
      "draw": 3124,
      "##orrow": 3125,
      "resur": 3126,
      "##by": 3127,
      "subs": 3128,
      "wife": 3129,
      "##attle": 3130,
      "compet": 3131,
      "crit": 3132,
      "##erve": 3133,
      "ministry": 3134,
      "torment": 3135,
      "enable": 3136,
      "century": 3137,
      "culture": 3138,
      "##vey": 3139,
      "forgiving": 3140,
      "coop": 3141,
      "thous": 3142,
      "note": 3143,
      "false": 3144,
      "fem": 3145,
      "##ories": 3146,
      "payment": 3147,
      "##ots": 3148,
      "march": 3149,
      "typ": 3150,
      "deny": 3151,
      "stop": 3152,
      "seven": 3153,
      "unbelievers": 3154,
      "##pur": 3155,
      "assemb": 3156,
      "hope": 3157,
      "##ological": 3158,
      "conne": 3159,
      "exc": 3160,
      "continue": 3161,
      "stra": 3162,
      "guide": 3163,
      "wide": 3164,
      "resources": 3165,
      "almost": 3166,
      "##arat": 3167,
      "ah": 3168,
      "followed": 3169,
      "##sequ": 3170,
      "remind": 3171,
      "prayer": 3172,
      "config": 3173,
      "prime": 3174,
      "undert": 3175,
      "price": 3176,
      "prote": 3177,
      "##ublic": 3178,
      "allowed": 3179,
      "touch": 3180,
      "##ria": 3181,
      "sust": 3182,
      "enough": 3183,
      "phil": 3184,
      "gardens": 3185,
      "max": 3186,
      "republic": 3187,
      "##ler": 3188,
      "front": 3189,
      "##atory": 3190,
      "ste": 3191,
      "plug": 3192,
      "road": 3193,
      "forb": 3194,
      "population": 3195,
      "lost": 3196,
      "eight": 3197,
      "##usion": 3198,
      "##wise": 3199,
      "distrib": 3200,
      "capacity": 3201,
      "condition": 3202,
      "mighty": 3203,
      "##itch": 3204,
      "adop": 3205,
      "delete": 3206,
      "##inary": 3207,
      "pros": 3208,
      "log": 3209,
      "instead": 3210,
      "apost": 3211,
      "enem": 3212,
      "proper": 3213,
      "##ram": 3214,
      "##see": 3215,
      "dark": 3216,
      "device": 3217,
      "##ule": 3218,
      "developed": 3219,
      "apply": 3220,
      "immedi": 3221,
      "aug": 3222,
      "temple": 3223,
      "prefer": 3224,
      "##uration": 3225,
      "brah": 3226,
      "##ump": 3227,
      "original": 3228,
      "vict": 3229,
      "white": 3230,
      "institution": 3231,
      "sud": 3232,
      "stru": 3233,
      "afric": 3234,
      "gir": 3235,
      "dig": 3236,
      "disbelievers": 3237,
      "pow": 3238,
      "##ees": 3239,
      "##rection": 3240,
      "actually": 3241,
      "mic": 3242,
      "earlier": 3243,
      "aim": 3244,
      "assessment": 3245,
      "100": 3246,
      "##omb": 3247,
      "hor": 3248,
      "##rik": 3249,
      "launch": 3250,
      "rather": 3251,
      "gur": 3252,
      "astray": 3253,
      "jan": 3254,
      "engine": 3255,
      "fig": 3256,
      "charge": 3257,
      "calend": 3258,
      "promise": 3259,
      "code": 3260,
      "aware": 3261,
      "ll": 3262,
      "und": 3263,
      "kept": 3264,
      "sans": 3265,
      "prim": 3266,
      "cy": 3267,
      "sugg": 3268,
      "drink": 3269,
      "introd": 3270,
      "##uge": 3271,
      "##enty": 3272,
      "sabha": 3273,
      "desire": 3274,
      "##iddle": 3275,
      "kne": 3276,
      "##itting": 3277,
      "##ali": 3278,
      "email": 3279,
      "##etic": 3280,
      "attack": 3281,
      "unable": 3282,
      "chall": 3283,
      "guided": 3284,
      "ak": 3285,
      "fair": 3286,
      "insp": 3287,
      "dam": 3288,
      "##ita": 3289,
      "connect": 3290,
      "aver": 3291,
      "##empt": 3292,
      "appear": 3293,
      "achieve": 3294,
      "bound": 3295,
      "register": 3296,
      "##lled": 3297,
      "issue": 3298,
      "branch": 3299,
      "raised": 3300,
      "investment": 3301,
      "export": 3302,
      "##uous": 3303,
      "##face": 3304,
      "require": 3305,
      "##cies": 3306,
      "products": 3307,
      "adm": 3308,
      "weak": 3309,
      "grie": 3310,
      "##ds": 3311,
      "institute": 3312,
      "mut": 3313,
      "wes": 3314,
      "##ril": 3315,
      "fort": 3316,
      "##isf": 3317,
      "print": 3318,
      "study": 3319,
      "details": 3320,
      "middle": 3321,
      "hund": 3322,
      "tag": 3323,
      "accounts": 3324,
      "labour": 3325,
      "unit": 3326,
      "include": 3327,
      "mand": 3328,
      "oil": 3329,
      "feed": 3330,
      "limited": 3331,
      "cases": 3332,
      "gold": 3333,
      "##nam": 3334,
      "purposes": 3335,
      "##ili": 3336,
      "manif": 3337,
      "##ager": 3338,
      "appoint": 3339,
      "ma": 3340,
      "experience": 3341,
      "##haps": 3342,
      "black": 3343,
      "proceed": 3344,
      "honour": 3345,
      "physical": 3346,
      "decision": 3347,
      "##imes": 3348,
      "hundred": 3349,
      "sty": 3350,
      "commer": 3351,
      "##gar": 3352,
      "depos": 3353,
      "asses": 3354,
      "letter": 3355,
      "##irm": 3356,
      "##krit": 3357,
      "influ": 3358,
      "perhaps": 3359,
      "structure": 3360,
      "sched": 3361,
      "indic": 3362,
      "unc": 3363,
      "houses": 3364,
      "watch": 3365,
      "asia": 3366,
      "award": 3367,
      "##aste": 3368,
      "outside": 3369,
      "sens": 3370,
      "##ici": 3371,
      "##lling": 3372,
      "sky": 3373,
      "names": 3374,
      "##ables": 3375,
      "led": 3376,
      "anci": 3377,
      "banks": 3378,
      "ren": 3379,
      "sanskrit": 3380,
      "lower": 3381,
      "mot": 3382,
      "scre": 3383,
      "efforts": 3384,
      "cam": 3385,
      "groups": 3386,
      "##emed": 3387,
      "below": 3388,
      "unless": 3389,
      "western": 3390,
      "##lt": 3391,
      "rail": 3392,
      "grad": 3393,
      "die": 3394,
      "pack": 3395,
      "##va": 3396,
      "##owed": 3397,
      "##inion": 3398,
      "win": 3399,
      "friends": 3400,
      "fulf": 3401,
      "green": 3402,
      "kill": 3403,
      "christ": 3404,
      "room": 3405,
      "bit": 3406,
      "ep": 3407,
      "regular": 3408,
      "summ": 3409,
      "relating": 3410,
      "film": 3411,
      "##come": 3412,
      "##bed": 3413,
      "decided": 3414,
      "software": 3415,
      "##abad": 3416,
      "places": 3417,
      "assessee": 3418,
      "24": 3419,
      "anal": 3420,
      "remain": 3421,
      "##umn": 3422,
      "chair": 3423,
      "perf": 3424,
      "##ique": 3425,
      "improve": 3426,
      "##aughter": 3427,
      "##ada": 3428,
      "##igation": 3429,
      "##val": 3430,
      "##ulated": 3431,
      "accepted": 3432,
      "sn": 3433,
      "pleas": 3434,
      "proced": 3435,
      "joint": 3436,
      "conver": 3437,
      "police": 3438,
      "divine": 3439,
      "prepared": 3440,
      "provides": 3441,
      "essential": 3442,
      "conscious": 3443,
      "gather": 3444,
      "calendar": 3445,
      "depend": 3446,
      "evidence": 3447,
      "easy": 3448,
      "html": 3449,
      "prem": 3450,
      "choose": 3451,
      "##ney": 3452,
      "##equ": 3453,
      "legal": 3454,
      "reform": 3455,
      "##uary": 3456,
      "table": 3457,
      "issued": 3458,
      "nations": 3459,
      "##erc": 3460,
      "loan": 3461,
      "upd": 3462,
      "infr": 3463,
      "##cially": 3464,
      "stage": 3465,
      "signific": 3466,
      "##ufact": 3467,
      "manufact": 3468,
      "##ensive": 3469,
      "measure": 3470,
      "yes": 3471,
      "basic": 3472,
      "mahar": 3473,
      "dwell": 3474,
      "foc": 3475,
      "possess": 3476,
      "click": 3477,
      "##cri": 3478,
      "##ites": 3479,
      "directory": 3480,
      "resurrection": 3481,
      "heaven": 3482,
      "##anda": 3483,
      "mere": 3484,
      "caused": 3485,
      "##vi": 3486,
      "wall": 3487,
      "##estic": 3488,
      "##de": 3489,
      "attend": 3490,
      "industries": 3491,
      "round": 3492,
      "clean": 3493,
      "fif": 3494,
      "acr": 3495,
      "##gment": 3496,
      "agreement": 3497,
      "economy": 3498,
      "##ott": 3499,
      "yourselves": 3500,
      "coming": 3501,
      "moon": 3502,
      "pak": 3503,
      "specific": 3504,
      "tit": 3505,
      "unf": 3506,
      "193": 3507,
      "dh": 3508,
      "sar": 3509,
      "carried": 3510,
      "produce": 3511,
      "satisf": 3512,
      "tal": 3513,
      "##co": 3514,
      "bey": 3515,
      "morning": 3516,
      "##aya": 3517,
      "spend": 3518,
      "inse": 3519,
      "notice": 3520,
      "wrote": 3521,
      "connection": 3522,
      "normal": 3523,
      "values": 3524,
      "##sc": 3525,
      "bomb": 3526,
      "phot": 3527,
      "option": 3528,
      "verses": 3529,
      "##ging": 3530,
      "percent": 3531,
      "happy": 3532,
      "profession": 3533,
      "beyond": 3534,
      "hus": 3535,
      "quran": 3536,
      "chast": 3537,
      "projects": 3538,
      "50": 3539,
      "infrast": 3540,
      "##ration": 3541,
      "situation": 3542,
      "lie": 3543,
      "##urance": 3544,
      "format": 3545,
      "espe": 3546,
      "##athers": 3547,
      "april": 3548,
      "##load": 3549,
      "prevent": 3550,
      "deg": 3551,
      "giving": 3552,
      "##be": 3553,
      "published": 3554,
      "##ators": 3555,
      "ways": 3556,
      "##aff": 3557,
      "lives": 3558,
      "version": 3559,
      "philos": 3560,
      "obt": 3561,
      "simple": 3562,
      "scale": 3563,
      "forms": 3564,
      "comb": 3565,
      "release": 3566,
      "especially": 3567,
      "amend": 3568,
      "across": 3569,
      "meaning": 3570,
      "agricultural": 3571,
      "gang": 3572,
      "##ume": 3573,
      "popular": 3574,
      "##adem": 3575,
      "##chan": 3576,
      "emerg": 3577,
      "somet": 3578,
      "ris": 3579,
      "becomes": 3580,
      "reached": 3581,
      "##unt": 3582,
      "##ourage": 3583,
      "obey": 3584,
      "rivers": 3585,
      "week": 3586,
      "generally": 3587,
      "patient": 3588,
      "der": 3589,
      "began": 3590,
      "game": 3591,
      "desp": 3592,
      "africa": 3593,
      "##amb": 3594,
      "lakh": 3595,
      "##abled": 3596,
      "song": 3597,
      "servants": 3598,
      "employment": 3599,
      "camp": 3600,
      "prior": 3601,
      "belongs": 3602,
      "##cend": 3603,
      "setting": 3604,
      "active": 3605,
      "##eral": 3606,
      "sex": 3607,
      "##itary": 3608,
      "languages": 3609,
      "##cribe": 3610,
      "syn": 3611,
      "##osp": 3612,
      "parad": 3613,
      "##urs": 3614,
      "lear": 3615,
      "cele": 3616,
      "flag": 3617,
      "music": 3618,
      "standard": 3619,
      "##ills": 3620,
      "celebr": 3621,
      "card": 3622,
      "krish": 3623,
      "independence": 3624,
      "##ored": 3625,
      "##alid": 3626,
      "plus": 3627,
      "settings": 3628,
      "##jab": 3629,
      "##let": 3630,
      "contract": 3631,
      "content": 3632,
      "agriculture": 3633,
      "provin": 3634,
      "quite": 3635,
      "##cription": 3636,
      "manifest": 3637,
      "##ulate": 3638,
      "##ava": 3639,
      "origin": 3640,
      "##lo": 3641,
      "##erning": 3642,
      "expend": 3643,
      "powers": 3644,
      "parents": 3645,
      "poll": 3646,
      "behalf": 3647,
      "returned": 3648,
      "companies": 3649,
      "master": 3650,
      "idea": 3651,
      "medical": 3652,
      "increased": 3653,
      "undertak": 3654,
      "##gs": 3655,
      "unjust": 3656,
      "concerned": 3657,
      "assembly": 3658,
      "##gest": 3659,
      "chap": 3660,
      "session": 3661,
      "phara": 3662,
      "appl": 3663,
      "memory": 3664,
      "heard": 3665,
      "##for": 3666,
      "tam": 3667,
      "unknow": 3668,
      "pharaoh": 3669,
      "##ades": 3670,
      "praise": 3671,
      "fixed": 3672,
      "virt": 3673,
      "gone": 3674,
      "sle": 3675,
      "poly": 3676,
      "issues": 3677,
      "thereof": 3678,
      "governor": 3679,
      "boy": 3680,
      "cross": 3681,
      "running": 3682,
      "forces": 3683,
      "pict": 3684,
      "##inn": 3685,
      "else": 3686,
      "paper": 3687,
      "pakistan": 3688,
      "repe": 3689,
      "usually": 3690,
      "gh": 3691,
      "lies": 3692,
      "statement": 3693,
      "takes": 3694,
      "fish": 3695,
      "compl": 3696,
      "##ground": 3697,
      "built": 3698,
      "final": 3699,
      "proof": 3700,
      "systems": 3701,
      "programmes": 3702,
      "##kar": 3703,
      "ship": 3704,
      "concerning": 3705,
      "straight": 3706,
      "lic": 3707,
      "apart": 3708,
      "base": 3709,
      "##body": 3710,
      "ancient": 3711,
      "sufficient": 3712,
      "23": 3713,
      "##he": 3714,
      "hearing": 3715,
      "budd": 3716,
      "commissioner": 3717,
      "transport": 3718,
      "##though": 3719,
      "vo": 3720,
      "edit": 3721,
      "collect": 3722,
      "##ggle": 3723,
      "petition": 3724,
      "##ores": 3725,
      "21": 3726,
      "understanding": 3727,
      "wa": 3728,
      "lat": 3729,
      "2014": 3730,
      "administration": 3731,
      "ensure": 3732,
      "although": 3733,
      "opportunity": 3734,
      "parties": 3735,
      "##encies": 3736,
      "placed": 3737,
      "##vant": 3738,
      "mom": 3739,
      "##ps": 3740,
      "abrah": 3741,
      "treatment": 3742,
      "dru": 3743,
      "style": 3744,
      "goes": 3745,
      "learning": 3746,
      "infrastructure": 3747,
      "##ane": 3748,
      "location": 3749,
      "effective": 3750,
      "existence": 3751,
      "protection": 3752,
      "abraham": 3753,
      "##iture": 3754,
      "providing": 3755,
      "schol": 3756,
      "importance": 3757,
      "territ": 3758,
      "ay": 3759,
      "jew": 3760,
      "truly": 3761,
      "blind": 3762,
      "mental": 3763,
      "taste": 3764,
      "##do": 3765,
      "##ivity": 3766,
      "responsible": 3767,
      "academ": 3768,
      "anyone": 3769,
      "knew": 3770,
      "forgiveness": 3771,
      "##app": 3772,
      "finance": 3773,
      "ved": 3774,
      "##ench": 3775,
      "##uck": 3776,
      "citizens": 3777,
      "born": 3778,
      "exerc": 3779,
      "novel": 3780,
      "conference": 3781,
      "##lict": 3782,
      "limit": 3783,
      "sad": 3784,
      "##gh": 3785,
      "islamic": 3786,
      "##oming": 3787,
      "spiritual": 3788,
      "gods": 3789,
      "prescribed": 3790,
      "director": 3791,
      "garden": 3792,
      "cultural": 3793,
      "item": 3794,
      "##ames": 3795,
      "satan": 3796,
      "##aka": 3797,
      "activity": 3798,
      "##agar": 3799,
      "##oted": 3800,
      "inj": 3801,
      "sometimes": 3802,
      "symb": 3803,
      "##light": 3804,
      "facilities": 3805,
      "existing": 3806,
      "unknown": 3807,
      "26": 3808,
      "##with": 3809,
      "getting": 3810,
      "mission": 3811,
      "roy": 3812,
      "##riage": 3813,
      "pos": 3814,
      "army": 3815,
      "insect": 3816,
      "vision": 3817,
      "##ley": 3818,
      "prob": 3819,
      "practice": 3820,
      "beginning": 3821,
      "philosoph": 3822,
      "sight": 3823,
      "##lection": 3824,
      "units": 3825,
      "hyp": 3826,
      "remo": 3827,
      "wanted": 3828,
      "dy": 3829,
      "destroyed": 3830,
      "laws": 3831,
      "walk": 3832,
      "##uce": 3833,
      "match": 3834,
      "histor": 3835,
      "##ids": 3836,
      "mir": 3837,
      "affairs": 3838,
      "22": 3839,
      "team": 3840,
      "chann": 3841,
      "beaut": 3842,
      "bow": 3843,
      "painful": 3844,
      "options": 3845,
      "##band": 3846,
      "tab": 3847,
      "sen": 3848,
      "purs": 3849,
      "eye": 3850,
      "revelations": 3851,
      "obl": 3852,
      "shown": 3853,
      "american": 3854,
      "felt": 3855,
      "poetry": 3856,
      "assistance": 3857,
      "warm": 3858,
      "##ancy": 3859,
      "##ero": 3860,
      "mid": 3861,
      "plants": 3862,
      "female": 3863,
      "looking": 3864,
      "imag": 3865,
      "correct": 3866,
      "presence": 3867,
      "invalid": 3868,
      "##isement": 3869,
      "direction": 3870,
      "miss": 3871,
      "quick": 3872,
      "##ropri": 3873,
      "respond": 3874,
      "severe": 3875,
      "potential": 3876,
      "sah": 3877,
      "weight": 3878,
      "warn": 3879,
      "##enth": 3880,
      "mob": 3881,
      "assign": 3882,
      "appre": 3883,
      "editor": 3884,
      "broad": 3885,
      "forgive": 3886,
      "tried": 3887,
      "##thern": 3888,
      "mountains": 3889,
      "lin": 3890,
      "colour": 3891,
      "animals": 3892,
      "##use": 3893,
      "##osing": 3894,
      "##others": 3895,
      "kingdom": 3896,
      "##ressed": 3897,
      "safe": 3898,
      "oct": 3899,
      "conce": 3900,
      "lad": 3901,
      "medic": 3902,
      "symbol": 3903,
      "uns": 3904,
      "travel": 3905,
      "column": 3906,
      "milk": 3907,
      "##war": 3908,
      "hide": 3909,
      "immediately": 3910,
      "##ingu": 3911,
      "thousand": 3912,
      "punjab": 3913,
      "##hib": 3914,
      "##antly": 3915,
      "permission": 3916,
      "purch": 3917,
      "supported": 3918,
      "pure": 3919,
      "sym": 3920,
      "pie": 3921,
      "##utta": 3922,
      "ger": 3923,
      "range": 3924,
      "numbers": 3925,
      "empt": 3926,
      "sudden": 3927,
      "paradise": 3928,
      "##reg": 3929,
      "##oken": 3930,
      "produc": 3931,
      "revolution": 3932,
      "produced": 3933,
      "frame": 3934,
      "##iff": 3935,
      "officers": 3936,
      "nav": 3937,
      "##to": 3938,
      "former": 3939,
      "added": 3940,
      "bang": 3941,
      "foot": 3942,
      "extra": 3943,
      "dial": 3944,
      "length": 3945,
      "pil": 3946,
      "serious": 3947,
      "ideas": 3948,
      "crore": 3949,
      "dream": 3950,
      "kash": 3951,
      "strik": 3952,
      "additional": 3953,
      "contains": 3954,
      "serve": 3955,
      "##ran": 3956,
      "association": 3957,
      "2015": 3958,
      "supply": 3959,
      "31": 3960,
      "track": 3961,
      "addition": 3962,
      "aspect": 3963,
      "media": 3964,
      "##osis": 3965,
      "advance": 3966,
      "##reed": 3967,
      "cry": 3968,
      "repent": 3969,
      "formed": 3970,
      "someone": 3971,
      "gar": 3972,
      "##anced": 3973,
      "height": 3974,
      "folk": 3975,
      "argu": 3976,
      "continued": 3977,
      "mos": 3978,
      "nay": 3979,
      "strateg": 3980,
      "remote": 3981,
      "sacr": 3982,
      "annual": 3983,
      "##yan": 3984,
      "workers": 3985,
      "termin": 3986,
      "##ply": 3987,
      "##uls": 3988,
      "twenty": 3989,
      "regarding": 3990,
      "responsibility": 3991,
      "192": 3992,
      "##ended": 3993,
      "hur": 3994,
      "attempt": 3995,
      "generation": 3996,
      "hot": 3997,
      "##iva": 3998,
      "opinion": 3999,
      "mumb": 4000,
      "fully": 4001,
      "sons": 4002,
      "##the": 4003,
      "##icket": 4004,
      "valid": 4005,
      "youth": 4006,
      "speed": 4007,
      "circum": 4008,
      "grace": 4009,
      "##mu": 4010,
      "kal": 4011,
      "male": 4012,
      "sept": 4013,
      "##ils": 4014,
      "sus": 4015,
      "trial": 4016,
      "items": 4017,
      "##char": 4018,
      "whosoever": 4019,
      "##tar": 4020,
      "ang": 4021,
      "esc": 4022,
      "resident": 4023,
      "##ikh": 4024,
      "sold": 4025,
      "mentioned": 4026,
      "fest": 4027,
      "prosper": 4028,
      "balance": 4029,
      "judgment": 4030,
      "increasing": 4031,
      "greet": 4032,
      "bount": 4033,
      "recover": 4034,
      "presented": 4035,
      "bod": 4036,
      "wait": 4037,
      "##atures": 4038,
      "transgress": 4039,
      "denied": 4040,
      "particularly": 4041,
      "worth": 4042,
      "screen": 4043,
      "execut": 4044,
      "27": 4045,
      "successful": 4046,
      "online": 4047,
      "calcutta": 4048,
      "reply": 4049,
      "2000": 4050,
      "##nal": 4051,
      "graph": 4052,
      "manager": 4053,
      "cloud": 4054,
      "##porary": 4055,
      "##iation": 4056,
      "emb": 4057,
      "writ": 4058,
      "transform": 4059,
      "division": 4060,
      "plugin": 4061,
      "contro": 4062,
      "concept": 4063,
      "promised": 4064,
      "##set": 4065,
      "##erous": 4066,
      "##ami": 4067,
      "swe": 4068,
      "##inate": 4069,
      "##arily": 4070,
      "inside": 4071,
      "ps": 4072,
      "insurance": 4073,
      "types": 4074,
      "##asc": 4075,
      "mumbai": 4076,
      "##icial": 4077,
      "sect": 4078,
      "democracy": 4079,
      "famous": 4080,
      "technical": 4081,
      "measures": 4082,
      "fruit": 4083,
      "hosp": 4084,
      "recomm": 4085,
      "review": 4086,
      "explan": 4087,
      "hours": 4088,
      "college": 4089,
      "changed": 4090,
      "dut": 4091,
      "initial": 4092,
      "perman": 4093,
      "granted": 4094,
      "bra": 4095,
      "##miss": 4096,
      "stream": 4097,
      "mechan": 4098,
      "ash": 4099,
      "shah": 4100,
      "##abh": 4101,
      "patter": 4102,
      "corru": 4103,
      "feet": 4104,
      "audio": 4105,
      "disci": 4106,
      "wills": 4107,
      "maximum": 4108,
      "output": 4109,
      "appeal": 4110,
      "exal": 4111,
      "consequ": 4112,
      "drive": 4113,
      "##ateful": 4114,
      "violence": 4115,
      "capt": 4116,
      "documents": 4117,
      "reflect": 4118,
      "##ti": 4119,
      "wel": 4120,
      "##where": 4121,
      "appropri": 4122,
      "recomp": 4123,
      "##mir": 4124,
      "##ays": 4125,
      "magn": 4126,
      "january": 4127,
      "enemy": 4128,
      "chastisement": 4129,
      "processing": 4130,
      "associated": 4131,
      "standards": 4132,
      "wishes": 4133,
      "heavy": 4134,
      "relationship": 4135,
      "moment": 4136,
      "advice": 4137,
      "secure": 4138,
      "occup": 4139,
      "intellect": 4140,
      "beautiful": 4141,
      "##raft": 4142,
      "saved": 4143,
      "apostle": 4144,
      "governments": 4145,
      "sins": 4146,
      "jinn": 4147,
      "ran": 4148,
      "minimum": 4149,
      "scientific": 4150,
      "ham": 4151,
      "##rew": 4152,
      "##cip": 4153,
      "threat": 4154,
      "##oting": 4155,
      "imper": 4156,
      "box": 4157,
      "expenditure": 4158,
      "powerful": 4159,
      "cd": 4160,
      "completed": 4161,
      "separate": 4162,
      "mat": 4163,
      "recent": 4164,
      "benefits": 4165,
      "28": 4166,
      "##mar": 4167,
      "idol": 4168,
      "##icit": 4169,
      "##standing": 4170,
      "##hy": 4171,
      "##inite": 4172,
      "sri": 4173,
      "entry": 4174,
      "instrument": 4175,
      "corporation": 4176,
      "cloth": 4177,
      "##ucle": 4178,
      "minus": 4179,
      "distin": 4180,
      "leader": 4181,
      "filter": 4182,
      "temper": 4183,
      "reading": 4184,
      "title": 4185,
      "otherwise": 4186,
      "marriage": 4187,
      "attention": 4188,
      "highest": 4189,
      "regional": 4190,
      "chem": 4191,
      "doers": 4192,
      "##que": 4193,
      "results": 4194,
      "expression": 4195,
      "attract": 4196,
      "implementation": 4197,
      "terrorism": 4198,
      "kashmir": 4199,
      "pattern": 4200,
      "inher": 4201,
      "star": 4202,
      "ball": 4203,
      "##rie": 4204,
      "##ining": 4205,
      "##ipur": 4206,
      "input": 4207,
      "arrange": 4208,
      "wis": 4209,
      "complex": 4210,
      "neh": 4211,
      "longer": 4212,
      "cooperation": 4213,
      "consist": 4214,
      "internet": 4215,
      "chapter": 4216,
      "##bs": 4217,
      "faces": 4218,
      "##eter": 4219,
      "commercial": 4220,
      "ton": 4221,
      "authent": 4222,
      "lok": 4223,
      "##iverse": 4224,
      "selection": 4225,
      "operations": 4226,
      "procedure": 4227,
      "##order": 4228,
      "farmers": 4229,
      "pleasure": 4230,
      "##iers": 4231,
      "##ini": 4232,
      "sort": 4233,
      "##amental": 4234,
      "prostr": 4235,
      "belief": 4236,
      "questions": 4237,
      "mou": 4238,
      "guj": 4239,
      "machine": 4240,
      "penal": 4241,
      "model": 4242,
      "listen": 4243,
      "##gy": 4244,
      "announ": 4245,
      "employees": 4246,
      "empty": 4247,
      "fathers": 4248,
      "ker": 4249,
      "medium": 4250,
      "##la": 4251,
      "##cer": 4252,
      "organisation": 4253,
      "opened": 4254,
      "performance": 4255,
      "ready": 4256,
      "##cle": 4257,
      "shows": 4258,
      "behold": 4259,
      "nucle": 4260,
      "##iment": 4261,
      "grand": 4262,
      "contain": 4263,
      "quar": 4264,
      "ago": 4265,
      "educational": 4266,
      "description": 4267,
      "2013": 4268,
      "fit": 4269,
      "standing": 4270,
      "disob": 4271,
      "organization": 4272,
      "schemes": 4273,
      "comment": 4274,
      "bond": 4275,
      "##ality": 4276,
      "enterpr": 4277,
      "gn": 4278,
      "stories": 4279,
      "funds": 4280,
      "nehru": 4281,
      "background": 4282,
      "ignor": 4283,
      "##ese": 4284,
      "cash": 4285,
      "struggle": 4286,
      "##izing": 4287,
      "drop": 4288,
      "assets": 4289,
      "explanation": 4290,
      "reference": 4291,
      "military": 4292,
      "ms": 4293,
      "principal": 4294,
      "laid": 4295,
      "##akes": 4296,
      "download": 4297,
      "june": 4298,
      "staff": 4299,
      "useful": 4300,
      "##board": 4301,
      "##fall": 4302,
      "animal": 4303,
      "interp": 4304,
      "krishna": 4305,
      "registr": 4306,
      "traditional": 4307,
      "##xy": 4308,
      "election": 4309,
      "forest": 4310,
      "consult": 4311,
      "december": 4312,
      "domestic": 4313,
      "cat": 4314,
      "cities": 4315,
      "tradition": 4316,
      "connected": 4317,
      "effort": 4318,
      "url": 4319,
      "primary": 4320,
      "suggest": 4321,
      "pand": 4322,
      "libr": 4323,
      "courts": 4324,
      "mur": 4325,
      "covered": 4326,
      "governance": 4327,
      "pranabmu": 4328,
      "pranabmukherjee": 4329,
      "innovation": 4330,
      "fill": 4331,
      "species": 4332,
      "##avi": 4333,
      "storage": 4334,
      "images": 4335,
      "site": 4336,
      "##ilit": 4337,
      "##sec": 4338,
      "##aksh": 4339,
      "cells": 4340,
      "average": 4341,
      "functions": 4342,
      "reminder": 4343,
      "resource": 4344,
      "directly": 4345,
      "extent": 4346,
      "communic": 4347,
      "regul": 4348,
      "calls": 4349,
      "##ifying": 4350,
      "##hab": 4351,
      "entered": 4352,
      "causes": 4353,
      "named": 4354,
      "wisdom": 4355,
      "##ober": 4356,
      "reb": 4357,
      "convey": 4358,
      "##asa": 4359,
      "foundation": 4360,
      "steps": 4361,
      "01": 4362,
      "font": 4363,
      "incl": 4364,
      "tid": 4365,
      "yog": 4366,
      "##bi": 4367,
      "compon": 4368,
      "stock": 4369,
      "seed": 4370,
      "insert": 4371,
      "journey": 4372,
      "exists": 4373,
      "relation": 4374,
      "target": 4375,
      "profit": 4376,
      "mun": 4377,
      "rise": 4378,
      "china": 4379,
      "magic": 4380,
      "august": 4381,
      "##rant": 4382,
      "mas": 4383,
      "includes": 4384,
      "acts": 4385,
      "confirm": 4386,
      "turk": 4387,
      "##atically": 4388,
      "##iling": 4389,
      "trees": 4390,
      "ali": 4391,
      "september": 4392,
      "october": 4393,
      "leaves": 4394,
      "plain": 4395,
      "hidden": 4396,
      "electron": 4397,
      "##aces": 4398,
      "husband": 4399,
      "##pper": 4400,
      "thank": 4401,
      "electric": 4402,
      "station": 4403,
      "focus": 4404,
      "shr": 4405,
      "opportunities": 4406,
      "discover": 4407,
      "circumst": 4408,
      "refuge": 4409,
      "leading": 4410,
      "##kt": 4411,
      "wild": 4412,
      "##rep": 4413,
      "seem": 4414,
      "opening": 4415,
      "egg": 4416,
      "rout": 4417,
      "##under": 4418,
      "block": 4419,
      "voice": 4420,
      "##ered": 4421,
      "events": 4422,
      "distribution": 4423,
      "furn": 4424,
      "lines": 4425,
      "##eg": 4426,
      "avoid": 4427,
      "contacts": 4428,
      "root": 4429,
      "tamil": 4430,
      "tom": 4431,
      "policies": 4432,
      "independent": 4433,
      "chairman": 4434,
      "won": 4435,
      "##ula": 4436,
      "##abor": 4437,
      "che": 4438,
      "resol": 4439,
      "universities": 4440,
      "compass": 4441,
      "sale": 4442,
      "##ras": 4443,
      "##pted": 4444,
      "##ography": 4445,
      "##ex": 4446,
      "quant": 4447,
      "windows": 4448,
      "##oom": 4449,
      "largest": 4450,
      "noble": 4451,
      "earn": 4452,
      "relevant": 4453,
      "risk": 4454,
      "##onse": 4455,
      "##rate": 4456,
      "crim": 4457,
      "flo": 4458,
      "##ww": 4459,
      "fat": 4460,
      "40": 4461,
      "##eless": 4462,
      "warning": 4463,
      "sister": 4464,
      "stre": 4465,
      "nove": 4466,
      "square": 4467,
      "fruits": 4468,
      "fed": 4469,
      "request": 4470,
      "extreme": 4471,
      "lived": 4472,
      "response": 4473,
      "sacred": 4474,
      "pad": 4475,
      "##enced": 4476,
      "palest": 4477,
      "##ga": 4478,
      "##iration": 4479,
      "speaking": 4480,
      "wives": 4481,
      "##osen": 4482,
      "welf": 4483,
      "surface": 4484,
      "indians": 4485,
      "promotion": 4486,
      "collection": 4487,
      "contribution": 4488,
      "welfare": 4489,
      "ka": 4490,
      "vert": 4491,
      "goog": 4492,
      "maintain": 4493,
      "bed": 4494,
      "sides": 4495,
      "studies": 4496,
      "growing": 4497,
      "absol": 4498,
      "##asth": 4499,
      "consciousness": 4500,
      "##aced": 4501,
      "distance": 4502,
      "challeng": 4503,
      "store": 4504,
      "included": 4505,
      "desires": 4506,
      "appropriate": 4507,
      "intellig": 4508,
      "amongst": 4509,
      "helped": 4510,
      "fields": 4511,
      "kar": 4512,
      "stone": 4513,
      "asset": 4514,
      "fle": 4515,
      "##ext": 4516,
      "##ocks": 4517,
      "thinking": 4518,
      "iii": 4519,
      "played": 4520,
      "2016": 4521,
      "fert": 4522,
      "km": 4523,
      "planning": 4524,
      "sleep": 4525,
      "divided": 4526,
      "bin": 4527,
      "##rom": 4528,
      "excl": 4529,
      "utter": 4530,
      "engineering": 4531,
      "bombay": 4532,
      "gain": 4533,
      "www": 4534,
      "rejected": 4535,
      "ic": 4536,
      "ult": 4537,
      "appreci": 4538,
      "properties": 4539,
      "convers": 4540,
      "portion": 4541,
      "##aging": 4542,
      "dang": 4543,
      "shape": 4544,
      "deemed": 4545,
      "seems": 4546,
      "##athy": 4547,
      "series": 4548,
      "accordance": 4549,
      "legislative": 4550,
      "google": 4551,
      "util": 4552,
      "diss": 4553,
      "soil": 4554,
      "##nes": 4555,
      "oce": 4556,
      "##osph": 4557,
      "lack": 4558,
      "appointment": 4559,
      "raise": 4560,
      "killed": 4561,
      "needed": 4562,
      "cattle": 4563,
      "defence": 4564,
      "rap": 4565,
      "dust": 4566,
      "joy": 4567,
      "rever": 4568,
      "pred": 4569,
      "waste": 4570,
      "mort": 4571,
      "trying": 4572,
      "##ora": 4573,
      "communication": 4574,
      "frequ": 4575,
      "guru": 4576,
      "griev": 4577,
      "withd": 4578,
      "safety": 4579,
      "gas": 4580,
      "feb": 4581,
      "folders": 4582,
      "adopted": 4583,
      "likely": 4584,
      "november": 4585,
      "##ih": 4586,
      "bott": 4587,
      "##ayan": 4588,
      "glad": 4589,
      "uttar": 4590,
      "veget": 4591,
      "difference": 4592,
      "element": 4593,
      "##uation": 4594,
      "##verty": 4595,
      "##atha": 4596,
      "prec": 4597,
      "involved": 4598,
      "refers": 4599,
      "affect": 4600,
      "replace": 4601,
      "tidings": 4602,
      "altern": 4603,
      "phone": 4604,
      "influence": 4605,
      "significant": 4606,
      "sir": 4607,
      "##hra": 4608,
      "##uff": 4609,
      "gandhiji": 4610,
      "poverty": 4611,
      "rupe": 4612,
      "urb": 4613,
      "mouth": 4614,
      "35": 4615,
      "majority": 4616,
      "developing": 4617,
      "july": 4618,
      "##aters": 4619,
      "seeing": 4620,
      "##ression": 4621,
      "neigh": 4622,
      "construction": 4623,
      "park": 4624,
      "##shipp": 4625,
      "eastern": 4626,
      "stated": 4627,
      "associate": 4628,
      "schedul": 4629,
      "##ped": 4630,
      "worshipp": 4631,
      "minor": 4632,
      "skin": 4633,
      "2007": 4634,
      "applications": 4635,
      "committed": 4636,
      "articles": 4637,
      "reven": 4638,
      "circumstances": 4639,
      "wood": 4640,
      "neighb": 4641,
      "bag": 4642,
      "exceed": 4643,
      "unl": 4644,
      "unique": 4645,
      "internal": 4646,
      "declared": 4647,
      "render": 4648,
      "propos": 4649,
      "##ze": 4650,
      "##iry": 4651,
      "centres": 4652,
      "elements": 4653,
      "##ocation": 4654,
      "##lly": 4655,
      "##inent": 4656,
      "philosophy": 4657,
      "##oms": 4658,
      "ourselves": 4659,
      "holy": 4660,
      "dim": 4661,
      "moving": 4662,
      "rob": 4663,
      "clearly": 4664,
      "extended": 4665,
      "##apan": 4666,
      "subh": 4667,
      "breast": 4668,
      "hospital": 4669,
      "remained": 4670,
      "dry": 4671,
      "##iring": 4672,
      "channel": 4673,
      "urban": 4674,
      "param": 4675,
      "truthful": 4676,
      "expected": 4677,
      "##iy": 4678,
      "center": 4679,
      "##osh": 4680,
      "##ishn": 4681,
      "coven": 4682,
      "recompense": 4683,
      "##ych": 4684,
      "stead": 4685,
      "procl": 4686,
      "expand": 4687,
      "advant": 4688,
      "creating": 4689,
      "taught": 4690,
      "hindus": 4691,
      "larger": 4692,
      "##oon": 4693,
      "interests": 4694,
      "vac": 4695,
      "monitor": 4696,
      "mary": 4697,
      "chosen": 4698,
      "tend": 4699,
      "reality": 4700,
      "##ateral": 4701,
      "dan": 4702,
      "##right": 4703,
      "##ented": 4704,
      "late": 4705,
      "amb": 4706,
      "atm": 4707,
      "succeed": 4708,
      "##asons": 4709,
      "removed": 4710,
      "##icked": 4711,
      "located": 4712,
      "scripture": 4713,
      "pa": 4714,
      "whenever": 4715,
      "emph": 4716,
      "earned": 4717,
      "configuration": 4718,
      "brings": 4719,
      "dat": 4720,
      "died": 4721,
      "##ipt": 4722,
      "##iny": 4723,
      "exercise": 4724,
      "daily": 4725,
      "mutual": 4726,
      "sand": 4727,
      "universal": 4728,
      "points": 4729,
      "##tion": 4730,
      "evening": 4731,
      "villages": 4732,
      "partnership": 4733,
      "crop": 4734,
      "deskt": 4735,
      "forbidden": 4736,
      "poems": 4737,
      "bhag": 4738,
      "dialog": 4739,
      "construct": 4740,
      "birds": 4741,
      "described": 4742,
      "promote": 4743,
      "forget": 4744,
      "looked": 4745,
      "temples": 4746,
      "nine": 4747,
      "examination": 4748,
      "80": 4749,
      "spl": 4750,
      "facilit": 4751,
      "beauty": 4752,
      "fine": 4753,
      "lik": 4754,
      "woe": 4755,
      "dv": 4756,
      "rom": 4757,
      "spr": 4758,
      "consideration": 4759,
      "destination": 4760,
      "german": 4761,
      "##mark": 4762,
      "##enge": 4763,
      "unity": 4764,
      "##ube": 4765,
      "debt": 4766,
      "absolute": 4767,
      "lest": 4768,
      "tagore": 4769,
      "##enn": 4770,
      "proud": 4771,
      "##iciency": 4772,
      "1st": 4773,
      "##ales": 4774,
      "everyone": 4775,
      "disbelieved": 4776,
      "famil": 4777,
      "characters": 4778,
      "width": 4779,
      "equip": 4780,
      "european": 4781,
      "##itis": 4782,
      "##ague": 4783,
      "distingu": 4784,
      "picture": 4785,
      "japan": 4786,
      "##ros": 4787,
      "excess": 4788,
      "engaged": 4789,
      "chance": 4790,
      "deposit": 4791,
      "gets": 4792,
      "extension": 4793,
      "teachers": 4794,
      "burning": 4795,
      "jur": 4796,
      "##oles": 4797,
      "awards": 4798,
      "context": 4799,
      "wherein": 4800,
      "wonder": 4801,
      "mobile": 4802,
      "anti": 4803,
      "##onds": 4804,
      "levels": 4805,
      "solar": 4806,
      "observed": 4807,
      "##raw": 4808,
      "attrib": 4809,
      "slow": 4810,
      "expert": 4811,
      "heed": 4812,
      "vast": 4813,
      "##ius": 4814,
      "covenant": 4815,
      "cook": 4816,
      "organiz": 4817,
      "friendly": 4818,
      "objective": 4819,
      "throughout": 4820,
      "glor": 4821,
      "views": 4822,
      "secretary": 4823,
      "map": 4824,
      "update": 4825,
      "cold": 4826,
      "##aving": 4827,
      "191": 4828,
      "02": 4829,
      "##idge": 4830,
      "trou": 4831,
      "tribun": 4832,
      "##rated": 4833,
      "##ruary": 4834,
      "schools": 4835,
      "akbar": 4836,
      "registered": 4837,
      "29": 4838,
      "##inery": 4839,
      "##adi": 4840,
      "shares": 4841,
      "blessings": 4842,
      "academic": 4843,
      "compassion": 4844,
      "##aring": 4845,
      "button": 4846,
      "volume": 4847,
      "##iles": 4848,
      "oath": 4849,
      "nepal": 4850,
      "seeking": 4851,
      "excellent": 4852,
      "chemical": 4853,
      "hill": 4854,
      "que": 4855,
      "replied": 4856,
      "february": 4857,
      "prison": 4858,
      "theme": 4859,
      "60": 4860,
      "hall": 4861,
      "fresh": 4862,
      "contained": 4863,
      "descend": 4864,
      "teacher": 4865,
      "homes": 4866,
      "yield": 4867,
      "##usive": 4868,
      "gov": 4869,
      "reserve": 4870,
      "returns": 4871,
      "mist": 4872,
      "##ae": 4873,
      "disput": 4874,
      "divide": 4875,
      "chandra": 4876,
      "##acious": 4877,
      "##reh": 4878,
      "##iled": 4879,
      "cultiv": 4880,
      "nuclear": 4881,
      "orient": 4882,
      "sick": 4883,
      "greatest": 4884,
      "switch": 4885,
      "petitioner": 4886,
      "souls": 4887,
      "visible": 4888,
      "analys": 4889,
      "families": 4890,
      "##ortion": 4891,
      "##com": 4892,
      "merely": 4893,
      "crops": 4894,
      "hun": 4895,
      "door": 4896,
      "brow": 4897,
      "##gen": 4898,
      "resolution": 4899,
      "##road": 4900,
      "railway": 4901,
      "2005": 4902,
      "##grat": 4903,
      "banking": 4904,
      "band": 4905,
      "ble": 4906,
      "##cel": 4907,
      "2008": 4908,
      "encry": 4909,
      "perfect": 4910,
      "desktop": 4911,
      "spent": 4912,
      "fellow": 4913,
      "##ervation": 4914,
      "rej": 4915,
      "ministers": 4916,
      "panch": 4917,
      "ideal": 4918,
      "tong": 4919,
      "##ifice": 4920,
      "charges": 4921,
      "exalted": 4922,
      "aust": 4923,
      "dispute": 4924,
      "variety": 4925,
      "surr": 4926,
      "iran": 4927,
      "double": 4928,
      "delivered": 4929,
      "forever": 4930,
      "thereafter": 4931,
      "2006": 4932,
      "keeping": 4933,
      "easily": 4934,
      "micro": 4935,
      "nut": 4936,
      "##ips": 4937,
      "entit": 4938,
      "authorities": 4939,
      "battle": 4940,
      "whe": 4941,
      "payable": 4942,
      "determined": 4943,
      "feeling": 4944,
      "registration": 4945,
      "pleased": 4946,
      "aid": 4947,
      "mac": 4948,
      "entr": 4949,
      "advanced": 4950,
      "learned": 4951,
      "##aling": 4952,
      "memo": 4953,
      "turns": 4954,
      "sections": 4955,
      "##rene": 4956,
      "wrongdo": 4957,
      "sending": 4958,
      "estim": 4959,
      "cand": 4960,
      "kinds": 4961,
      "dear": 4962,
      "##retch": 4963,
      "assistant": 4964,
      "ax": 4965,
      "notification": 4966,
      "##arma": 4967,
      "library": 4968,
      "jose": 4969,
      "amendment": 4970,
      "enabled": 4971,
      "remains": 4972,
      "##adu": 4973,
      "disk": 4974,
      "rapid": 4975,
      "##idy": 4976,
      "passing": 4977,
      "entrep": 4978,
      "receipt": 4979,
      "festival": 4980,
      "actions": 4981,
      "users": 4982,
      "brothers": 4983,
      "believing": 4984,
      "##aja": 4985,
      "defined": 4986,
      "preview": 4987,
      "surround": 4988,
      "vital": 4989,
      "##inet": 4990,
      "flu": 4991,
      "##ixt": 4992,
      "buy": 4993,
      "darkness": 4994,
      "degree": 4995,
      "khan": 4996,
      "##rim": 4997,
      "agency": 4998,
      "interv": 4999,
      "##ashtra": 5000,
      "tasks": 5001,
      "principles": 5002,
      "songs": 5003,
      "##pap": 5004,
      "probably": 5005,
      "worked": 5006,
      "##resp": 5007,
      "impl": 5008,
      "desert": 5009,
      "2012": 5010,
      "waiting": 5011,
      "vent": 5012,
      "yourself": 5013,
      "failure": 5014,
      "multiple": 5015,
      "guil": 5016,
      "critic": 5017,
      "rot": 5018,
      "##kon": 5019,
      "##chand": 5020,
      "##ogen": 5021,
      "literary": 5022,
      "season": 5023,
      "weather": 5024,
      "integral": 5025,
      "divers": 5026,
      "sav": 5027,
      "##teen": 5028,
      "glory": 5029,
      "##box": 5030,
      "kum": 5031,
      "happen": 5032,
      "counter": 5033,
      "archive": 5034,
      "##iance": 5035,
      "noah": 5036,
      "wants": 5037,
      "entreprene": 5038,
      "##aji": 5039,
      "executive": 5040,
      "math": 5041,
      "finally": 5042,
      "offered": 5043,
      "delivery": 5044,
      "##ocol": 5045,
      "emphas": 5046,
      "offline": 5047,
      "inner": 5048,
      "assured": 5049,
      "pressure": 5050,
      "admon": 5051,
      "##icated": 5052,
      "contem": 5053,
      "relief": 5054,
      "tiss": 5055,
      "democratic": 5056,
      "girl": 5057,
      "province": 5058,
      "##omy": 5059,
      "##esty": 5060,
      "subt": 5061,
      "lock": 5062,
      "##nding": 5063,
      "sho": 5064,
      "mountain": 5065,
      "victory": 5066,
      "rama": 5067,
      "rock": 5068,
      "thanks": 5069,
      "whereas": 5070,
      "madh": 5071,
      "jaw": 5072,
      "mahat": 5073,
      "happened": 5074,
      "yoga": 5075,
      "ip": 5076,
      "pi": 5077,
      "##olid": 5078,
      "##istics": 5079,
      "impact": 5080,
      "installed": 5081,
      "jews": 5082,
      "compens": 5083,
      "currently": 5084,
      "bounty": 5085,
      "##enses": 5086,
      "guilty": 5087,
      "##era": 5088,
      "penalty": 5089,
      "notes": 5090,
      "worlds": 5091,
      "##inated": 5092,
      "goal": 5093,
      "delight": 5094,
      "karn": 5095,
      "rab": 5096,
      "russ": 5097,
      "delay": 5098,
      "eth": 5099,
      "establishment": 5100,
      "##actions": 5101,
      "##eties": 5102,
      "knower": 5103,
      "##avour": 5104,
      "devotion": 5105,
      "moral": 5106,
      "myself": 5107,
      "follows": 5108,
      "bodies": 5109,
      "administrative": 5110,
      "bor": 5111,
      "adjust": 5112,
      "mainly": 5113,
      "fab": 5114,
      "##rain": 5115,
      "##uries": 5116,
      "##ller": 5117,
      "##ahar": 5118,
      "wronged": 5119,
      "00": 5120,
      "pill": 5121,
      "sought": 5122,
      "himal": 5123,
      "england": 5124,
      "blessed": 5125,
      "sustain": 5126,
      "plat": 5127,
      "recently": 5128,
      "completely": 5129,
      "##erate": 5130,
      "bharat": 5131,
      "intellectual": 5132,
      "obst": 5133,
      "sor": 5134,
      "unse": 5135,
      "2001": 5136,
      "psych": 5137,
      "od": 5138,
      "exact": 5139,
      "32": 5140,
      "cru": 5141,
      "##ilateral": 5142,
      "submit": 5143,
      "expressed": 5144,
      "gaz": 5145,
      "defe": 5146,
      "diseases": 5147,
      "nom": 5148,
      "upper": 5149,
      "doctor": 5150,
      "judgement": 5151,
      "joined": 5152,
      "automatically": 5153,
      "cer": 5154,
      "kerala": 5155,
      "reasons": 5156,
      "##ster": 5157,
      "curs": 5158,
      "liqu": 5159,
      "latest": 5160,
      "scheduled": 5161,
      "compreh": 5162,
      "##ception": 5163,
      "archit": 5164,
      "##aneous": 5165,
      "curren": 5166,
      "iron": 5167,
      "horiz": 5168,
      "##mi": 5169,
      "sev": 5170,
      "defend": 5171,
      "individuals": 5172,
      "territory": 5173,
      "thereby": 5174,
      "burden": 5175,
      "introduced": 5176,
      "seized": 5177,
      "generations": 5178,
      "appell": 5179,
      "priority": 5180,
      "juris": 5181,
      "methods": 5182,
      "architect": 5183,
      "adequ": 5184,
      "1961": 5185,
      "adver": 5186,
      "contents": 5187,
      "joseph": 5188,
      "abd": 5189,
      "phase": 5190,
      "greetings": 5191,
      "welcome": 5192,
      "##aud": 5193,
      "prices": 5194,
      "quot": 5195,
      "confident": 5196,
      "swear": 5197,
      "teaching": 5198,
      "##una": 5199,
      "bah": 5200,
      "dip": 5201,
      "##amed": 5202,
      "disable": 5203,
      "reckon": 5204,
      "orders": 5205,
      "affected": 5206,
      "inspired": 5207,
      "cave": 5208,
      "partner": 5209,
      "string": 5210,
      "positive": 5211,
      "insects": 5212,
      "actual": 5213,
      "relative": 5214,
      "congrat": 5215,
      "dated": 5216,
      "hence": 5217,
      "##ox": 5218,
      "##abilities": 5219,
      "breath": 5220,
      "reduced": 5221,
      "sectors": 5222,
      "shared": 5223,
      "household": 5224,
      "drawn": 5225,
      "treas": 5226,
      "guar": 5227,
      "deleg": 5228,
      "practices": 5229,
      "mahatma": 5230,
      "fundamental": 5231,
      "recommend": 5232,
      "abroad": 5233,
      "consumer": 5234,
      "figure": 5235,
      "rank": 5236,
      "sources": 5237,
      "##icip": 5238,
      "bestowed": 5239,
      "datab": 5240,
      "minutes": 5241,
      "highly": 5242,
      "##urate": 5243,
      "suddenly": 5244,
      "dur": 5245,
      "recip": 5246,
      "demon": 5247,
      "deduction": 5248,
      "bengali": 5249,
      "##asting": 5250,
      "letters": 5251,
      "limits": 5252,
      "latter": 5253,
      "cricket": 5254,
      "critical": 5255,
      "nearly": 5256,
      "survey": 5257,
      "assigned": 5258,
      "##osphere": 5259,
      "fly": 5260,
      "parliamentary": 5261,
      "inaug": 5262,
      "bright": 5263,
      "agencies": 5264,
      "190": 5265,
      "##rible": 5266,
      "maharashtra": 5267,
      "features": 5268,
      "train": 5269,
      "incident": 5270,
      "fell": 5271,
      "moved": 5272,
      "rajasth": 5273,
      "marketing": 5274,
      "discipl": 5275,
      "warner": 5276,
      "falsehood": 5277,
      "sacrifice": 5278,
      "dia": 5279,
      "daughter": 5280,
      "##vious": 5281,
      "recall": 5282,
      "machinery": 5283,
      "carrying": 5284,
      "shap": 5285,
      "##une": 5286,
      "van": 5287,
      "alt": 5288,
      "confidence": 5289,
      "##oo": 5290,
      "plot": 5291,
      "guides": 5292,
      "rang": 5293,
      "grass": 5294,
      "valley": 5295,
      "favor": 5296,
      "##ux": 5297,
      "2002": 5298,
      "corresp": 5299,
      "ly": 5300,
      "bind": 5301,
      "pac": 5302,
      "beings": 5303,
      "guarant": 5304,
      "abode": 5305,
      "filled": 5306,
      "##ika": 5307,
      "blue": 5308,
      "obvious": 5309,
      "profits": 5310,
      "leaf": 5311,
      "profess": 5312,
      "newspap": 5313,
      "lif": 5314,
      "meant": 5315,
      "##iya": 5316,
      "suitable": 5317,
      "caste": 5318,
      "##kh": 5319,
      "##rees": 5320,
      "effects": 5321,
      "encoura": 5322,
      "changing": 5323,
      "witnesses": 5324,
      "##aign": 5325,
      "regions": 5326,
      "assum": 5327,
      "encourage": 5328,
      "eleph": 5329,
      "icon": 5330,
      "##oser": 5331,
      "translation": 5332,
      "cab": 5333,
      "##cript": 5334,
      "palestin": 5335,
      "compar": 5336,
      "purchase": 5337,
      "duties": 5338,
      "##oj": 5339,
      "##iet": 5340,
      "sanct": 5341,
      "speaker": 5342,
      "radio": 5343,
      "ganga": 5344,
      "gate": 5345,
      "requirements": 5346,
      "##gypt": 5347,
      "trave": 5348,
      "##india": 5349,
      "tribunal": 5350,
      "ine": 5351,
      "##ingly": 5352,
      "dischar": 5353,
      "##omet": 5354,
      "privile": 5355,
      "iv": 5356,
      "jes": 5357,
      "##erved": 5358,
      "##icate": 5359,
      "hyd": 5360,
      "rare": 5361,
      "sikh": 5362,
      "##ii": 5363,
      "wee": 5364,
      "ocean": 5365,
      "egypt": 5366,
      "reports": 5367,
      "leadership": 5368,
      "heat": 5369,
      "index": 5370,
      "fourth": 5371,
      "ira": 5372,
      "vig": 5373,
      "##da": 5374,
      "menu": 5375,
      "starting": 5376,
      "protocol": 5377,
      "initiatives": 5378,
      "launched": 5379,
      "schedule": 5380,
      "faithful": 5381,
      "commanded": 5382,
      "permanent": 5383,
      "journal": 5384,
      "pip": 5385,
      "recon": 5386,
      "guardian": 5387,
      "negative": 5388,
      "##hic": 5389,
      "##11": 5390,
      "##ena": 5391,
      "entitled": 5392,
      "adult": 5393,
      "teleph": 5394,
      "##fort": 5395,
      "excellency": 5396,
      "##nel": 5397,
      "margin": 5398,
      "holding": 5399,
      "sanction": 5400,
      "campaign": 5401,
      "senior": 5402,
      "##ithm": 5403,
      "fault": 5404,
      "facility": 5405,
      "drugs": 5406,
      "gujarat": 5407,
      "tomorrow": 5408,
      "##odes": 5409,
      "agreed": 5410,
      "materials": 5411,
      "arg": 5412,
      "owner": 5413,
      "strike": 5414,
      "irr": 5415,
      "##ira": 5416,
      "shad": 5417,
      "suffering": 5418,
      "bc": 5419,
      "##ologies": 5420,
      "rajasthan": 5421,
      "##imately": 5422,
      "ability": 5423,
      "vehic": 5424,
      "pages": 5425,
      "stood": 5426,
      "##med": 5427,
      "appar": 5428,
      "##ndon": 5429,
      "toward": 5430,
      "writer": 5431,
      "substant": 5432,
      "bottom": 5433,
      "whatsoever": 5434,
      "##isms": 5435,
      "politics": 5436,
      "pollution": 5437,
      "##ifies": 5438,
      "atom": 5439,
      "submitted": 5440,
      "temporary": 5441,
      "arabic": 5442,
      "unseen": 5443,
      "historical": 5444,
      "fabric": 5445,
      "##arian": 5446,
      "##iven": 5447,
      "coord": 5448,
      "climate": 5449,
      "factor": 5450,
      "reduce": 5451,
      "recorded": 5452,
      "iraq": 5453,
      "habit": 5454,
      "fighting": 5455,
      "motion": 5456,
      "asp": 5457,
      "proved": 5458,
      "bul": 5459,
      "hair": 5460,
      "factors": 5461,
      "proceedings": 5462,
      "license": 5463,
      "hop": 5464,
      "offices": 5465,
      "audit": 5466,
      "currency": 5467,
      "##astic": 5468,
      "instance": 5469,
      "throne": 5470,
      "marked": 5471,
      "joh": 5472,
      "##arati": 5473,
      "polythe": 5474,
      "lit": 5475,
      "conflict": 5476,
      "elections": 5477,
      "rajya": 5478,
      "attached": 5479,
      "empire": 5480,
      "specify": 5481,
      "fertil": 5482,
      "mig": 5483,
      "##uing": 5484,
      "club": 5485,
      "namely": 5486,
      "challenge": 5487,
      "buddh": 5488,
      "##ocrit": 5489,
      "##vere": 5490,
      "links": 5491,
      "##grim": 5492,
      "professional": 5493,
      "memor": 5494,
      "kan": 5495,
      "##race": 5496,
      "continuous": 5497,
      "prosperity": 5498,
      "jurisd": 5499,
      "sitting": 5500,
      "lawful": 5501,
      "##mn": 5502,
      "london": 5503,
      "poem": 5504,
      "throw": 5505,
      "settlement": 5506,
      "py": 5507,
      "beg": 5508,
      "struct": 5509,
      "tea": 5510,
      "requires": 5511,
      "##raid": 5512,
      "##udd": 5513,
      "correspond": 5514,
      "zone": 5515,
      "remark": 5516,
      "bird": 5517,
      "elig": 5518,
      "los": 5519,
      "pilgrim": 5520,
      "aspects": 5521,
      "vice": 5522,
      "##enance": 5523,
      "coast": 5524,
      "rupees": 5525,
      "cow": 5526,
      "adam": 5527,
      "##anas": 5528,
      "spot": 5529,
      "database": 5530,
      "rid": 5531,
      "##bal": 5532,
      "hast": 5533,
      "hero": 5534,
      "electricity": 5535,
      "bull": 5536,
      "##ping": 5537,
      "sugar": 5538,
      "##using": 5539,
      "accident": 5540,
      "integrated": 5541,
      "participation": 5542,
      "hypocrit": 5543,
      "ende": 5544,
      "inherit": 5545,
      "escape": 5546,
      "gains": 5547,
      "concent": 5548,
      "student": 5549,
      "principle": 5550,
      "jesus": 5551,
      "nag": 5552,
      "containing": 5553,
      "didn": 5554,
      "departments": 5555,
      "rub": 5556,
      "stars": 5557,
      "hasten": 5558,
      "musa": 5559,
      "##otic": 5560,
      "##iant": 5561,
      "##lal": 5562,
      "##wa": 5563,
      "terrible": 5564,
      "released": 5565,
      "cou": 5566,
      "tools": 5567,
      "scholar": 5568,
      "36": 5569,
      "weap": 5570,
      "followers": 5571,
      "successfully": 5572,
      "choice": 5573,
      "revenue": 5574,
      "ib": 5575,
      "##ously": 5576,
      "decide": 5577,
      "allowance": 5578,
      "draft": 5579,
      "##aur": 5580,
      "##tered": 5581,
      "coal": 5582,
      "surpr": 5583,
      "convention": 5584,
      "##ja": 5585,
      "##cul": 5586,
      "##ander": 5587,
      "patience": 5588,
      "budget": 5589,
      "##force": 5590,
      "advantage": 5591,
      "##areness": 5592,
      "tender": 5593,
      "friendship": 5594,
      "empower": 5595,
      "jurisdiction": 5596,
      "2018": 5597,
      "span": 5598,
      "mainten": 5599,
      "500": 5600,
      "rates": 5601,
      "va": 5602,
      "##ke": 5603,
      "##plate": 5604,
      "subsequ": 5605,
      "simpl": 5606,
      "courage": 5607,
      "treated": 5608,
      "##name": 5609,
      "abund": 5610,
      "uses": 5611,
      "arrog": 5612,
      "thirty": 5613,
      "medicine": 5614,
      "az": 5615,
      "huge": 5616,
      "surv": 5617,
      "publication": 5618,
      "classes": 5619,
      "approved": 5620,
      "branches": 5621,
      "bose": 5622,
      "dri": 5623,
      "nan": 5624,
      "##mp": 5625,
      "abide": 5626,
      "assam": 5627,
      "situated": 5628,
      "pension": 5629,
      "wage": 5630,
      "chat": 5631,
      "remem": 5632,
      "destruction": 5633,
      "maintenance": 5634,
      "charged": 5635,
      "islands": 5636,
      "discussion": 5637,
      "08": 5638,
      "sind": 5639,
      "manufacturing": 5640,
      "##inger": 5641,
      "##pped": 5642,
      "arbit": 5643,
      "communities": 5644,
      "awareness": 5645,
      "interpret": 5646,
      "constant": 5647,
      "bills": 5648,
      "ahead": 5649,
      "twel": 5650,
      "undertaking": 5651,
      "theory": 5652,
      "brain": 5653,
      "plays": 5654,
      "border": 5655,
      "achieved": 5656,
      "argument": 5657,
      "weeks": 5658,
      "##ayana": 5659,
      "grown": 5660,
      "operating": 5661,
      "##ifications": 5662,
      "appears": 5663,
      "1999": 5664,
      "##ris": 5665,
      "##apur": 5666,
      "married": 5667,
      "tonnes": 5668,
      "john": 5669,
      "##acing": 5670,
      "approval": 5671,
      "piece": 5672,
      "pu": 5673,
      "skill": 5674,
      "sends": 5675,
      "efficient": 5676,
      "preced": 5677,
      "signature": 5678,
      "facts": 5679,
      "mahab": 5680,
      "smaller": 5681,
      "opposition": 5682,
      "zero": 5683,
      "saving": 5684,
      "##oked": 5685,
      "showed": 5686,
      "du": 5687,
      "##pel": 5688,
      "constitu": 5689,
      "ec": 5690,
      "eld": 5691,
      "doesn": 5692,
      "##aram": 5693,
      "universe": 5694,
      "##ishing": 5695,
      "incor": 5696,
      "subjects": 5697,
      "damage": 5698,
      "sole": 5699,
      "neighbour": 5700,
      "cerem": 5701,
      "##emat": 5702,
      "commod": 5703,
      "signed": 5704,
      "##hammed": 5705,
      "admit": 5706,
      "dav": 5707,
      "sard": 5708,
      "theirs": 5709,
      "upgr": 5710,
      "##ache": 5711,
      "##ompan": 5712,
      "analysis": 5713,
      "andhra": 5714,
      "org": 5715,
      "kil": 5716,
      "das": 5717,
      "##owned": 5718,
      "applied": 5719,
      "rice": 5720,
      "housing": 5721,
      "attachment": 5722,
      "criminal": 5723,
      "hit": 5724,
      "raw": 5725,
      "peoples": 5726,
      "explo": 5727,
      "prayers": 5728,
      "##aitan": 5729,
      "##amin": 5730,
      "discl": 5731,
      "judges": 5732,
      "examples": 5733,
      "domain": 5734,
      "gathered": 5735,
      "afraid": 5736,
      "looks": 5737,
      "equipment": 5738,
      "fet": 5739,
      "jag": 5740,
      "thread": 5741,
      "ears": 5742,
      "identity": 5743,
      "tel": 5744,
      "jail": 5745,
      "shel": 5746,
      "deleted": 5747,
      "bihar": 5748,
      "75": 5749,
      "##ghan": 5750,
      "##greg": 5751,
      "whome": 5752,
      "appeared": 5753,
      "performed": 5754,
      "corruption": 5755,
      "whomever": 5756,
      "helps": 5757,
      "busy": 5758,
      "objects": 5759,
      "##imb": 5760,
      "resist": 5761,
      "kab": 5762,
      "solution": 5763,
      "##asm": 5764,
      "fee": 5765,
      "interesting": 5766,
      "##ofindia": 5767,
      "reforms": 5768,
      "distinct": 5769,
      "willed": 5770,
      "enhan": 5771,
      "elected": 5772,
      "labor": 5773,
      "substance": 5774,
      "client": 5775,
      "adequate": 5776,
      "##imal": 5777,
      "presidentofindia": 5778,
      "scientists": 5779,
      "##ios": 5780,
      "enemies": 5781,
      "candid": 5782,
      "##edient": 5783,
      "attain": 5784,
      "bringing": 5785,
      "arms": 5786,
      "##athi": 5787,
      "marry": 5788,
      "blame": 5789,
      "collabor": 5790,
      "scholars": 5791,
      "##tes": 5792,
      "authentication": 5793,
      "row": 5794,
      "thin": 5795,
      "organis": 5796,
      "visited": 5797,
      "records": 5798,
      "multi": 5799,
      "proclaim": 5800,
      "rebell": 5801,
      "dvd": 5802,
      "gall": 5803,
      "alarm": 5804,
      "accompan": 5805,
      "healthy": 5806,
      "challenges": 5807,
      "withdraw": 5808,
      "eve": 5809,
      "mohammed": 5810,
      "poin": 5811,
      "surre": 5812,
      "objectives": 5813,
      "quit": 5814,
      "turning": 5815,
      "loading": 5816,
      "prostrate": 5817,
      "ordinary": 5818,
      "##brance": 5819,
      "compensation": 5820,
      "compr": 5821,
      "intelligence": 5822,
      "brief": 5823,
      "happiness": 5824,
      "##anged": 5825,
      "cooper": 5826,
      "royal": 5827,
      "communications": 5828,
      "lose": 5829,
      "grateful": 5830,
      "##achal": 5831,
      "##aughters": 5832,
      "christian": 5833,
      "##eb": 5834,
      "##isc": 5835,
      "plans": 5836,
      "accused": 5837,
      "##ricts": 5838,
      "aur": 5839,
      "##thy": 5840,
      "shak": 5841,
      "afghan": 5842,
      "header": 5843,
      "citizen": 5844,
      "layer": 5845,
      "squared": 5846,
      "hypocrites": 5847,
      "##ataka": 5848,
      "capable": 5849,
      "strengthen": 5850,
      "dynam": 5851,
      "atmosphere": 5852,
      "##oned": 5853,
      "northern": 5854,
      "kor": 5855,
      "rene": 5856,
      "wherever": 5857,
      "advis": 5858,
      "settled": 5859,
      "debug": 5860,
      "##ensions": 5861,
      "diam": 5862,
      "liquid": 5863,
      "palm": 5864,
      "demonstr": 5865,
      "##rical": 5866,
      "##bon": 5867,
      "revelation": 5868,
      "street": 5869,
      "dar": 5870,
      "dance": 5871,
      "compared": 5872,
      "##roc": 5873,
      "paral": 5874,
      "digital": 5875,
      "##ams": 5876,
      "prince": 5877,
      "corporate": 5878,
      "daughters": 5879,
      "loans": 5880,
      "minds": 5881,
      "indig": 5882,
      "sexual": 5883,
      "mock": 5884,
      "judicial": 5885,
      "oblig": 5886,
      "##inity": 5887,
      "committees": 5888,
      "##dy": 5889,
      "served": 5890,
      "##antic": 5891,
      "backs": 5892,
      "##iders": 5893,
      "dog": 5894,
      "##pta": 5895,
      "##ghal": 5896,
      "temperature": 5897,
      "dign": 5898,
      "obtained": 5899,
      "crow": 5900,
      "sequ": 5901,
      "harv": 5902,
      "platform": 5903,
      "##iced": 5904,
      "colon": 5905,
      "gan": 5906,
      "mart": 5907,
      "##ourse": 5908,
      "attitude": 5909,
      "thousands": 5910,
      "nab": 5911,
      "##ankar": 5912,
      "disbelief": 5913,
      "vit": 5914,
      "##fast": 5915,
      "##orted": 5916,
      "becoming": 5917,
      "costs": 5918,
      "##vation": 5919,
      "heads": 5920,
      "thoughts": 5921,
      "telephone": 5922,
      "cool": 5923,
      "reported": 5924,
      "apostles": 5925,
      "remembrance": 5926,
      "expenses": 5927,
      "kn": 5928,
      "##du": 5929,
      "pled": 5930,
      "chrom": 5931,
      "cup": 5932,
      "hom": 5933,
      "disabled": 5934,
      "proposed": 5935,
      "customer": 5936,
      "fuel": 5937,
      "girls": 5938,
      "oh": 5939,
      "automatic": 5940,
      "nur": 5941,
      "closed": 5942,
      "err": 5943,
      "##usted": 5944,
      "ves": 5945,
      "##isition": 5946,
      "initiative": 5947,
      "##back": 5948,
      "##icious": 5949,
      "doll": 5950,
      "##inese": 5951,
      "hal": 5952,
      "interface": 5953,
      "playing": 5954,
      "assessing": 5955,
      "occurred": 5956,
      "felicit": 5957,
      "##look": 5958,
      "orph": 5959,
      "prevail": 5960,
      "##lies": 5961,
      "afford": 5962,
      "steel": 5963,
      "45": 5964,
      "officials": 5965,
      "##ses": 5966,
      "template": 5967,
      "sustenance": 5968,
      "despite": 5969,
      "engage": 5970,
      "cot": 5971,
      "##orter": 5972,
      "suit": 5973,
      "pregn": 5974,
      "highlight": 5975,
      "forgot": 5976,
      "sorrow": 5977,
      "##ole": 5978,
      "bilateral": 5979,
      "##gor": 5980,
      "cham": 5981,
      "sell": 5982,
      "prep": 5983,
      "calling": 5984,
      "profile": 5985,
      "flowers": 5986,
      "horse": 5987,
      "convert": 5988,
      "endeavour": 5989,
      "imposs": 5990,
      "proportion": 5991,
      "reveal": 5992,
      "##hu": 5993,
      "lect": 5994,
      "leaving": 5995,
      "informed": 5996,
      "concl": 5997,
      "2004": 5998,
      "auto": 5999,
      "imperial": 6000,
      "##ka": 6001,
      "##iments": 6002,
      "designed": 6003,
      "grieve": 6004,
      "seemed": 6005,
      "##osure": 6006,
      "consists": 6007,
      "babu": 6008,
      "sweet": 6009,
      "proxy": 6010,
      "poets": 6011,
      "differences": 6012,
      "player": 6013,
      "properly": 6014,
      "kde": 6015,
      "chinese": 6016,
      "##izes": 6017,
      "austral": 6018,
      "recovery": 6019,
      "33": 6020,
      "pull": 6021,
      "dram": 6022,
      "humili": 6023,
      "explain": 6024,
      "armed": 6025,
      "##oti": 6026,
      "herit": 6027,
      "depth": 6028,
      "hurt": 6029,
      "split": 6030,
      "90": 6031,
      "race": 6032,
      "comfort": 6033,
      "enjoin": 6034,
      "kumar": 6035,
      "os": 6036,
      "##eding": 6037,
      "##umin": 6038,
      "counsel": 6039,
      "announced": 6040,
      "losers": 6041,
      "2009": 6042,
      "proofs": 6043,
      "aside": 6044,
      "recite": 6045,
      "secondary": 6046,
      "##zz": 6047,
      "##ica": 6048,
      "broken": 6049,
      "technologies": 6050,
      "absence": 6051,
      "heritage": 6052,
      "rati": 6053,
      "saty": 6054,
      "prophets": 6055,
      "printer": 6056,
      "declar": 6057,
      "admitted": 6058,
      "2003": 6059,
      "implemented": 6060,
      "outstanding": 6061,
      "##pected": 6062,
      "southern": 6063,
      "distinguished": 6064,
      "cart": 6065,
      "##ience": 6066,
      "french": 6067,
      "sovere": 6068,
      "advoc": 6069,
      "sovereign": 6070,
      "##osite": 6071,
      "##ork": 6072,
      "processes": 6073,
      "tribes": 6074,
      "substit": 6075,
      "photo": 6076,
      "drug": 6077,
      "browser": 6078,
      "fifty": 6079,
      "##marks": 6080,
      "component": 6081,
      "subhas": 6082,
      "##issa": 6083,
      "possession": 6084,
      "environmental": 6085,
      "package": 6086,
      "karnataka": 6087,
      "actor": 6088,
      "##most": 6089,
      "covering": 6090,
      "##cere": 6091,
      "##oration": 6092,
      "doom": 6093,
      "##pective": 6094,
      "jawahar": 6095,
      "bone": 6096,
      "fix": 6097,
      "decisions": 6098,
      "##rier": 6099,
      "silver": 6100,
      "wrongdoers": 6101,
      "##mo": 6102,
      "runs": 6103,
      "detailed": 6104,
      "displayed": 6105,
      "recognised": 6106,
      "maintained": 6107,
      "exports": 6108,
      "formation": 6109,
      "##luded": 6110,
      "operative": 6111,
      "skills": 6112,
      "constituted": 6113,
      "toolbar": 6114,
      "pacific": 6115,
      "surrender": 6116,
      "##cs": 6117,
      "##sl": 6118,
      "##esis": 6119,
      "##ibilities": 6120,
      "tourism": 6121,
      "##ni": 6122,
      "##rav": 6123,
      "organizations": 6124,
      "mostly": 6125,
      "charity": 6126,
      "beneath": 6127,
      "mailing": 6128,
      "observe": 6129,
      "terminal": 6130,
      "tissue": 6131,
      "core": 6132,
      "fib": 6133,
      "deed": 6134,
      "flood": 6135,
      "transpar": 6136,
      "commitment": 6137,
      "legislature": 6138,
      "creatures": 6139,
      "borrow": 6140,
      "kir": 6141,
      "ray": 6142,
      "evol": 6143,
      "entirely": 6144,
      "conducted": 6145,
      "lt": 6146,
      "emotion": 6147,
      "equality": 6148,
      "ast": 6149,
      "ven": 6150,
      "retrie": 6151,
      "deputy": 6152,
      "acquired": 6153,
      "##aded": 6154,
      "leads": 6155,
      "simply": 6156,
      "##going": 6157,
      "decades": 6158,
      "inhab": 6159,
      "adj": 6160,
      "absor": 6161,
      "transaction": 6162,
      "helper": 6163,
      "trading": 6164,
      "pane": 6165,
      "mosque": 6166,
      "cris": 6167,
      "yellow": 6168,
      "extract": 6169,
      "proposal": 6170,
      "arrived": 6171,
      "instruments": 6172,
      "eternal": 6173,
      "hills": 6174,
      "wicked": 6175,
      "career": 6176,
      "configure": 6177,
      "substantial": 6178,
      "rit": 6179,
      "##udi": 6180,
      "formal": 6181,
      "sincere": 6182,
      "restore": 6183,
      "summary": 6184,
      "clouds": 6185,
      "refused": 6186,
      "polytheists": 6187,
      "##entions": 6188,
      "shop": 6189,
      "eligible": 6190,
      "alb": 6191,
      "sets": 6192,
      "extremely": 6193,
      "flower": 6194,
      "markets": 6195,
      "twelve": 6196,
      "##wr": 6197,
      "owners": 6198,
      "##ients": 6199,
      "bell": 6200,
      "alph": 6201,
      "pert": 6202,
      "agent": 6203,
      "maybe": 6204,
      "##ette": 6205,
      "allows": 6206,
      "##aviour": 6207,
      "lake": 6208,
      "##wal": 6209,
      "##oe": 6210,
      "sees": 6211,
      "##edience": 6212,
      "framework": 6213,
      "cabinet": 6214,
      "sardar": 6215,
      "snow": 6216,
      "##iger": 6217,
      "similarly": 6218,
      "fulfil": 6219,
      "bones": 6220,
      "lal": 6221,
      "orissa": 6222,
      "perce": 6223,
      "remaining": 6224,
      "vertical": 6225,
      "##ila": 6226,
      "quickly": 6227,
      "impossible": 6228,
      "usage": 6229,
      "mandap": 6230,
      "##ranath": 6231,
      "jamm": 6232,
      "##ken": 6233,
      "centuries": 6234,
      "mahabhar": 6235,
      "befall": 6236,
      "rect": 6237,
      "spring": 6238,
      "decree": 6239,
      "securities": 6240,
      "aims": 6241,
      "##hance": 6242,
      "companions": 6243,
      "billion": 6244,
      "traff": 6245,
      "enterprises": 6246,
      "naught": 6247,
      "enhance": 6248,
      "instructions": 6249,
      "golden": 6250,
      "##iel": 6251,
      "infinite": 6252,
      "functioning": 6253,
      "##oral": 6254,
      "strive": 6255,
      "communal": 6256,
      "personality": 6257,
      "trouble": 6258,
      "gent": 6259,
      "outer": 6260,
      "prompt": 6261,
      "solid": 6262,
      "christians": 6263,
      "bangl": 6264,
      "pard": 6265,
      "##12": 6266,
      "##erves": 6267,
      "districts": 6268,
      "answered": 6269,
      "godd": 6270,
      "spect": 6271,
      "fulfilled": 6272,
      "##stood": 6273,
      "exhib": 6274,
      "stands": 6275,
      "israeli": 6276,
      "excellence": 6277,
      "pious": 6278,
      "oft": 6279,
      "neck": 6280,
      "movements": 6281,
      "geor": 6282,
      "dealing": 6283,
      "baby": 6284,
      "##uta": 6285,
      "##ahim": 6286,
      "mov": 6287,
      "equally": 6288,
      "accordingly": 6289,
      "symp": 6290,
      "stamp": 6291,
      "doct": 6292,
      "twice": 6293,
      "devi": 6294,
      "189": 6295,
      "improvement": 6296,
      "horizont": 6297,
      "ben": 6298,
      "##xic": 6299,
      "repentance": 6300,
      "##lom": 6301,
      "iso": 6302,
      "##quiry": 6303,
      "accom": 6304,
      "scope": 6305,
      "servant": 6306,
      "organized": 6307,
      "##urb": 6308,
      "incur": 6309,
      "believes": 6310,
      "happens": 6311,
      "jammu": 6312,
      "##anta": 6313,
      "mel": 6314,
      "hyder": 6315,
      "pick": 6316,
      "thor": 6317,
      "##onic": 6318,
      "recited": 6319,
      "asking": 6320,
      "recognition": 6321,
      "complain": 6322,
      "david": 6323,
      "lamp": 6324,
      "na": 6325,
      "##elines": 6326,
      "grain": 6327,
      "muse": 6328,
      "flat": 6329,
      "edge": 6330,
      "hardly": 6331,
      "convin": 6332,
      "appearance": 6333,
      "09": 6334,
      "eval": 6335,
      "represents": 6336,
      "protector": 6337,
      "##vision": 6338,
      "prove": 6339,
      "hat": 6340,
      "##odh": 6341,
      "prohib": 6342,
      "towns": 6343,
      "pipes": 6344,
      "dal": 6345,
      "laughter": 6346,
      "##rence": 6347,
      "swami": 6348,
      "explained": 6349,
      "electronic": 6350,
      "pride": 6351,
      "cancel": 6352,
      "partition": 6353,
      "2011": 6354,
      "behaviour": 6355,
      "island": 6356,
      "identified": 6357,
      "##abet": 6358,
      "prose": 6359,
      "evident": 6360,
      "overt": 6361,
      "bug": 6362,
      "restrict": 6363,
      "eggs": 6364,
      "voc": 6365,
      "##ca": 6366,
      "volunt": 6367,
      "floor": 6368,
      "lying": 6369,
      "waters": 6370,
      "##och": 6371,
      "tribal": 6372,
      "normally": 6373,
      "goddess": 6374,
      "employee": 6375,
      "##iform": 6376,
      "feature": 6377,
      "persist": 6378,
      "computing": 6379,
      "##ucing": 6380,
      "missing": 6381,
      "sympt": 6382,
      "##apt": 6383,
      "##pends": 6384,
      "spoke": 6385,
      "creative": 6386,
      "obtain": 6387,
      "tongue": 6388,
      "rising": 6389,
      "deity": 6390,
      "clay": 6391,
      "##ushed": 6392,
      "pursu": 6393,
      "ratio": 6394,
      "rent": 6395,
      "##mic": 6396,
      "##eters": 6397,
      "##irect": 6398,
      "afflict": 6399,
      "palace": 6400,
      "preferred": 6401,
      "mixed": 6402,
      "crime": 6403,
      "showing": 6404,
      "devote": 6405,
      "cos": 6406,
      "##ola": 6407,
      "wear": 6408,
      "##acter": 6409,
      "affair": 6410,
      "customers": 6411,
      "tu": 6412,
      "##edia": 6413,
      "pras": 6414,
      "religions": 6415,
      "##ceeds": 6416,
      "stones": 6417,
      "composed": 6418,
      "immediate": 6419,
      "introduction": 6420,
      "repeated": 6421,
      "strategy": 6422,
      "difficulty": 6423,
      "games": 6424,
      "sed": 6425,
      "neglect": 6426,
      "brahmin": 6427,
      "pix": 6428,
      "##oll": 6429,
      "conven": 6430,
      "offers": 6431,
      "scatter": 6432,
      "availability": 6433,
      "stayed": 6434,
      "conceal": 6435,
      "bath": 6436,
      "fought": 6437,
      "zoom": 6438,
      "verse": 6439,
      "hardship": 6440,
      "victim": 6441,
      "##head": 6442,
      "gracious": 6443,
      "overall": 6444,
      "defin": 6445,
      "facult": 6446,
      "narrow": 6447,
      "seeds": 6448,
      "permiss": 6449,
      "deeply": 6450,
      "claims": 6451,
      "reckoning": 6452,
      "duration": 6453,
      "urdu": 6454,
      "gop": 6455,
      "algor": 6456,
      "blank": 6457,
      "estimated": 6458,
      "accompl": 6459,
      "##ray": 6460,
      "188": 6461,
      "guidelines": 6462,
      "##anth": 6463,
      "unre": 6464,
      "entert": 6465,
      "liberal": 6466,
      "offering": 6467,
      "figures": 6468,
      "camel": 6469,
      "wik": 6470,
      "##pet": 6471,
      "axis": 6472,
      "drama": 6473,
      "curse": 6474,
      "##ura": 6475,
      "##oding": 6476,
      "disg": 6477,
      "transferred": 6478,
      "##wan": 6479,
      "##aly": 6480,
      "stretch": 6481,
      "trem": 6482,
      "holds": 6483,
      "cotton": 6484,
      "pour": 6485,
      "##ches": 6486,
      "acknow": 6487,
      "dedicated": 6488,
      "municip": 6489,
      "abst": 6490,
      "panel": 6491,
      "ja": 6492,
      "##ooth": 6493,
      "##inations": 6494,
      "whomsoever": 6495,
      "belonging": 6496,
      "##cast": 6497,
      "clust": 6498,
      "driven": 6499,
      "directed": 6500,
      "motor": 6501,
      "rejo": 6502,
      "vishn": 6503,
      "##je": 6504,
      "depends": 6505,
      "acid": 6506,
      "personnel": 6507,
      "rename": 6508,
      "compassionate": 6509,
      "palestinian": 6510,
      "nadu": 6511,
      "preach": 6512,
      "parent": 6513,
      "diet": 6514,
      "promoting": 6515,
      "customs": 6516,
      "vot": 6517,
      "regulations": 6518,
      "ice": 6519,
      "upt": 6520,
      "##16": 6521,
      "irrigation": 6522,
      "toler": 6523,
      "haz": 6524,
      "spoken": 6525,
      "flight": 6526,
      "phen": 6527,
      "salt": 6528,
      "enjoyment": 6529,
      "ignorance": 6530,
      "gift": 6531,
      "unex": 6532,
      "amp": 6533,
      "submission": 6534,
      "reader": 6535,
      "##oz": 6536,
      "intended": 6537,
      "impart": 6538,
      "dawn": 6539,
      "ships": 6540,
      "quantity": 6541,
      "##arya": 6542,
      "##roll": 6543,
      "transmission": 6544,
      "keyboard": 6545,
      "chain": 6546,
      "firmly": 6547,
      "drinking": 6548,
      "comprehensive": 6549,
      "professor": 6550,
      "07": 6551,
      "dw": 6552,
      "onto": 6553,
      "worldly": 6554,
      "organised": 6555,
      "satisfied": 6556,
      "pieces": 6557,
      "describ": 6558,
      "legs": 6559,
      "label": 6560,
      "falls": 6561,
      "organisations": 6562,
      "jawaharlal": 6563,
      "aband": 6564,
      "ok": 6565,
      "##ded": 6566,
      "humanity": 6567,
      "monitoring": 6568,
      "bangladesh": 6569,
      "##asi": 6570,
      "alive": 6571,
      "align": 6572,
      "##active": 6573,
      "immense": 6574,
      "panchay": 6575,
      "wound": 6576,
      "##uity": 6577,
      "layout": 6578,
      "300": 6579,
      "forests": 6580,
      "chequ": 6581,
      "desired": 6582,
      "slight": 6583,
      "respite": 6584,
      "idols": 6585,
      "encomp": 6586,
      "commerce": 6587,
      "queen": 6588,
      "decre": 6589,
      "##while": 6590,
      "violent": 6591,
      "##ulating": 6592,
      "sports": 6593,
      "##brahim": 6594,
      "categories": 6595,
      "worshipped": 6596,
      "kings": 6597,
      "unp": 6598,
      "##raction": 6599,
      "roof": 6600,
      "delib": 6601,
      "##oval": 6602,
      "##holders": 6603,
      "mirac": 6604,
      "writers": 6605,
      "understood": 6606,
      "grew": 6607,
      "hyderabad": 6608,
      "pound": 6609,
      "##mine": 6610,
      "wrath": 6611,
      "achievement": 6612,
      "##ulations": 6613,
      "reprod": 6614,
      "expans": 6615,
      "bush": 6616,
      "murder": 6617,
      "tham": 6618,
      "gnome": 6619,
      "##uch": 6620,
      "forty": 6621,
      "##ensity": 6622,
      "interested": 6623,
      "##worthy": 6624,
      "illust": 6625,
      "vessel": 6626,
      "applicable": 6627,
      "185": 6628,
      "subscribe": 6629,
      "bold": 6630,
      "mouse": 6631,
      "acting": 6632,
      "transactions": 6633,
      "numerous": 6634,
      "equity": 6635,
      "devices": 6636,
      "arrangement": 6637,
      "enterprise": 6638,
      "germany": 6639,
      "din": 6640,
      "mm": 6641,
      "sang": 6642,
      "couple": 6643,
      "ibrahim": 6644,
      "module": 6645,
      "employed": 6646,
      "domin": 6647,
      "museum": 6648,
      "partial": 6649,
      "unfortun": 6650,
      "persian": 6651,
      "constitutional": 6652,
      "distributed": 6653,
      "micros": 6654,
      "quarter": 6655,
      "felicitations": 6656,
      "spite": 6657,
      "terrorist": 6658,
      "steadfast": 6659,
      "league": 6660,
      "efficiency": 6661,
      "considerable": 6662,
      "printing": 6663,
      "fifth": 6664,
      "atomic": 6665,
      "encompass": 6666,
      "##cr": 6667,
      "marks": 6668,
      "diction": 6669,
      "wal": 6670,
      "offence": 6671,
      "creator": 6672,
      "alternative": 6673,
      "sustainable": 6674,
      "ends": 6675,
      "fate": 6676,
      "overcome": 6677,
      "##cession": 6678,
      "wed": 6679,
      "##icent": 6680,
      "degrees": 6681,
      "respondent": 6682,
      "bat": 6683,
      "offs": 6684,
      "demands": 6685,
      "receiving": 6686,
      "improving": 6687,
      "righteousness": 6688,
      "consumption": 6689,
      "addresses": 6690,
      "identify": 6691,
      "ritual": 6692,
      "complaint": 6693,
      "tir": 6694,
      "##gal": 6695,
      "thick": 6696,
      "meat": 6697,
      "sheet": 6698,
      "junk": 6699,
      "ber": 6700,
      "gree": 6701,
      "older": 6702,
      "sales": 6703,
      "regarded": 6704,
      "stored": 6705,
      "gradu": 6706,
      "gradually": 6707,
      "discharge": 6708,
      "interpretation": 6709,
      "rose": 6710,
      "##20": 6711,
      "comments": 6712,
      "willing": 6713,
      "plaint": 6714,
      "warned": 6715,
      "meetings": 6716,
      "faithless": 6717,
      "geograph": 6718,
      "pul": 6719,
      "##lu": 6720,
      "##amation": 6721,
      "yours": 6722,
      "rulers": 6723,
      "##alg": 6724,
      "##urally": 6725,
      "##earing": 6726,
      "##ificial": 6727,
      "signal": 6728,
      "initiated": 6729,
      "diplom": 6730,
      "##aming": 6731,
      "bliss": 6732,
      "requested": 6733,
      "reasonable": 6734,
      "forwarded": 6735,
      "talking": 6736,
      "suggested": 6737,
      "34": 6738,
      "##jan": 6739,
      "70": 6740,
      "cs": 6741,
      "mine": 6742,
      "##een": 6743,
      "##osa": 6744,
      "permitted": 6745,
      "propag": 6746,
      "definite": 6747,
      "competition": 6748,
      "facilitate": 6749,
      "crisis": 6750,
      "uk": 6751,
      "enr": 6752,
      "enforce": 6753,
      "##agers": 6754,
      "starts": 6755,
      "visual": 6756,
      "annivers": 6757,
      "misch": 6758,
      "aught": 6759,
      "walls": 6760,
      "##encing": 6761,
      "##appe": 6762,
      "modified": 6763,
      "improved": 6764,
      "superior": 6765,
      "roads": 6766,
      "pandit": 6767,
      "assuredly": 6768,
      "luc": 6769,
      "##tic": 6770,
      "##14": 6771,
      "anger": 6772,
      "courses": 6773,
      "collected": 6774,
      "respective": 6775,
      "begins": 6776,
      "deposits": 6777,
      "vain": 6778,
      "haply": 6779,
      "trash": 6780,
      "myth": 6781,
      "couldn": 6782,
      "honor": 6783,
      "deaf": 6784,
      "innoc": 6785,
      "##aman": 6786,
      "filed": 6787,
      "recognize": 6788,
      "kap": 6789,
      "admonition": 6790,
      "ease": 6791,
      "##craft": 6792,
      "noted": 6793,
      "drawing": 6794,
      "railways": 6795,
      "entrepreneur": 6796,
      "05": 6797,
      "undertaken": 6798,
      "laksh": 6799,
      "beach": 6800,
      "##ading": 6801,
      "chh": 6802,
      "infection": 6803,
      "glass": 6804,
      "masses": 6805,
      "soldiers": 6806,
      "afghanistan": 6807,
      "##gets": 6808,
      "washing": 6809,
      "##asty": 6810,
      "strange": 6811,
      "creates": 6812,
      "48": 6813,
      "bacter": 6814,
      "kid": 6815,
      "##orous": 6816,
      "115": 6817,
      "buddha": 6818,
      "jack": 6819,
      "rav": 6820,
      "stages": 6821,
      "ordin": 6822,
      "productivity": 6823,
      "##anath": 6824,
      "conqu": 6825,
      "##ibly": 6826,
      "scan": 6827,
      "exception": 6828,
      "##withstanding": 6829,
      "03": 6830,
      "cas": 6831,
      "cried": 6832,
      "injust": 6833,
      "forum": 6834,
      "notwithstanding": 6835,
      "bridge": 6836,
      "quiet": 6837,
      "beside": 6838,
      "vishnu": 6839,
      "upto": 6840,
      "rat": 6841,
      "via": 6842,
      "condem": 6843,
      "linked": 6844,
      "jobs": 6845,
      "touched": 6846,
      "guarantee": 6847,
      "expansion": 6848,
      "era": 6849,
      "saint": 6850,
      "shell": 6851,
      "mant": 6852,
      "##ears": 6853,
      "contemporary": 6854,
      "gentle": 6855,
      "pair": 6856,
      "printed": 6857,
      "node": 6858,
      "bookmarks": 6859,
      "commands": 6860,
      "drag": 6861,
      "representative": 6862,
      "writings": 6863,
      "neur": 6864,
      "contributions": 6865,
      "1947": 6866,
      "acceptance": 6867,
      "##rip": 6868,
      "minute": 6869,
      "##uable": 6870,
      "unw": 6871,
      "relatives": 6872,
      "approx": 6873,
      "carbon": 6874,
      "##iliar": 6875,
      "architecture": 6876,
      "##norm": 6877,
      "##book": 6878,
      "castes": 6879,
      "##rd": 6880,
      "equals": 6881,
      "continues": 6882,
      "multiply": 6883,
      "tube": 6884,
      "herself": 6885,
      "testing": 6886,
      "occurs": 6887,
      "ego": 6888,
      "##cks": 6889,
      "##rem": 6890,
      "##icing": 6891,
      "keys": 6892,
      "##pring": 6893,
      "struck": 6894,
      "arguments": 6895,
      "jer": 6896,
      "wing": 6897,
      "noise": 6898,
      "boys": 6899,
      "sentence": 6900,
      "topics": 6901,
      "yester": 6902,
      "fasc": 6903,
      "##eal": 6904,
      "##ciation": 6905,
      "elephant": 6906,
      "harvest": 6907,
      "kam": 6908,
      "ring": 6909,
      "tun": 6910,
      "##pi": 6911,
      "##usal": 6912,
      "airport": 6913,
      "liability": 6914,
      "disobey": 6915,
      "alle": 6916,
      "mughal": 6917,
      "ordered": 6918,
      "illeg": 6919,
      "cooperative": 6920,
      "gal": 6921,
      "##bles": 6922,
      "##asw": 6923,
      "##imony": 6924,
      "consolid": 6925,
      "##othe": 6926,
      "acquisition": 6927,
      "fertiliz": 6928,
      "44": 6929,
      "ju": 6930,
      "pig": 6931,
      "##urity": 6932,
      "##adh": 6933,
      "recru": 6934,
      "affection": 6935,
      "divor": 6936,
      "papers": 6937,
      "##eries": 6938,
      "lev": 6939,
      "consp": 6940,
      "paras": 6941,
      "instruction": 6942,
      "despair": 6943,
      "37": 6944,
      "rig": 6945,
      "ambed": 6946,
      "addressed": 6947,
      "millions": 6948,
      "legislation": 6949,
      "vedic": 6950,
      "fluid": 6951,
      "injustice": 6952,
      "ol": 6953,
      "tan": 6954,
      "##ba": 6955,
      "##owing": 6956,
      "##ads": 6957,
      "##pelled": 6958,
      "gross": 6959,
      "scr": 6960,
      "2010": 6961,
      "estate": 6962,
      "elim": 6963,
      "kolk": 6964,
      "silk": 6965,
      "pictures": 6966,
      "mechanism": 6967,
      "components": 6968,
      "##itud": 6969,
      "manual": 6970,
      "flesh": 6971,
      "invited": 6972,
      "distress": 6973,
      "educated": 6974,
      "encoun": 6975,
      "patri": 6976,
      "imagine": 6977,
      "lady": 6978,
      "ambedkar": 6979,
      "##uv": 6980,
      "##omple": 6981,
      "aggreg": 6982,
      "clip": 6983,
      "regulation": 6984,
      "scen": 6985,
      "negoti": 6986,
      "liars": 6987,
      "strategic": 6988,
      "russia": 6989,
      "shaped": 6990,
      "##jection": 6991,
      "involve": 6992,
      "traffic": 6993,
      "sr": 6994,
      "prosec": 6995,
      "##ribution": 6996,
      "institutes": 6997,
      "presentation": 6998,
      "respectively": 6999,
      "recognized": 7000,
      "tail": 7001,
      "##yr": 7002,
      "raja": 7003,
      "##yas": 7004,
      "forced": 7005,
      "oneness": 7006,
      "asian": 7007,
      "ungr": 7008,
      "cancer": 7009,
      "adding": 7010,
      "practical": 7011,
      "difficulties": 7012,
      "##erable": 7013,
      "##onal": 7014,
      "myst": 7015,
      "stray": 7016,
      "##chron": 7017,
      "removal": 7018,
      "breasts": 7019,
      "jh": 7020,
      "jay": 7021,
      "completion": 7022,
      "determination": 7023,
      "bure": 7024,
      "ld": 7025,
      "abnorm": 7026,
      "uncle": 7027,
      "inev": 7028,
      "increases": 7029,
      "circu": 7030,
      "stopped": 7031,
      "derived": 7032,
      "virtue": 7033,
      "weapons": 7034,
      "kin": 7035,
      "wages": 7036,
      "##lets": 7037,
      "invoke": 7038,
      "awa": 7039,
      "disputes": 7040,
      "koran": 7041,
      "diverse": 7042,
      "##icks": 7043,
      "assert": 7044,
      "finds": 7045,
      "clubs": 7046,
      "horizontal": 7047,
      "cards": 7048,
      "theat": 7049,
      "commence": 7050,
      "intention": 7051,
      "directions": 7052,
      "advert": 7053,
      "ek": 7054,
      "ties": 7055,
      "pron": 7056,
      "suffered": 7057,
      "inspiration": 7058,
      "exactly": 7059,
      "faculty": 7060,
      "##rent": 7061,
      "##nan": 7062,
      "##olic": 7063,
      "##atell": 7064,
      "harmony": 7065,
      "venture": 7066,
      "anniversary": 7067,
      "yesterday": 7068,
      "champ": 7069,
      "worst": 7070,
      "aggress": 7071,
      "scar": 7072,
      "humble": 7073,
      "founded": 7074,
      "colors": 7075,
      "investig": 7076,
      "voluntary": 7077,
      "symptoms": 7078,
      "dish": 7079,
      "##ding": 7080,
      "##alam": 7081,
      "advised": 7082,
      "subjected": 7083,
      "radical": 7084,
      "competent": 7085,
      "sensitive": 7086,
      "declaration": 7087,
      "vic": 7088,
      "york": 7089,
      "##lin": 7090,
      "##ona": 7091,
      "emper": 7092,
      "societies": 7093,
      "1998": 7094,
      "##off": 7095,
      "enth": 7096,
      "worse": 7097,
      "fever": 7098,
      "daniel": 7099,
      "paralle": 7100,
      "##onts": 7101,
      "hab": 7102,
      "chaitan": 7103,
      "advent": 7104,
      "fulfill": 7105,
      "celebrated": 7106,
      "phenom": 7107,
      "rand": 7108,
      "sake": 7109,
      "frag": 7110,
      "discon": 7111,
      "emergency": 7112,
      "algorithm": 7113,
      "finger": 7114,
      "gt": 7115,
      "disappe": 7116,
      "turkey": 7117,
      "lah": 7118,
      "bef": 7119,
      "adorn": 7120,
      "outlook": 7121,
      "buildings": 7122,
      "programs": 7123,
      "inhabit": 7124,
      "##wers": 7125,
      "stick": 7126,
      "accurate": 7127,
      "finished": 7128,
      "specially": 7129,
      "killing": 7130,
      "binoy": 7131,
      "prepare": 7132,
      "catch": 7133,
      "eating": 7134,
      "##oli": 7135,
      "plate": 7136,
      "ended": 7137,
      "finding": 7138,
      "revol": 7139,
      "majesty": 7140,
      "##ml": 7141,
      "anc": 7142,
      "sul": 7143,
      "needy": 7144,
      "slave": 7145,
      "cycle": 7146,
      "chaitanya": 7147,
      "##bur": 7148,
      "shut": 7149,
      "ignorant": 7150,
      "taj": 7151,
      "trium": 7152,
      "inspect": 7153,
      "facing": 7154,
      "planned": 7155,
      "madras": 7156,
      "determine": 7157,
      "speeches": 7158,
      "dwelling": 7159,
      "vehicle": 7160,
      "bureau": 7161,
      "cord": 7162,
      "##aran": 7163,
      "##irs": 7164,
      "usual": 7165,
      "scul": 7166,
      "realize": 7167,
      "chrome": 7168,
      "preparation": 7169,
      "wings": 7170,
      "complic": 7171,
      "fool": 7172,
      "tourist": 7173,
      "plugins": 7174,
      "streams": 7175,
      "danger": 7176,
      "il": 7177,
      "shift": 7178,
      "##abha": 7179,
      "goals": 7180,
      "triumph": 7181,
      "mix": 7182,
      "prak": 7183,
      "##aked": 7184,
      "##unk": 7185,
      "##aved": 7186,
      "slay": 7187,
      "pointed": 7188,
      "kolkata": 7189,
      "##can": 7190,
      "##ananda": 7191,
      "##illa": 7192,
      "trip": 7193,
      "slaves": 7194,
      "raising": 7195,
      "##ommod": 7196,
      "binding": 7197,
      "##uddin": 7198,
      "nin": 7199,
      "##lied": 7200,
      "##ua": 7201,
      "##ught": 7202,
      "civilization": 7203,
      "preferences": 7204,
      "perfection": 7205,
      "oaths": 7206,
      "##yl": 7207,
      "allot": 7208,
      "conservation": 7209,
      "greatly": 7210,
      "dominion": 7211,
      "sik": 7212,
      "react": 7213,
      "knoweth": 7214,
      "clar": 7215,
      "##version": 7216,
      "sheep": 7217,
      "sinners": 7218,
      "offspring": 7219,
      "lod": 7220,
      "sixt": 7221,
      "familiar": 7222,
      "worthy": 7223,
      "aer": 7224,
      "##point": 7225,
      "##inct": 7226,
      "smooth": 7227,
      "controlled": 7228,
      "vib": 7229,
      "ward": 7230,
      "trained": 7231,
      "accommod": 7232,
      "devoted": 7233,
      "feeding": 7234,
      "satisfaction": 7235,
      "06": 7236,
      "ow": 7237,
      "##ming": 7238,
      "##osy": 7239,
      "gupta": 7240,
      "retribution": 7241,
      "topic": 7242,
      "contribute": 7243,
      "##gent": 7244,
      "enact": 7245,
      "login": 7246,
      "corner": 7247,
      "lesson": 7248,
      "arrangements": 7249,
      "mit": 7250,
      "infer": 7251,
      "chur": 7252,
      "residence": 7253,
      "recur": 7254,
      "##lude": 7255,
      "sites": 7256,
      "circle": 7257,
      "narr": 7258,
      "ignore": 7259,
      "installation": 7260,
      "summer": 7261,
      "mothers": 7262,
      "repay": 7263,
      "seconds": 7264,
      "lessons": 7265,
      "solutions": 7266,
      "territories": 7267,
      "transformation": 7268,
      "renew": 7269,
      "nabard": 7270,
      "prasad": 7271,
      "sculpt": 7272,
      "##irt": 7273,
      "##garh": 7274,
      "bitter": 7275,
      "analy": 7276,
      "injury": 7277,
      "remarkable": 7278,
      "##iest": 7279,
      "##uting": 7280,
      "passeng": 7281,
      "disgrace": 7282,
      "discussions": 7283,
      "susp": 7284,
      "backward": 7285,
      "hosts": 7286,
      "##iciary": 7287,
      "tv": 7288,
      "##sa": 7289,
      "##gage": 7290,
      "##oring": 7291,
      "##orters": 7292,
      "roll": 7293,
      "investments": 7294,
      "inflamm": 7295,
      "widely": 7296,
      "france": 7297,
      "loves": 7298,
      "rightly": 7299,
      "opposite": 7300,
      "petro": 7301,
      "sharing": 7302,
      "adopt": 7303,
      "arrogant": 7304,
      "ungrateful": 7305,
      "laugh": 7306,
      "alike": 7307,
      "##rupt": 7308,
      "carefully": 7309,
      "strengthening": 7310,
      "producing": 7311,
      "tremend": 7312,
      "bats": 7313,
      "##oor": 7314,
      "strict": 7315,
      "unaw": 7316,
      "lege": 7317,
      "females": 7318,
      "emphasis": 7319,
      "australia": 7320,
      "##atar": 7321,
      "anth": 7322,
      "monothe": 7323,
      "88": 7324,
      "##ota": 7325,
      "stress": 7326,
      "grat": 7327,
      "##gery": 7328,
      "investors": 7329,
      "weakness": 7330,
      "unexpected": 7331,
      "rag": 7332,
      "shame": 7333,
      "ordained": 7334,
      "insist": 7335,
      "testimony": 7336,
      "debate": 7337,
      "beat": 7338,
      "alter": 7339,
      "compuls": 7340,
      "pret": 7341,
      "##anka": 7342,
      "progressive": 7343,
      "discipline": 7344,
      "##hand": 7345,
      "##mer": 7346,
      "reaction": 7347,
      "sund": 7348,
      "scene": 7349,
      "settle": 7350,
      "vary": 7351,
      "poison": 7352,
      "sita": 7353,
      "claimed": 7354,
      "consequences": 7355,
      "recommendations": 7356,
      "pilgrimage": 7357,
      "dil": 7358,
      "gos": 7359,
      "##king": 7360,
      "##onom": 7361,
      "##idences": 7362,
      "##igar": 7363,
      "anx": 7364,
      "dread": 7365,
      "qualities": 7366,
      "distinction": 7367,
      "naturally": 7368,
      "discussed": 7369,
      "awarded": 7370,
      "deriv": 7371,
      "madhya": 7372,
      "fash": 7373,
      "arising": 7374,
      "accum": 7375,
      "crores": 7376,
      "equival": 7377,
      "technological": 7378,
      "ruler": 7379,
      "innovative": 7380,
      "satell": 7381,
      "##gi": 7382,
      "##omon": 7383,
      "secular": 7384,
      "purity": 7385,
      "rhy": 7386,
      "##pers": 7387,
      "boat": 7388,
      "invite": 7389,
      "realise": 7390,
      "salary": 7391,
      "ceremony": 7392,
      "municipal": 7393,
      "owned": 7394,
      "swift": 7395,
      "dyn": 7396,
      "permissions": 7397,
      "##ima": 7398,
      "enl": 7399,
      "spell": 7400,
      "fearing": 7401,
      "elev": 7402,
      "declare": 7403,
      "uri": 7404,
      "prol": 7405,
      "##ivals": 7406,
      "acce": 7407,
      "poetic": 7408,
      "combination": 7409,
      "vegetables": 7410,
      "indigen": 7411,
      "parallel": 7412,
      "kg": 7413,
      "yus": 7414,
      "##di": 7415,
      "employer": 7416,
      "chargeable": 7417,
      "viz": 7418,
      "tro": 7419,
      "uniform": 7420,
      "##ajp": 7421,
      "effectively": 7422,
      "186": 7423,
      "favours": 7424,
      "##here": 7425,
      "grants": 7426,
      "guess": 7427,
      "pleases": 7428,
      "ahmed": 7429,
      "incorpor": 7430,
      "##rm": 7431,
      "percentage": 7432,
      "indirect": 7433,
      "solve": 7434,
      "criticism": 7435,
      "secre": 7436,
      "prominent": 7437,
      "##upon": 7438,
      "beneficent": 7439,
      "bearing": 7440,
      "midst": 7441,
      "grievous": 7442,
      "pledge": 7443,
      "##bh": 7444,
      "incent": 7445,
      "britain": 7446,
      "circular": 7447,
      "japanese": 7448,
      "newspaper": 7449,
      "dynamic": 7450,
      "##rel": 7451,
      "##uman": 7452,
      "150": 7453,
      "sharp": 7454,
      "##yal": 7455,
      "imposed": 7456,
      "seeks": 7457,
      "companion": 7458,
      "contrary": 7459,
      "yusuf": 7460,
      "04": 7461,
      "65": 7462,
      "nir": 7463,
      "##orders": 7464,
      "discrim": 7465,
      "contrast": 7466,
      "ultimate": 7467,
      "gd": 7468,
      "##cles": 7469,
      "##fl": 7470,
      "teeth": 7471,
      "invent": 7472,
      "brahman": 7473,
      "diversity": 7474,
      "##10": 7475,
      "##icted": 7476,
      "factory": 7477,
      "traditions": 7478,
      "execution": 7479,
      "significance": 7480,
      "mischief": 7481,
      "aar": 7482,
      "ba": 7483,
      "jac": 7484,
      "nagar": 7485,
      "peak": 7486,
      "gram": 7487,
      "overse": 7488,
      "decor": 7489,
      "urge": 7490,
      "careful": 7491,
      "angel": 7492,
      "emperor": 7493,
      "##cut": 7494,
      "##care": 7495,
      "grief": 7496,
      "causing": 7497,
      "ramayana": 7498,
      "accessible": 7499,
      "oriented": 7500,
      "##xx": 7501,
      "covers": 7502,
      "42": 7503,
      "kur": 7504,
      "vote": 7505,
      "##house": 7506,
      "seats": 7507,
      "bonds": 7508,
      "artist": 7509,
      "periods": 7510,
      "1956": 7511,
      "driver": 7512,
      "por": 7513,
      "##etary": 7514,
      "everl": 7515,
      "hang": 7516,
      "alleg": 7517,
      "bharati": 7518,
      "handic": 7519,
      "jain": 7520,
      "drowned": 7521,
      "defect": 7522,
      "representatives": 7523,
      "##rafts": 7524,
      "flex": 7525,
      "encouraged": 7526,
      "george": 7527,
      "gun": 7528,
      "isa": 7529,
      "##utation": 7530,
      "loose": 7531,
      "repair": 7532,
      "permanently": 7533,
      "route": 7534,
      "patch": 7535,
      "bears": 7536,
      "chenn": 7537,
      "wholly": 7538,
      "socio": 7539,
      "flowing": 7540,
      "essentially": 7541,
      "everlasting": 7542,
      "##son": 7543,
      "##zy": 7544,
      "##usi": 7545,
      "dismiss": 7546,
      "recommended": 7547,
      "unlike": 7548,
      "##reen": 7549,
      "shiva": 7550,
      "coin": 7551,
      "directors": 7552,
      "attribute": 7553,
      "diagn": 7554,
      "wash": 7555,
      "somebody": 7556,
      "faced": 7557,
      "computers": 7558,
      "lam": 7559,
      "pag": 7560,
      "deities": 7561,
      "chose": 7562,
      "closer": 7563,
      "winter": 7564,
      "incurred": 7565,
      "rh": 7566,
      "##za": 7567,
      "##sha": 7568,
      "decline": 7569,
      "dreams": 7570,
      "clothes": 7571,
      "accompanied": 7572,
      "rough": 7573,
      "##rase": 7574,
      "##araj": 7575,
      "shiv": 7576,
      "reaching": 7577,
      "cease": 7578,
      "dealt": 7579,
      "announce": 7580,
      "conversion": 7581,
      "fetch": 7582,
      "plaintiff": 7583,
      "fashion": 7584,
      "cp": 7585,
      "vidy": 7586,
      "##iable": 7587,
      "##13": 7588,
      "decade": 7589,
      "artificial": 7590,
      "studied": 7591,
      "attacks": 7592,
      "tremendous": 7593,
      "dies": 7594,
      "##ij": 7595,
      "checking": 7596,
      "mathemat": 7597,
      "hem": 7598,
      "delic": 7599,
      "intense": 7600,
      "smart": 7601,
      "electronics": 7602,
      "conclusion": 7603,
      "##chant": 7604,
      "permit": 7605,
      "roots": 7606,
      "##endra": 7607,
      "liveli": 7608,
      "falling": 7609,
      "cultivation": 7610,
      "mandapa": 7611,
      "entertain": 7612,
      "monotheism": 7613,
      "thunder": 7614,
      "enlight": 7615,
      "resign": 7616,
      "constantly": 7617,
      "metal": 7618,
      "experiment": 7619,
      "consumers": 7620,
      "thamud": 7621,
      "ud": 7622,
      "##fe": 7623,
      "stations": 7624,
      "himachal": 7625,
      "broke": 7626,
      "clock": 7627,
      "##anges": 7628,
      "hinduism": 7629,
      "ensuring": 7630,
      "achievements": 7631,
      "maharaja": 7632,
      "sisters": 7633,
      "cursor": 7634,
      "han": 7635,
      "##pection": 7636,
      "modify": 7637,
      "passion": 7638,
      "largely": 7639,
      "feelings": 7640,
      "consequence": 7641,
      "sequence": 7642,
      "livelihood": 7643,
      "rein": 7644,
      "##ighty": 7645,
      "##achi": 7646,
      "valuable": 7647,
      "revision": 7648,
      "telling": 7649,
      "gora": 7650,
      "##arita": 7651,
      "interm": 7652,
      "calam": 7653,
      "libert": 7654,
      "slowly": 7655,
      "ltd": 7656,
      "wikip": 7657,
      "caught": 7658,
      "##pad": 7659,
      "##mits": 7660,
      "##akrish": 7661,
      "criter": 7662,
      "wherefore": 7663,
      "##azing": 7664,
      "encryption": 7665,
      "wheat": 7666,
      "cc": 7667,
      "cache": 7668,
      "##urved": 7669,
      "supposed": 7670,
      "imported": 7671,
      "aircraft": 7672,
      "camera": 7673,
      "definition": 7674,
      "##roph": 7675,
      "##ilal": 7676,
      "managed": 7677,
      "monthly": 7678,
      "1990": 7679,
      "commonly": 7680,
      "treaty": 7681,
      "##aking": 7682,
      "statements": 7683,
      "decreed": 7684,
      "solomon": 7685,
      "##iculture": 7686,
      "##ipping": 7687,
      "participate": 7688,
      "requirement": 7689,
      "possessed": 7690,
      "vim": 7691,
      "wire": 7692,
      "disapp": 7693,
      "belied": 7694,
      "##onym": 7695,
      "parameters": 7696,
      "entrusted": 7697,
      "dictionary": 7698,
      "acceler": 7699,
      "dress": 7700,
      "stim": 7701,
      "arts": 7702,
      "emerging": 7703,
      "##utory": 7704,
      "stake": 7705,
      "##angle": 7706,
      "realised": 7707,
      "putting": 7708,
      "magistr": 7709,
      "torah": 7710,
      "defeat": 7711,
      "pardon": 7712,
      "aaron": 7713,
      "pit": 7714,
      "rah": 7715,
      "##rum": 7716,
      "##pent": 7717,
      "##erm": 7718,
      "##licted": 7719,
      "warrant": 7720,
      "totally": 7721,
      "integrity": 7722,
      "structures": 7723,
      "cin": 7724,
      "ment": 7725,
      "deals": 7726,
      "eminent": 7727,
      "crash": 7728,
      "describe": 7729,
      "fears": 7730,
      "literacy": 7731,
      "pin": 7732,
      "##rid": 7733,
      "##itory": 7734,
      "disse": 7735,
      "scroll": 7736,
      "1992": 7737,
      "cheque": 7738,
      "cro": 7739,
      "depr": 7740,
      "winds": 7741,
      "ranks": 7742,
      "theatre": 7743,
      "##ares": 7744,
      "unm": 7745,
      "ending": 7746,
      "learnt": 7747,
      "ri": 7748,
      "ul": 7749,
      "exit": 7750,
      "exem": 7751,
      "humans": 7752,
      "illness": 7753,
      "##iques": 7754,
      "descendants": 7755,
      "wheel": 7756,
      "wave": 7757,
      "isol": 7758,
      "seat": 7759,
      "consent": 7760,
      "parag": 7761,
      "paying": 7762,
      "almighty": 7763,
      "representation": 7764,
      "procedures": 7765,
      "fifteen": 7766,
      "constructed": 7767,
      "55": 7768,
      "pup": 7769,
      "oral": 7770,
      "cher": 7771,
      "##aken": 7772,
      "peas": 7773,
      "mahal": 7774,
      "arranged": 7775,
      "immun": 7776,
      "islamist": 7777,
      "variable": 7778,
      "revolutionary": 7779,
      "bare": 7780,
      "hung": 7781,
      "##ront": 7782,
      "tract": 7783,
      "unic": 7784,
      "clim": 7785,
      "##000": 7786,
      "depre": 7787,
      "technique": 7788,
      "lasting": 7789,
      "paste": 7790,
      "inclusive": 7791,
      "dict": 7792,
      "pairs": 7793,
      "##hari": 7794,
      "##organ": 7795,
      "##umes": 7796,
      "pear": 7797,
      "append": 7798,
      "restr": 7799,
      "arabs": 7800,
      "resolve": 7801,
      "##hen": 7802,
      "##bre": 7803,
      "presents": 7804,
      "entering": 7805,
      "encl": 7806,
      "questioned": 7807,
      "pronoun": 7808,
      "jo": 7809,
      "wilt": 7810,
      "##mph": 7811,
      "##pless": 7812,
      "opposed": 7813,
      "nurs": 7814,
      "tooth": 7815,
      "stuff": 7816,
      "semin": 7817,
      "##ema": 7818,
      "##inder": 7819,
      "compound": 7820,
      "##write": 7821,
      "mahabharata": 7822,
      "gita": 7823,
      "reduction": 7824,
      "participants": 7825,
      "institutional": 7826,
      "walking": 7827,
      "cens": 7828,
      "perpet": 7829,
      "worker": 7830,
      "marathi": 7831,
      "genu": 7832,
      "foref": 7833,
      "ruling": 7834,
      "subsequent": 7835,
      "hatred": 7836,
      "commencement": 7837,
      "##ban": 7838,
      "flour": 7839,
      "happening": 7840,
      "resulting": 7841,
      "grave": 7842,
      "scriptures": 7843,
      "liable": 7844,
      "transgressors": 7845,
      "sixty": 7846,
      "nit": 7847,
      "##bl": 7848,
      "reset": 7849,
      "##works": 7850,
      "observ": 7851,
      "attended": 7852,
      "repeat": 7853,
      "channels": 7854,
      "mud": 7855,
      "anj": 7856,
      "sha": 7857,
      "nobody": 7858,
      "infid": 7859,
      "bhut": 7860,
      "separated": 7861,
      "dependent": 7862,
      "mistake": 7863,
      "aj": 7864,
      "bread": 7865,
      "##leum": 7866,
      "mohan": 7867,
      "backup": 7868,
      "mailbox": 7869,
      "sixth": 7870,
      "provinces": 7871,
      "appellant": 7872,
      "vaishn": 7873,
      "##oking": 7874,
      "refres": 7875,
      "187": 7876,
      "eventually": 7877,
      "inhabitants": 7878,
      "bio": 7879,
      "prize": 7880,
      "contributed": 7881,
      "novels": 7882,
      "fonts": 7883,
      "##ayas": 7884,
      "indo": 7885,
      "enables": 7886,
      "evidences": 7887,
      "taxes": 7888,
      "arrested": 7889,
      "headers": 7890,
      "##jun": 7891,
      "childhood": 7892,
      "paint": 7893,
      "closely": 7894,
      "deceased": 7895,
      "1948": 7896,
      "hunger": 7897,
      "gif": 7898,
      "nas": 7899,
      "push": 7900,
      "##df": 7901,
      "bookmark": 7902,
      "wished": 7903,
      "represented": 7904,
      "startup": 7905,
      "nu": 7906,
      "nath": 7907,
      "##oft": 7908,
      "shout": 7909,
      "disl": 7910,
      "organic": 7911,
      "possibility": 7912,
      "vij": 7913,
      "regularly": 7914,
      "manufacture": 7915,
      "discovered": 7916,
      "frequently": 7917,
      "til": 7918,
      "##power": 7919,
      "keen": 7920,
      "lawy": 7921,
      "handle": 7922,
      "keeps": 7923,
      "references": 7924,
      "privilege": 7925,
      "enthusi": 7926,
      "38": 7927,
      "bench": 7928,
      "fan": 7929,
      "##oram": 7930,
      "repos": 7931,
      "helping": 7932,
      "avo": 7933,
      "conferred": 7934,
      "prospect": 7935,
      "maur": 7936,
      "virtual": 7937,
      "punjabi": 7938,
      "produces": 7939,
      "dignity": 7940,
      "pertaining": 7941,
      "unaware": 7942,
      "wikipedia": 7943,
      "selling": 7944,
      "bestow": 7945,
      "envis": 7946,
      "combined": 7947,
      "operational": 7948,
      "sciences": 7949,
      "copyright": 7950,
      "hotel": 7951,
      "elder": 7952,
      "indigenous": 7953,
      "brown": 7954,
      "muscle": 7955,
      "passage": 7956,
      "authorised": 7957,
      "payments": 7958,
      "restart": 7959,
      "arrest": 7960,
      "socialist": 7961,
      "responsibilities": 7962,
      "depending": 7963,
      "zak": 7964,
      "##pa": 7965,
      "##ida": 7966,
      "##verse": 7967,
      "bras": 7968,
      "prevention": 7969,
      "amounts": 7970,
      "ruin": 7971,
      "maintaining": 7972,
      "consisting": 7973,
      "shrine": 7974,
      "sovereignty": 7975,
      "ji": 7976,
      "##wood": 7977,
      "trig": 7978,
      "intr": 7979,
      "twain": 7980,
      "lanka": 7981,
      "nerve": 7982,
      "proc": 7983,
      "spons": 7984,
      "fallen": 7985,
      "concerns": 7986,
      "succeeded": 7987,
      "jam": 7988,
      "##ham": 7989,
      "##essions": 7990,
      "sport": 7991,
      "thrown": 7992,
      "entity": 7993,
      "badr": 7994,
      "ministries": 7995,
      "loaded": 7996,
      "converted": 7997,
      "ultimately": 7998,
      "clipboard": 7999,
      "##isible": 8000,
      "classical": 8001,
      "burd": 8002,
      "television": 8003,
      "jinns": 8004,
      "sant": 8005,
      "vul": 8006,
      "stom": 8007,
      "meal": 8008,
      "perish": 8009,
      "preserve": 8010,
      "devil": 8011,
      "protected": 8012,
      "translated": 8013,
      "synchron": 8014,
      "dangerous": 8015,
      "hari": 8016,
      "lingu": 8017,
      "##bted": 8018,
      "##ndra": 8019,
      "##iri": 8020,
      "orth": 8021,
      "whoso": 8022,
      "retire": 8023,
      "listed": 8024,
      "angle": 8025,
      "commodities": 8026,
      "##asts": 8027,
      "##ensed": 8028,
      "hardware": 8029,
      "searching": 8030,
      "patients": 8031,
      "siva": 8032,
      "ish": 8033,
      "##ste": 8034,
      "readers": 8035,
      "aspir": 8036,
      "cum": 8037,
      "maid": 8038,
      "##ports": 8039,
      "##mans": 8040,
      "##oty": 8041,
      "##rian": 8042,
      "organisms": 8043,
      "precise": 8044,
      "emotional": 8045,
      "equivalent": 8046,
      "kann": 8047,
      "notified": 8048,
      "##ference": 8049,
      "discard": 8050,
      "nearer": 8051,
      "financing": 8052,
      "1996": 8053,
      "jacob": 8054,
      "cad": 8055,
      "kol": 8056,
      "##adur": 8057,
      "impress": 8058,
      "believer": 8059,
      "everywhere": 8060,
      "generate": 8061,
      "calf": 8062,
      "hundreds": 8063,
      "recipients": 8064,
      "adapt": 8065,
      "associates": 8066,
      "certificates": 8067,
      "integration": 8068,
      "##ixture": 8069,
      "overseas": 8070,
      "bid": 8071,
      "##ullah": 8072,
      "basava": 8073,
      "returning": 8074,
      "simult": 8075,
      "strengthened": 8076,
      "aimed": 8077,
      "furnish": 8078,
      "##chandra": 8079,
      "illegal": 8080,
      "fou": 8081,
      "arise": 8082,
      "flash": 8083,
      "swall": 8084,
      "arrive": 8085,
      "farming": 8086,
      "enjoyed": 8087,
      "birthday": 8088,
      "forbid": 8089,
      "springs": 8090,
      "enrich": 8091,
      "39": 8092,
      "##ania": 8093,
      "##ushing": 8094,
      "backend": 8095,
      "sounds": 8096,
      "1950": 8097,
      "warnings": 8098,
      "jump": 8099,
      "mim": 8100,
      "thro": 8101,
      "##etime": 8102,
      "worry": 8103,
      "fees": 8104,
      "generated": 8105,
      "performing": 8106,
      "conversation": 8107,
      "shelter": 8108,
      "enhanced": 8109,
      "chamber": 8110,
      "innocent": 8111,
      "kav": 8112,
      "##jud": 8113,
      "##how": 8114,
      "succ": 8115,
      "pool": 8116,
      "appeals": 8117,
      "recording": 8118,
      "involves": 8119,
      "savings": 8120,
      "luck": 8121,
      "pump": 8122,
      "vouch": 8123,
      "##ulter": 8124,
      "unin": 8125,
      "outs": 8126,
      "obama": 8127,
      "sinful": 8128,
      "constitute": 8129,
      "experiences": 8130,
      "ancest": 8131,
      "oxy": 8132,
      "##icity": 8133,
      "disorder": 8134,
      "supporting": 8135,
      "tells": 8136,
      "victor": 8137,
      "entrepreneurs": 8138,
      "shadow": 8139,
      "constituent": 8140,
      "hes": 8141,
      "pest": 8142,
      "##bled": 8143,
      "pharm": 8144,
      "bhak": 8145,
      "techniques": 8146,
      "players": 8147,
      "silent": 8148,
      "proposals": 8149,
      "##omplete": 8150,
      "simultaneous": 8151,
      "cav": 8152,
      "native": 8153,
      "vas": 8154,
      "threw": 8155,
      "##nda": 8156,
      "##ename": 8157,
      "storm": 8158,
      "shade": 8159,
      "sple": 8160,
      "afterwards": 8161,
      "developments": 8162,
      "preparing": 8163,
      "implementing": 8164,
      "proceeding": 8165,
      "positions": 8166,
      "bangal": 8167,
      "apparent": 8168,
      "##itudes": 8169,
      "##ayee": 8170,
      "gramm": 8171,
      "considering": 8172,
      "trek": 8173,
      "farmer": 8174,
      "dynasty": 8175,
      "ict": 8176,
      "##oes": 8177,
      "##map": 8178,
      "refuse": 8179,
      "transportation": 8180,
      "pillars": 8181,
      "arbitr": 8182,
      "greek": 8183,
      "##ew": 8184,
      "charm": 8185,
      "##iously": 8186,
      "supplement": 8187,
      "silence": 8188,
      "newspapers": 8189,
      "random": 8190,
      "64": 8191,
      "gained": 8192,
      "nod": 8193,
      "nose": 8194,
      "pr0": 8195,
      "brand": 8196,
      "carries": 8197,
      "premises": 8198,
      "emerged": 8199,
      "thorough": 8200,
      "bach": 8201,
      "investigation": 8202,
      "collective": 8203,
      "sessions": 8204,
      "##iam": 8205,
      "##etan": 8206,
      "persu": 8207,
      "trend": 8208,
      "43": 8209,
      "cra": 8210,
      "##rat": 8211,
      "##life": 8212,
      "##orial": 8213,
      "##ched": 8214,
      "##pping": 8215,
      "administer": 8216,
      "malay": 8217,
      "influenced": 8218,
      "synth": 8219,
      "celebrations": 8220,
      "govt": 8221,
      "rapidly": 8222,
      "horn": 8223,
      "shif": 8224,
      "##ulous": 8225,
      "compil": 8226,
      "remed": 8227,
      "copies": 8228,
      "peaceful": 8229,
      "circuit": 8230,
      "weigh": 8231,
      "sovi": 8232,
      "entries": 8233,
      "imagination": 8234,
      "rendered": 8235,
      "brasero": 8236,
      "bay": 8237,
      "nerv": 8238,
      "##lord": 8239,
      "##bb": 8240,
      "##ician": 8241,
      "ascribe": 8242,
      "confined": 8243,
      "organism": 8244,
      "copying": 8245,
      "audience": 8246,
      "photograph": 8247,
      "lust": 8248,
      "rational": 8249,
      "##ef": 8250,
      "disaster": 8251,
      "embr": 8252,
      "statistics": 8253,
      "##what": 8254,
      "organs": 8255,
      "collaboration": 8256,
      "geographical": 8257,
      "rbi": 8258,
      "##iary": 8259,
      "anand": 8260,
      "seize": 8261,
      "cancell": 8262,
      "##ildo": 8263,
      "programming": 8264,
      "biggest": 8265,
      "competitive": 8266,
      "resistance": 8267,
      "##hs": 8268,
      "amalg": 8269,
      "##avior": 8270,
      "interaction": 8271,
      "ideals": 8272,
      "reaches": 8273,
      "magaz": 8274,
      "corresponding": 8275,
      "chromos": 8276,
      "ox": 8277,
      "##inating": 8278,
      "seal": 8279,
      "saudi": 8280,
      "spin": 8281,
      "detect": 8282,
      "##ugu": 8283,
      "subsid": 8284,
      "vacc": 8285,
      "obviously": 8286,
      "doth": 8287,
      "vid": 8288,
      "##step": 8289,
      "##apse": 8290,
      "query": 8291,
      "characteristic": 8292,
      "suspend": 8293,
      "consultation": 8294,
      "ell": 8295,
      "##down": 8296,
      "##esth": 8297,
      "serving": 8298,
      "nearest": 8299,
      "jewish": 8300,
      "obligation": 8301,
      "federal": 8302,
      "congratulate": 8303,
      "inflammation": 8304,
      "##rogen": 8305,
      "attained": 8306,
      "drum": 8307,
      "immort": 8308,
      "healthcare": 8309,
      "blessing": 8310,
      "sanctuary": 8311,
      "stability": 8312,
      "##ela": 8313,
      "distant": 8314,
      "epic": 8315,
      "buddhist": 8316,
      "85": 8317,
      "cant": 8318,
      "cater": 8319,
      "vajp": 8320,
      "##hat": 8321,
      "anyway": 8322,
      "evildo": 8323,
      "outl": 8324,
      "everybody": 8325,
      "statutory": 8326,
      "answers": 8327,
      "stronger": 8328,
      "calculated": 8329,
      "primarily": 8330,
      "bam": 8331,
      "butt": 8332,
      "intu": 8333,
      "afores": 8334,
      "##ertain": 8335,
      "inspection": 8336,
      "behavior": 8337,
      "errors": 8338,
      "vajpayee": 8339,
      "aforesaid": 8340,
      "zeal": 8341,
      "resort": 8342,
      "invented": 8343,
      "insol": 8344,
      "##ipped": 8345,
      "patron": 8346,
      "breaking": 8347,
      "cursed": 8348,
      "abnormal": 8349,
      "tall": 8350,
      "amid": 8351,
      "serial": 8352,
      "moreover": 8353,
      "membr": 8354,
      "shortcut": 8355,
      "optim": 8356,
      "ayurved": 8357,
      "masters": 8358,
      "piety": 8359,
      "inaugur": 8360,
      "ldap": 8361,
      "ling": 8362,
      "##ilitation": 8363,
      "alc": 8364,
      "outcome": 8365,
      "impression": 8366,
      "disturb": 8367,
      "models": 8368,
      "varieties": 8369,
      "honoured": 8370,
      "thankful": 8371,
      "exclusive": 8372,
      "genuine": 8373,
      "hort": 8374,
      "##coming": 8375,
      "##estig": 8376,
      "##room": 8377,
      "elabor": 8378,
      "1997": 8379,
      "bigger": 8380,
      "virtuous": 8381,
      "gates": 8382,
      "holid": 8383,
      "lung": 8384,
      "sank": 8385,
      "##cope": 8386,
      "whis": 8387,
      "##ules": 8388,
      "innovations": 8389,
      "snake": 8390,
      "enlar": 8391,
      "bon": 8392,
      "batter": 8393,
      "vag": 8394,
      "loyal": 8395,
      "exposed": 8396,
      "denom": 8397,
      "agreements": 8398,
      "convinced": 8399,
      "petroleum": 8400,
      "kore": 8401,
      "##rh": 8402,
      "ascend": 8403,
      "brill": 8404,
      "operate": 8405,
      "tests": 8406,
      "identification": 8407,
      "excessive": 8408,
      "tiger": 8409,
      "##ogram": 8410,
      "imports": 8411,
      "condol": 8412,
      "mould": 8413,
      "##opl": 8414,
      "pars": 8415,
      "electrical": 8416,
      "replaced": 8417,
      "connecting": 8418,
      "cheap": 8419,
      "perceive": 8420,
      "deliber": 8421,
      "batsman": 8422,
      "dir": 8423,
      "##from": 8424,
      "isn": 8425,
      "sender": 8426,
      "disag": 8427,
      "expiry": 8428,
      "watching": 8429,
      "##criptions": 8430,
      "boiling": 8431,
      "supports": 8432,
      "1991": 8433,
      "miles": 8434,
      "achieving": 8435,
      "indicate": 8436,
      "lakhs": 8437,
      "scholarship": 8438,
      "washington": 8439,
      "lac": 8440,
      "##ky": 8441,
      "resem": 8442,
      "agra": 8443,
      "closing": 8444,
      "##ogue": 8445,
      "##ounded": 8446,
      "##shi": 8447,
      "remembered": 8448,
      "penet": 8449,
      "honourable": 8450,
      "residential": 8451,
      "##asy": 8452,
      "shock": 8453,
      "enorm": 8454,
      "involving": 8455,
      "derivative": 8456,
      "##view": 8457,
      "##30": 8458,
      "asc": 8459,
      "conflic": 8460,
      "nearby": 8461,
      "cutting": 8462,
      "prevented": 8463,
      "glorify": 8464,
      "candidates": 8465,
      "cm": 8466,
      "##nic": 8467,
      "##urer": 8468,
      "grade": 8469,
      "mole": 8470,
      "subord": 8471,
      "newly": 8472,
      "genus": 8473,
      "##amma": 8474,
      "grounds": 8475,
      "attractive": 8476,
      "glorious": 8477,
      "chennai": 8478,
      "cv": 8479,
      "pitch": 8480,
      "##ny": 8481,
      "##alal": 8482,
      "##itative": 8483,
      "##lying": 8484,
      "lease": 8485,
      "earthqu": 8486,
      "extensive": 8487,
      "acceptable": 8488,
      "milit": 8489,
      "motiv": 8490,
      "mosqu": 8491,
      "appellate": 8492,
      "unicode": 8493,
      "bangalore": 8494,
      "47": 8495,
      "##agrah": 8496,
      "##okes": 8497,
      "calm": 8498,
      "encoding": 8499,
      "connections": 8500,
      "vedas": 8501,
      "extraord": 8502,
      "paragraph": 8503,
      "soviet": 8504,
      "##erals": 8505,
      "tob": 8506,
      "chal": 8507,
      "pref": 8508,
      "somewhat": 8509,
      "sucharita": 8510,
      "diamonds": 8511,
      "aqu": 8512,
      "ga": 8513,
      "youn": 8514,
      "##tha": 8515,
      "doors": 8516,
      "reducing": 8517,
      "radiation": 8518,
      "dispos": 8519,
      "sadd": 8520,
      "jih": 8521,
      "##zing": 8522,
      "ages": 8523,
      "regret": 8524,
      "untouch": 8525,
      "helpers": 8526,
      "kindness": 8527,
      "historic": 8528,
      "surrounded": 8529,
      "colonial": 8530,
      "##iar": 8531,
      "chest": 8532,
      "intest": 8533,
      "maturity": 8534,
      "gazette": 8535,
      "movie": 8536,
      "scattered": 8537,
      "recruit": 8538,
      "46": 8539,
      "dac": 8540,
      "hire": 8541,
      "##ador": 8542,
      "ard": 8543,
      "##ogether": 8544,
      "glac": 8545,
      "hindust": 8546,
      "paul": 8547,
      "orphans": 8548,
      "satellite": 8549,
      "troops": 8550,
      "##jj": 8551,
      "composition": 8552,
      "wherewith": 8553,
      "accounting": 8554,
      "barrier": 8555,
      "chiefs": 8556,
      "##dev": 8557,
      "sacrific": 8558,
      "altogether": 8559,
      "swell": 8560,
      "therm": 8561,
      "##itate": 8562,
      "fright": 8563,
      "##ifier": 8564,
      "therewith": 8565,
      "anywhere": 8566,
      "networks": 8567,
      "plane": 8568,
      "planet": 8569,
      "viet": 8570,
      "witnessed": 8571,
      "liberation": 8572,
      "spreading": 8573,
      "##screen": 8574,
      "adverse": 8575,
      "vigil": 8576,
      "dupl": 8577,
      "ta": 8578,
      "acted": 8579,
      "musical": 8580,
      "##ername": 8581,
      "membership": 8582,
      "subsidy": 8583,
      "celebrate": 8584,
      "controvers": 8585,
      "exclus": 8586,
      "phenomen": 8587,
      "##ino": 8588,
      "allocation": 8589,
      "atl": 8590,
      "punished": 8591,
      "addressing": 8592,
      "ruled": 8593,
      "logic": 8594,
      "fairly": 8595,
      "forgotten": 8596,
      "yam": 8597,
      "##das": 8598,
      "enquiry": 8599,
      "moves": 8600,
      "relie": 8601,
      "examine": 8602,
      "destiny": 8603,
      "vitamin": 8604,
      "pretty": 8605,
      "bol": 8606,
      "mich": 8607,
      "pr2": 8608,
      "##uti": 8609,
      "##ipher": 8610,
      "regime": 8611,
      "freely": 8612,
      "videos": 8613,
      "preference": 8614,
      "##oved": 8615,
      "##ias": 8616,
      "##gl": 8617,
      "##adation": 8618,
      "stup": 8619,
      "butter": 8620,
      "lands": 8621,
      "easier": 8622,
      "hyper": 8623,
      "convocation": 8624,
      "inserted": 8625,
      "wildlife": 8626,
      "routine": 8627,
      "subsequently": 8628,
      "dollar": 8629,
      "lag": 8630,
      "frust": 8631,
      "indul": 8632,
      "envelop": 8633,
      "prejud": 8634,
      "appreh": 8635,
      "safegu": 8636,
      "tum": 8637,
      "tib": 8638,
      "vin": 8639,
      "##rous": 8640,
      "##ulates": 8641,
      "##abling": 8642,
      "quad": 8643,
      "resulted": 8644,
      "sustained": 8645,
      "dwellers": 8646,
      "jub": 8647,
      "##lex": 8648,
      "alloc": 8649,
      "indira": 8650,
      "alms": 8651,
      "grid": 8652,
      "marine": 8653,
      "equation": 8654,
      "realized": 8655,
      "beneficial": 8656,
      "##aze": 8657,
      "cul": 8658,
      "diver": 8659,
      "gap": 8660,
      "mc": 8661,
      "##tr": 8662,
      "##upp": 8663,
      "trump": 8664,
      "gland": 8665,
      "younger": 8666,
      "##key": 8667,
      "##ishment": 8668,
      "admission": 8669,
      "flags": 8670,
      "turkish": 8671,
      "unfortunately": 8672,
      "encounter": 8673,
      "56": 8674,
      "goa": 8675,
      "loved": 8676,
      "coff": 8677,
      "interc": 8678,
      "instruct": 8679,
      "transf": 8680,
      "norms": 8681,
      "execute": 8682,
      "colleges": 8683,
      "bondmen": 8684,
      "hors": 8685,
      "pm": 8686,
      "allahabad": 8687,
      "pending": 8688,
      "compact": 8689,
      "precious": 8690,
      "visiting": 8691,
      "headed": 8692,
      "regards": 8693,
      "exchanges": 8694,
      "indicated": 8695,
      "bahadur": 8696,
      "pregnancy": 8697,
      "alcoh": 8698,
      "54": 8699,
      "nick": 8700,
      "tomb": 8701,
      "##ione": 8702,
      "##amy": 8703,
      "##avas": 8704,
      "genetic": 8705,
      "openly": 8706,
      "larva": 8707,
      "flying": 8708,
      "ridic": 8709,
      "telugu": 8710,
      "kabir": 8711,
      "bacteria": 8712,
      "stomach": 8713,
      "splend": 8714,
      "mime": 8715,
      "vish": 8716,
      "हस": 8717,
      "##asp": 8718,
      "likewise": 8719,
      "decimal": 8720,
      "misle": 8721,
      "applies": 8722,
      "reconst": 8723,
      "drew": 8724,
      "hol": 8725,
      "managing": 8726,
      "reload": 8727,
      "purify": 8728,
      "sanctioned": 8729,
      "dramatic": 8730,
      "aggregate": 8731,
      "lion": 8732,
      "lux": 8733,
      "sid": 8734,
      "##kha": 8735,
      "prestig": 8736,
      "segment": 8737,
      "##ouses": 8738,
      "usa": 8739,
      "reserved": 8740,
      "blow": 8741,
      "buff": 8742,
      "immig": 8743,
      "prayed": 8744,
      "summit": 8745,
      "earliest": 8746,
      "faster": 8747,
      "##mes": 8748,
      "##indranath": 8749,
      "thrust": 8750,
      "judiciary": 8751,
      "tribe": 8752,
      "msme": 8753,
      "himalayas": 8754,
      "51": 8755,
      "sq": 8756,
      "##ainted": 8757,
      "##quar": 8758,
      "removing": 8759,
      "vel": 8760,
      "##icide": 8761,
      "ster": 8762,
      "frank": 8763,
      "exha": 8764,
      "##ails": 8765,
      "instant": 8766,
      "obe": 8767,
      "doctors": 8768,
      "vietnam": 8769,
      "rans": 8770,
      "##night": 8771,
      "sheikh": 8772,
      "bhar": 8773,
      "insight": 8774,
      "handed": 8775,
      "rao": 8776,
      "characteristics": 8777,
      "administrator": 8778,
      "tourists": 8779,
      "premium": 8780,
      "magnetic": 8781,
      "grievances": 8782,
      "russian": 8783,
      "ownership": 8784,
      "tape": 8785,
      "##atra": 8786,
      "varied": 8787,
      "ignored": 8788,
      "talent": 8789,
      "applause": 8790,
      "nutr": 8791,
      "intermedi": 8792,
      "pace": 8793,
      "##utosh": 8794,
      "plains": 8795,
      "##osted": 8796,
      "profound": 8797,
      "handling": 8798,
      "executed": 8799,
      "lowest": 8800,
      "fortun": 8801,
      "empowerment": 8802,
      "vessels": 8803,
      "church": 8804,
      "cod": 8805,
      "mixture": 8806,
      "nodes": 8807,
      "wine": 8808,
      "rear": 8809,
      "seas": 8810,
      "agro": 8811,
      "beloved": 8812,
      "##ricted": 8813,
      "##ighth": 8814,
      "retain": 8815,
      "slaughter": 8816,
      "##lessly": 8817,
      "representing": 8818,
      "bounds": 8819,
      "assumed": 8820,
      "transparency": 8821,
      "bhutan": 8822,
      "##pread": 8823,
      "degr": 8824,
      "username": 8825,
      "##hai": 8826,
      "extrem": 8827,
      "photos": 8828,
      "chemicals": 8829,
      "abundant": 8830,
      "enforcement": 8831,
      "400": 8832,
      "##wide": 8833,
      "##atri": 8834,
      "arun": 8835,
      "corn": 8836,
      "visits": 8837,
      "arrival": 8838,
      "125": 8839,
      "favors": 8840,
      "entrance": 8841,
      "lan": 8842,
      "thereupon": 8843,
      "crown": 8844,
      "mineral": 8845,
      "##oys": 8846,
      "corrupt": 8847,
      "suggestions": 8848,
      "treasure": 8849,
      "isaac": 8850,
      "oxygen": 8851,
      "bought": 8852,
      "cel": 8853,
      "abol": 8854,
      "upright": 8855,
      "mood": 8856,
      "intim": 8857,
      "overwh": 8858,
      "grows": 8859,
      "liar": 8860,
      "brahma": 8861,
      "31st": 8862,
      "expanded": 8863,
      "##retched": 8864,
      "delegation": 8865,
      "nanak": 8866,
      "commodity": 8867,
      "repository": 8868,
      "overwhel": 8869,
      "cub": 8870,
      "mol": 8871,
      "exped": 8872,
      "acquire": 8873,
      "tears": 8874,
      "token": 8875,
      "tries": 8876,
      "belonged": 8877,
      "##cket": 8878,
      "experienced": 8879,
      "undertake": 8880,
      "defendant": 8881,
      "divorce": 8882,
      "batch": 8883,
      "vive": 8884,
      "##oly": 8885,
      "##kim": 8886,
      "##fs": 8887,
      "##stream": 8888,
      "##ifically": 8889,
      "headquar": 8890,
      "packages": 8891,
      "furnished": 8892,
      "pixels": 8893,
      "tank": 8894,
      "##iti": 8895,
      "##ications": 8896,
      "resc": 8897,
      "tested": 8898,
      "jung": 8899,
      "academy": 8900,
      "cryst": 8901,
      "occupied": 8902,
      "satyagrah": 8903,
      "acknowled": 8904,
      "binary": 8905,
      "tap": 8906,
      "##pg": 8907,
      "##cular": 8908,
      "ingr": 8909,
      "##itals": 8910,
      "toggle": 8911,
      "chart": 8912,
      "setup": 8913,
      "lists": 8914,
      "villagers": 8915,
      "males": 8916,
      "gathering": 8917,
      "experts": 8918,
      "kon": 8919,
      "vc": 8920,
      "stem": 8921,
      "diabet": 8922,
      "icons": 8923,
      "subhash": 8924,
      "exploitation": 8925,
      "evildoers": 8926,
      "apt": 8927,
      "waves": 8928,
      "cogn": 8929,
      "##gged": 8930,
      "##archy": 8931,
      "superst": 8932,
      "##ommun": 8933,
      "symbols": 8934,
      "attracted": 8935,
      "gujarati": 8936,
      "abdul": 8937,
      "obligations": 8938,
      "advocate": 8939,
      "nervous": 8940,
      "हसी": 8941,
      "ped": 8942,
      "wand": 8943,
      "##mail": 8944,
      "##lla": 8945,
      "##usp": 8946,
      "emer": 8947,
      "presently": 8948,
      "##lessness": 8949,
      "occasions": 8950,
      "maxim": 8951,
      "ayat": 8952,
      "kilomet": 8953,
      "crowd": 8954,
      "dwark": 8955,
      "extraordinary": 8956,
      "49": 8957,
      "dub": 8958,
      "fer": 8959,
      "mall": 8960,
      "##rot": 8961,
      "##inals": 8962,
      "semi": 8963,
      "##itya": 8964,
      "advers": 8965,
      "moh": 8966,
      "goodness": 8967,
      "netaji": 8968,
      "superv": 8969,
      "idolaters": 8970,
      "sorry": 8971,
      "adults": 8972,
      "thinks": 8973,
      "evolved": 8974,
      "tuber": 8975,
      "rhyth": 8976,
      "jihad": 8977,
      "##rete": 8978,
      "##tends": 8979,
      "smoke": 8980,
      "surgery": 8981,
      "ganges": 8982,
      "abundance": 8983,
      "orphan": 8984,
      "wet": 8985,
      "shot": 8986,
      "grains": 8987,
      "##gram": 8988,
      "formula": 8989,
      "estimate": 8990,
      "realisation": 8991,
      "necessity": 8992,
      "strongly": 8993,
      "massive": 8994,
      "reminded": 8995,
      "bulk": 8996,
      "anjuta": 8997,
      "kitt": 8998,
      "pall": 8999,
      "##lor": 9000,
      "consec": 9001,
      "indent": 9002,
      "generic": 9003,
      "conventional": 9004,
      "dissemin": 9005,
      "exclusively": 9006,
      "##saf": 9007,
      "##onia": 9008,
      "rehab": 9009,
      "supr": 9010,
      "##ulus": 9011,
      "monetary": 9012,
      "redress": 9013,
      "african": 9014,
      "focused": 9015,
      "columns": 9016,
      "disobedience": 9017,
      "memorial": 9018,
      "sperm": 9019,
      "applicant": 9020,
      "harmful": 9021,
      "pursued": 9022,
      "sahib": 9023,
      "brave": 9024,
      "honey": 9025,
      "nig": 9026,
      "##isite": 9027,
      "biote": 9028,
      "determines": 9029,
      "angry": 9030,
      "dimin": 9031,
      "decrease": 9032,
      "99": 9033,
      "monu": 9034,
      "deduct": 9035,
      "digest": 9036,
      "injured": 9037,
      "appreciate": 9038,
      "tolerance": 9039,
      "horses": 9040,
      "eager": 9041,
      "ya": 9042,
      "##oma": 9043,
      "rebel": 9044,
      "films": 9045,
      "feared": 9046,
      "swaraj": 9047,
      "oppress": 9048,
      "##ariat": 9049,
      "1993": 9050,
      "updated": 9051,
      "tales": 9052,
      "initially": 9053,
      "dialogue": 9054,
      "inevitable": 9055,
      "retirement": 9056,
      "##nity": 9057,
      "##place": 9058,
      "##actory": 9059,
      "merit": 9060,
      "patiently": 9061,
      "1980": 9062,
      "describes": 9063,
      "66": 9064,
      "pdf": 9065,
      "##part": 9066,
      "##chem": 9067,
      "whichever": 9068,
      "clin": 9069,
      "pond": 9070,
      "info": 9071,
      "inputs": 9072,
      "unlaw": 9073,
      "mamm": 9074,
      "##orse": 9075,
      "acute": 9076,
      "flame": 9077,
      "metres": 9078,
      "texts": 9079,
      "approaches": 9080,
      "##naments": 9081,
      "borne": 9082,
      "argue": 9083,
      "nand": 9084,
      "##list": 9085,
      "##zone": 9086,
      "##emia": 9087,
      "therefrom": 9088,
      "agenda": 9089,
      "harb": 9090,
      "protecting": 9091,
      "mortal": 9092,
      "disposal": 9093,
      "dates": 9094,
      "tight": 9095,
      "##rants": 9096,
      "tri": 9097,
      "trace": 9098,
      "intend": 9099,
      "pune": 9100,
      "possibly": 9101,
      "paths": 9102,
      "machines": 9103,
      "protein": 9104,
      "risks": 9105,
      "wonderful": 9106,
      "encouraging": 9107,
      "pyth": 9108,
      "microsoft": 9109,
      "sain": 9110,
      "##pass": 9111,
      "##otes": 9112,
      "shy": 9113,
      "##aph": 9114,
      "refund": 9115,
      "widget": 9116,
      "winning": 9117,
      "flee": 9118,
      "reverse": 9119,
      "exceeding": 9120,
      "durga": 9121,
      "rejoice": 9122,
      "coffee": 9123,
      "duly": 9124,
      "##erated": 9125,
      "##erving": 9126,
      "##very": 9127,
      "cha": 9128,
      "##agon": 9129,
      "partly": 9130,
      "landlord": 9131,
      "##gging": 9132,
      "foods": 9133,
      "undou": 9134,
      "laden": 9135,
      "interview": 9136,
      "upgrade": 9137,
      "lecture": 9138,
      "lahore": 9139,
      "magistrate": 9140,
      "maurit": 9141,
      "cere": 9142,
      "gest": 9143,
      "##fold": 9144,
      "cla": 9145,
      "smt": 9146,
      "denial": 9147,
      "protest": 9148,
      "mirror": 9149,
      "gnu": 9150,
      "appreciation": 9151,
      "complaints": 9152,
      "vicer": 9153,
      "undoubted": 9154,
      "pione": 9155,
      "##rs": 9156,
      "##eem": 9157,
      "william": 9158,
      "comprom": 9159,
      "reposted": 9160,
      "referring": 9161,
      "attempts": 9162,
      "increasingly": 9163,
      "surprise": 9164,
      "manipur": 9165,
      "outward": 9166,
      "interval": 9167,
      "utility": 9168,
      "digit": 9169,
      "fortune": 9170,
      "sync": 9171,
      "pursue": 9172,
      "crucial": 9173,
      "awaits": 9174,
      "hub": 9175,
      "##aras": 9176,
      "##oda": 9177,
      "unem": 9178,
      "spades": 9179,
      "blown": 9180,
      "testify": 9181,
      "obtaining": 9182,
      "matches": 9183,
      "reflected": 9184,
      "pregnant": 9185,
      "xml": 9186,
      "quoted": 9187,
      "restored": 9188,
      "recognise": 9189,
      "1000": 9190,
      "bis": 9191,
      "gab": 9192,
      "hary": 9193,
      "##icians": 9194,
      "##istry": 9195,
      "aged": 9196,
      "incomplete": 9197,
      "desir": 9198,
      "continuing": 9199,
      "##retion": 9200,
      "breed": 9201,
      "adoption": 9202,
      "alien": 9203,
      "legend": 9204,
      "aids": 9205,
      "dad": 9206,
      "ku": 9207,
      "assume": 9208,
      "generous": 9209,
      "telec": 9210,
      "iranian": 9211,
      "fertilizers": 9212,
      "##yn": 9213,
      "##aria": 9214,
      "##utical": 9215,
      "generating": 9216,
      "bhai": 9217,
      "advise": 9218,
      "breeding": 9219,
      "narayan": 9220,
      "discovery": 9221,
      "orientation": 9222,
      "yoj": 9223,
      "themes": 9224,
      "enabling": 9225,
      "1995": 9226,
      "credits": 9227,
      "lotus": 9228,
      "1989": 9229,
      "attacked": 9230,
      "correctly": 9231,
      "symbolic": 9232,
      "dimension": 9233,
      "evaluation": 9234,
      "approximately": 9235,
      "badruddin": 9236,
      "52": 9237,
      "tub": 9238,
      "##itarian": 9239,
      "rely": 9240,
      "##ille": 9241,
[...]
