{
  "version": "1.0",
  "truncation": null,
  "padding": null,
  "added_tokens": [
    {
      "id": 0,
      "content": "[UNK]",
      "single_word": false,
      "lstrip": false,
      "rstrip": false,
      "normalized": false,
      "special": true
    },
    {
      "id": 1,
      "content": "[PAD]",
      "single_word": false,
      "lstrip": false,
      "rstrip": false,
      "normalized": false,
      "special": true
    },
    {
      "id": 2,
      "content": "[CLS]",
      "single_word": false,
      "lstrip": false,
      "rstrip": false,
      "normalized": false,
      "special": true
    },
    {
      "id": 3,
      "content": "[SEP]",
      "single_word": false,
      "lstrip": false,
      "rstrip": false,
      "normalized": false,
      "special": true
    },
    {
      "id": 4,
      "content": "[MASK]",
      "single_word": false,
      "lstrip": false,
      "rstrip": false,
      "normalized": false,
      "special": true
    }
  ],
  "normalizer": {
    "type": "BertNormalizer",
    "clean_text": true,
    "handle_chinese_chars": true,
    "strip_accents": null,
    "lowercase": true
  },
  "pre_tokenizer": {
    "type": "BertPreTokenizer"
  },
  "post_processor": {
    "type": "TemplateProcessing",
    "single": [
      {
        "SpecialToken": {
          "id": "[CLS]",
          "type_id": 0
        }
      },
      {
        "Sequence": {
          "id": "A",
          "type_id": 0
        }
      },
      {
        "SpecialToken": {
          "id": "[SEP]",
          "type_id": 0
        }
      }
    ],
    "pair": [
      {
        "SpecialToken": {
          "id": "[CLS]",
          "type_id": 0
        }
      },
      {
        "Sequence": {
          "id": "A",
          "type_id": 0
        }
      },
      {
        "SpecialToken": {
          "id": "[SEP]",
          "type_id": 0
        }
      },
      {
        "Sequence": {
          "id": "B",
          "type_id": 1
        }
      },
      {
        "SpecialToken": {
          "id": "[SEP]",
          "type_id": 1
        }
      }
    ],
    "special_tokens": {
      "[CLS]": {
        "id": "[CLS]",
        "ids": [
          2
        ],
        "tokens": [
          "[CLS]"
        ]
      },
      "[SEP]": {
        "id": "[SEP]",
        "ids": [
          3
        ],
        "tokens": [
          "[SEP]"
        ]
      }
    }
  },
  "decoder": {
    "type": "WordPiece",
    "prefix": "##",
    "cleanup": true
  },
  "model": {
    "type": "WordPiece",
    "unk_token": "[UNK]",
    "continuing_subword_prefix": "##",
    "max_input_chars_per_word": 100,
    "vocab": {
      "[UNK]": 0,
      "[PAD]": 1,
      "[CLS]": 2,
      "[SEP]": 3,
      "[MASK]": 4,
      "!": 5,
      "\"": 6,
      "#": 7,
      "$": 8,
      "%": 9,
      "&": 10,
      "'": 11,
      "(": 12,
      ")": 13,
      "*": 14,
      "+": 15,
      ",": 16,
      "-": 17,
      ".": 18,
      "/": 19,
      "0": 20,
      "1": 21,
      "2": 22,
      "3": 23,
      "4": 24,
      "5": 25,
      "6": 26,
      "7": 27,
      "8": 28,
      "9": 29,
      ":": 30,
      ";": 31,
      "<": 32,
      "=": 33,
      ">": 34,
      "?": 35,
      "@": 36,
      "[": 37,
      "\\": 38,
      "]": 39,
      "^": 40,
      "_": 41,
      "`": 42,
      "a": 43,
      "b": 44,
      "c": 45,
      "d": 46,
      "e": 47,
      "f": 48,
      "g": 49,
      "h": 50,
      "i": 51,
      "j": 52,
      "k": 53,
      "l": 54,
      "m": 55,
      "n": 56,
      "o": 57,
      "p": 58,
      "q": 59,
      "r": 60,
      "s": 61,
      "t": 62,
      "u": 63,
      "v": 64,
      "w": 65,
      "x": 66,
      "y": 67,
      "z": 68,
      "{": 69,
      "}": 70,
      "~": 71,
      "¡": 72,
      "¢": 73,
      "£": 74,
      "¤": 75,
      "¥": 76,
      "¦": 77,
      "§": 78,
      "¨": 79,
      "©": 80,
      "ª": 81,
      "«": 82,
      "¬": 83,
      "®": 84,
      "¯": 85,
      "°": 86,
      "±": 87,
      "²": 88,
      "³": 89,
      "´": 90,
      "µ": 91,
      "¶": 92,
      "·": 93,
      "¸": 94,
      "¹": 95,
      "º": 96,
      "¼": 97,
      "½": 98,
      "¾": 99,
      "¿": 100,
      "×": 101,
      "æ": 102,
      "ð": 103,
      "÷": 104,
      "þ": 105,
      "ı": 106,
      "ł": 107,
      "ɓ": 108,
      "ɪ": 109,
      "ʼ": 110,
      "ˇ": 111,
      "ː": 112,
      "˙": 113,
      "˚": 114,
      "˛": 115,
      "˝": 116,
      "α": 117,
      "β": 118,
      "γ": 119,
      "δ": 120,
      "η": 121,
      "θ": 122,
      "ι": 123,
      "κ": 124,
      "λ": 125,
      "μ": 126,
      "ν": 127,
      "π": 128,
      "τ": 129,
      "φ": 130,
      "ψ": 131,
      "ω": 132,
      "а": 133,
      "в": 134,
      "д": 135,
      "е": 136,
      "ж": 137,
      "и": 138,
      "н": 139,
      "о": 140,
      "п": 141,
      "р": 142,
      "с": 143,
      "т": 144,
      "у": 145,
      "ч": 146,
      "ю": 147,
      "є": 148,
      "ѕ": 149,
      "׃": 150,
      "،": 151,
      "ا": 152,
      "ت": 153,
      "ج": 154,
      "ح": 155,
      "د": 156,
      "ر": 157,
      "س": 158,
      "ق": 159,
      "ل": 160,
      "م": 161,
      "ن": 162,
      "ی": 163,
      "ः": 164,
      "अ": 165,
      "आ": 166,
      "इ": 167,
      "ई": 168,
      "उ": 169,
      "ऊ": 170,
      "ऋ": 171,
      "ऌ": 172,
      "ऍ": 173,
      "ऎ": 174,
      "ए": 175,
      "ऐ": 176,
      "ऑ": 177,
      "ऒ": 178,
      "ओ": 179,
      "औ": 180,
      "क": 181,
      "ख": 182,
      "ग": 183,
      "घ": 184,
      "ङ": 185,
      "च": 186,
      "छ": 187,
      "ज": 188,
      "झ": 189,
      "ञ": 190,
      "ट": 191,
      "ठ": 192,
      "ड": 193,
      "ढ": 194,
      "ण": 195,
      "त": 196,
      "थ": 197,
      "द": 198,
      "ध": 199,
      "न": 200,
      "प": 201,
      "फ": 202,
      "ब": 203,
      "भ": 204,
      "म": 205,
      "य": 206,
      "र": 207,
      "ल": 208,
      "ळ": 209,
      "व": 210,
      "श": 211,
      "ष": 212,
      "स": 213,
      "ह": 214,
      "ऽ": 215,
      "ा": 216,
      "ि": 217,
      "ी": 218,
      "ॉ": 219,
      "ॊ": 220,
      "ो": 221,
      "ौ": 222,
      "ॐ": 223,
      "ॠ": 224,
      "ॡ": 225,
      "।": 226,
      "॥": 227,
      "०": 228,
      "१": 229,
      "२": 230,
      "३": 231,
      "४": 232,
      "५": 233,
      "६": 234,
      "७": 235,
      "८": 236,
      "९": 237,
      "॰": 238,
      "ক": 239,
      "চ": 240,
      "ঠ": 241,
      "থ": 242,
      "দ": 243,
      "ন": 244,
      "ব": 245,
      "ভ": 246,
      "র": 247,
      "ষ": 248,
      "স": 249,
      "া": 250,
      "ী": 251,
      "ਦ": 252,
      "ਲ": 253,
      "ਿ": 254,
      "ੀ": 255,
      "પ": 256,
      "બ": 257,
      "ા": 258,
      "–": 259,
      "—": 260,
      "―": 261,
      "‘": 262,
      "’": 263,
      "“": 264,
      "”": 265,
      "„": 266,
      "†": 267,
      "‡": 268,
      "•": 269,
      "…": 270,
      "′": 271,
      "⁰": 272,
      "⁴": 273,
      "⁵": 274,
      "⁶": 275,
      "⁷": 276,
      "⁻": 277,
      "₀": 278,
      "₁": 279,
      "₂": 280,
      "€": 281,
      "₹": 282,
      "™": 283,
      "⅓": 284,
      "⅔": 285,
      "⅕": 286,
      "⅖": 287,
      "⅗": 288,
      "⅘": 289,
      "⅙": 290,
      "→": 291,
      "⇒": 292,
      "∂": 293,
      "−": 294,
      "∕": 295,
      "√": 296,
      "∞": 297,
      "∣": 298,
      "∨": 299,
      "≤": 300,
      "≥": 301,
      "⌈": 302,
      "⌉": 303,
      "⌊": 304,
      "⌋": 305,
      "⌘": 306,
      "⏎": 307,
      "─": 308,
      "═": 309,
      "■": 310,
      "☺": 311,
      "☻": 312,
      "♪": 313,
      "♫": 314,
      "➣": 315,
      "か": 316,
      "な": 317,
      "中": 318,
      "國": 319,
      "堀": 320,
      "字": 321,
      "漢": 322,
      "秦": 323,
      "続": 324,
      "设": 325,
      "￼": 326,
      "##ॉ": 327,
      "##ल": 328,
      "##व": 329,
      "##ट": 330,
      "##2": 331,
      "##म": 332,
      "##ि": 333,
      "##य": 334,
      "##न": 335,
      "##त": 336,
      "##स": 337,
      "##र": 338,
      "##ज": 339,
      "##ब": 340,
      "##ा": 341,
      "##ऋ": 342,
      "##द": 343,
      "##ध": 344,
      "##श": 345,
      "##8": 346,
      "##6": 347,
      "##4": 348,
      "##प": 349,
      "##ी": 350,
      "##ण": 351,
      "##अ": 352,
      "##क": 353,
      "##ओ": 354,
      "##च": 355,
      "##ः": 356,
      "##आ": 357,
      "##थ": 358,
      "##i": 359,
      "##s": 360,
      "##r": 361,
      "##a": 362,
      "##e": 363,
      "##l": 364,
      "##ड": 365,
      "##फ": 366,
      "##ठ": 367,
      "##ह": 368,
      "##5": 369,
      "##ो": 370,
      "##q": 371,
      "##u": 372,
      "##y": 373,
      "##ई": 374,
      "##ए": 375,
      "##इ": 376,
      "##भ": 377,
      "##ख": 378,
      "##0": 379,
      "##t": 380,
      "##ष": 381,
      "##c": 382,
      "##o": 383,
      "##n": 384,
      "##d": 385,
      "##ग": 386,
      "##ौ": 387,
      "##ञ": 388,
      "##२": 389,
      "##g": 390,
      "##ऊ": 391,
      "##m": 392,
      "##घ": 393,
      "##b": 394,
      "##¤": 395,
      "##¯": 396,
      "##¾": 397,
      "##¥": 398,
      "##¸": 399,
      "##v": 400,
      "##p": 401,
      "##h": 402,
      "##1": 403,
      "##ढ": 404,
      "##५": 405,
      "##४": 406,
      "##९": 407,
      "##3": 408,
      "##9": 409,
      "##7": 410,
      "##k": 411,
      "##x": 412,
      "##®": 413,
      "##उ": 414,
      "##छ": 415,
      "##¹": 416,
      "##°": 417,
      "##७": 418,
      "##१": 419,
      "##f": 420,
      "##w": 421,
      "##j": 422,
      "##z": 423,
      "##०": 424,
      "##झ": 425,
      "##८": 426,
      "##¼": 427,
      "##²": 428,
      "##ॊ": 429,
      "##३": 430,
      "##ङ": 431,
      "##ऐ": 432,
      "##ऑ": 433,
      "##औ": 434,
      "##е": 435,
      "##р": 436,
      "##п": 437,
      "##а": 438,
      "##н": 439,
      "##о": 440,
      "##в": 441,
      "##६": 442,
      "##¨": 443,
      "##µ": 444,
      "##ª": 445,
      "##¦": 446,
      "##¬": 447,
      "##ळ": 448,
      "##£": 449,
      "##⁰": 450,
      "##ऒ": 451,
      "##ऽ": 452,
      "##ऍ": 453,
      "##ऎ": 454,
      "##₀": 455,
      "##´": 456,
      "##©": 457,
      "##º": 458,
      "##±": 459,
      "##ι": 460,
      "##ω": 461,
      "##×": 462,
      "##☻": 463,
      "##☺": 464,
      "##½": 465,
      "##ऌ": 466,
      "##÷": 467,
      "##π": 468,
      "##ɓ": 469,
      "##и": 470,
      "##þ": 471,
      "##¢": 472,
      "##ح": 473,
      "##ل": 474,
      "##≥": 475,
      "##া": 476,
      "##ক": 477,
      "##র": 478,
      "##♫": 479,
      "##−": 480,
      "##˙": 481,
      "##ч": 482,
      "##ا": 483,
      "##ج": 484,
      "##æ": 485,
      "##ভ": 486,
      "##ষ": 487,
      "##ی": 488,
      "##˝": 489,
      "##₁": 490,
      "##™": 491,
      "##³": 492,
      "##₂": 493,
      "##˛": 494,
      "##∕": 495,
      "##т": 496,
      "##д": 497,
      "##ق": 498,
      "##ر": 499,
      "##ن": 500,
      "##ł": 501,
      "##ন": 502,
      "##দ": 503,
      "##⁴": 504,
      "##ɪ": 505,
      "##ː": 506,
      "##─": 507,
      "##√": 508,
      "##θ": 509,
      "##ж": 510,
      "##ব": 511,
      "##ী": 512,
      "##থ": 513,
      "##≤": 514,
      "##ॐ": 515,
      "##ю": 516,
      "##ψ": 517,
      "##⁻": 518,
      "##ਿ": 519,
      "##ਲ": 520,
      "##ੀ": 521,
      "##ʼ": 522,
      "##ı": 523,
      "##س": 524,
      "##م": 525,
      "##ા": 526,
      "##પ": 527,
      "##ˇ": 528,
      "##な": 529,
      "##স": 530,
      "##ार": 531,
      "पर": 532,
      "##या": 533,
      "और": 534,
      "##ान": 535,
      "कर": 536,
      "##ता": 537,
      "की": 538,
      "कि": 539,
      "को": 540,
      "##िक": 541,
      "का": 542,
      "##ना": 543,
      "हो": 544,
      "##ित": 545,
      "##ाल": 546,
      "##ति": 547,
      "##ही": 548,
      "उन": 549,
      "##यो": 550,
      "##तर": 551,
      "लि": 552,
      "वि": 553,
      "उस": 554,
      "इस": 555,
      "जा": 556,
      "##ला": 557,
      "एक": 558,
      "##िर": 559,
      "##वा": 560,
      "##ती": 561,
      "सम": 562,
      "लिए": 563,
      "तो": 564,
      "अप": 565,
      "##हा": 566,
      "तम": 567,
      "जो": 568,
      "##कर": 569,
      "नही": 570,
      "##िन": 571,
      "सा": 572,
      "हम": 573,
      "##रा": 574,
      "##री": 575,
      "##िस": 576,
      "##दा": 577,
      "भी": 578,
      "##िया": 579,
      "##का": 580,
      "##ोग": 581,
      "बा": 582,
      "अन": 583,
      "अपन": 584,
      "रा": 585,
      "##सी": 586,
      "##था": 587,
      "या": 588,
      "##गा": 589,
      "सक": 590,
      "##कार": 591,
      "ही": 592,
      "यह": 593,
      "##िल": 594,
      "किया": 595,
      "##की": 596,
      "##कष": 597,
      "##ास": 598,
      "वह": 599,
      "लोग": 600,
      "##पर": 601,
      "करन": 602,
      "नि": 603,
      "##ारा": 604,
      "अध": 605,
      "##सा": 606,
      "##मा": 607,
      "##षट": 608,
      "रह": 609,
      "##यक": 610,
      "##वर": 611,
      "कार": 612,
      "##गर": 613,
      "सर": 614,
      "##मान": 615,
      "##ियो": 616,
      "जिस": 617,
      "##को": 618,
      "था": 619,
      "##हत": 620,
      "उप": 621,
      "##ारी": 622,
      "सब": 623,
      "##दर": 624,
      "##ाम": 625,
      "जान": 626,
      "कछ": 627,
      "आप": 628,
      "अल": 629,
      "##नी": 630,
      "तथा": 631,
      "तमह": 632,
      "पह": 633,
      "परा": 634,
      "उनह": 635,
      "##ोन": 636,
      "##कि": 637,
      "चा": 638,
      "##सत": 639,
      "##योग": 640,
      "निर": 641,
      "##जा": 642,
      "गया": 643,
      "तर": 644,
      "वाल": 645,
      "जब": 646,
      "##ीन": 647,
      "दव": 648,
      "##भा": 649,
      "किसी": 650,
      "सव": 651,
      "##दि": 652,
      "रप": 653,
      "भार": 654,
      "कोई": 655,
      "##िय": 656,
      "##ली": 657,
      "साथ": 658,
      "##दश": 659,
      "उनक": 660,
      "##गी": 661,
      "##खा": 662,
      "खदा": 663,
      "अधिक": 664,
      "कष": 665,
      "लोगो": 666,
      "करत": 667,
      "फिर": 668,
      "##जी": 669,
      "##दध": 670,
      "कया": 671,
      "विश": 672,
      "भा": 673,
      "##िए": 674,
      "इन": 675,
      "##कत": 676,
      "तक": 677,
      "पा": 678,
      "वर": 679,
      "##लाह": 680,
      "परति": 681,
      "##रो": 682,
      "ला": 683,
      "दिया": 684,
      "##भी": 685,
      "##डा": 686,
      "चाह": 687,
      "दवारा": 688,
      "##दी": 689,
      "मा": 690,
      "उत": 691,
      "जाए": 692,
      "सच": 693,
      "##वि": 694,
      "दर": 695,
      "##डी": 696,
      "##पत": 697,
      "अललाह": 698,
      "##a¤": 699,
      "##ात": 700,
      "उसक": 701,
      "जिन": 702,
      "##शन": 703,
      "रख": 704,
      "##धार": 705,
      "दो": 706,
      "सथ": 707,
      "राज": 708,
      "परि": 709,
      "बन": 710,
      "अपनी": 711,
      "##सल": 712,
      "##मी": 713,
      "करना": 714,
      "##सर": 715,
      "बना": 716,
      "##ोल": 717,
      "कहा": 718,
      "अव": 719,
      "जाता": 720,
      "थी": 721,
      "##टर": 722,
      "बात": 723,
      "कह": 724,
      "##चछ": 725,
      "##ानी": 726,
      "भारत": 727,
      "##हर": 728,
      "कारय": 729,
      "##िका": 730,
      "##जन": 731,
      "सी": 732,
      "वा": 733,
      "करता": 734,
      "मान": 735,
      "दख": 736,
      "राषट": 737,
      "##टी": 738,
      "जी": 739,
      "दश": 740,
      "##पा": 741,
      "दि": 742,
      "होता": 743,
      "हए": 744,
      "##वाल": 745,
      "##तम": 746,
      "##टा": 747,
      "##शच": 748,
      "सस": 749,
      "##बर": 750,
      "##यत": 751,
      "लग": 752,
      "सकता": 753,
      "##चा": 754,
      "विक": 755,
      "##रम": 756,
      "##वश": 757,
      "बार": 758,
      "सि": 759,
      "रहा": 760,
      "##रथ": 761,
      "कम": 762,
      "अगर": 763,
      "बी": 764,
      "##ोड": 765,
      "##ाना": 766,
      "दी": 767,
      "बहत": 768,
      "मन": 769,
      "पहल": 770,
      "मर": 771,
      "##कति": 772,
      "मह": 773,
      "समय": 774,
      "सवा": 775,
      "##नत": 776,
      "##वी": 777,
      "दिन": 778,
      "##वन": 779,
      "##चार": 780,
      "##बा": 781,
      "##ोर": 782,
      "##गत": 783,
      "##िम": 784,
      "तरह": 785,
      "बद": 786,
      "सह": 787,
      "पास": 788,
      "कषतर": 789,
      "##नन": 790,
      "##मन": 791,
      "शर": 792,
      "ना": 793,
      "हमन": 794,
      "##दान": 795,
      "तमहार": 796,
      "##रप": 797,
      "वयक": 798,
      "बाद": 799,
      "##जञ": 800,
      "यदि": 801,
      "##लो": 802,
      "काम": 803,
      "उनहोन": 804,
      "जन": 805,
      "अत": 806,
      "हआ": 807,
      "मिल": 808,
      "सकत": 809,
      "##दार": 810,
      "##बध": 811,
      "गर": 812,
      "##षा": 813,
      "उनकी": 814,
      "हर": 815,
      "##लय": 816,
      "##दन": 817,
      "दन": 818,
      "##ोज": 819,
      "बढ": 820,
      "##िश": 821,
      "होगा": 822,
      "##धान": 823,
      "##ौर": 824,
      "सत": 825,
      "##यम": 826,
      "ता": 827,
      "19": 828,
      "ओर": 829,
      "##यन": 830,
      "##मत": 831,
      "होन": 832,
      "बह": 833,
      "##यी": 834,
      "बर": 835,
      "##ाइ": 836,
      "पी": 837,
      "मझ": 838,
      "परत": 839,
      "##तव": 840,
      "20": 841,
      "##तन": 842,
      "हमार": 843,
      "##षण": 844,
      "##तीय": 845,
      "परस": 846,
      "कल": 847,
      "ऐस": 848,
      "समा": 849,
      "अचछ": 850,
      "##ोक": 851,
      "##चच": 852,
      "नाम": 853,
      "गए": 854,
      "सन": 855,
      "गई": 856,
      "a¤": 857,
      "अभ": 858,
      "##िला": 859,
      "##िग": 860,
      "उसकी": 861,
      "मार": 862,
      "उद": 863,
      "अनय": 864,
      "वयकति": 865,
      "सबध": 866,
      "मद": 867,
      "परकार": 868,
      "बल": 869,
      "सरकार": 870,
      "##कषा": 871,
      "करो": 872,
      "##रीय": 873,
      "सभी": 874,
      "##सथ": 875,
      "निक": 876,
      "ईमान": 877,
      "चाहिए": 878,
      "परापत": 879,
      "##करण": 880,
      "ची": 881,
      "अब": 882,
      "समझ": 883,
      "इसक": 884,
      "एव": 885,
      "कयो": 886,
      "##धि": 887,
      "परव": 888,
      "होती": 889,
      "##गार": 890,
      "पड": 891,
      "कप": 892,
      "##भाव": 893,
      "वय": 894,
      "##धन": 895,
      "वरष": 896,
      "नी": 897,
      "रसल": 898,
      "##शा": 899,
      "चल": 900,
      "जर": 901,
      "##यता": 902,
      "ऐसा": 903,
      "##शी": 904,
      "##रण": 905,
      "कारण": 906,
      "हा": 907,
      "नया": 908,
      "किए": 909,
      "##िप": 910,
      "शरी": 911,
      "##परण": 912,
      "अस": 913,
      "लक": 914,
      "परण": 915,
      "मल": 916,
      "##िट": 917,
      "##वल": 918,
      "##िति": 919,
      "राजय": 920,
      "पहच": 921,
      "##माण": 922,
      "सतर": 923,
      "##कल": 924,
      "##ोनो": 925,
      "सद": 926,
      "अतर": 927,
      "उसन": 928,
      "चीज": 929,
      "जल": 930,
      "सप": 931,
      "हई": 932,
      "दोनो": 933,
      "दस": 934,
      "##बी": 935,
      "##रपति": 936,
      "##on": 937,
      "फर": 938,
      "##ाली": 939,
      "##धा": 940,
      "राषटरपति": 941,
      "यहा": 942,
      "##वार": 943,
      "##षय": 944,
      "##दो": 945,
      "विकास": 946,
      "दा": 947,
      "वया": 948,
      "लिया": 949,
      "लकिन": 950,
      "अनस": 951,
      "##जर": 952,
      "लगा": 953,
      "मौ": 954,
      "बि": 955,
      "##कट": 956,
      "फाइ": 957,
      "भारतीय": 958,
      "##षठ": 959,
      "##me": 960,
      "##यकत": 961,
      "बस": 962,
      "##यान": 963,
      "जाती": 964,
      "##a¥": 965,
      "##फल": 966,
      "##वास": 967,
      "आग": 968,
      "##यार": 969,
      "सख": 970,
      "##ोट": 971,
      "आस": 972,
      "बरा": 973,
      "अपना": 974,
      "मख": 975,
      "दिखा": 976,
      "अर": 977,
      "वही": 978,
      "##ियम": 979,
      "होत": 980,
      "शिक": 981,
      "जस": 982,
      "##करम": 983,
      "वास": 984,
      "##डो": 985,
      "##ाला": 986,
      "उसका": 987,
      "जीवन": 988,
      "कौ": 989,
      "ऐसी": 990,
      "##ीय": 991,
      "विशव": 992,
      "वाला": 993,
      "रही": 994,
      "परदान": 995,
      "##तो": 996,
      "जहा": 997,
      "फाइल": 998,
      "खा": 999,
      "गा": 1000,
      "चन": 1001,
      "भाग": 1002,
      "##पन": 1003,
      "परी": 1004,
      "उपयोग": 1005,
      "बीच": 1006,
      "##तरा": 1007,
      "सहा": 1008,
      "##ti": 1009,
      "##धी": 1010,
      "माल": 1011,
      "रब": 1012,
      "##सथा": 1013,
      "##मर": 1014,
      "##वत": 1015,
      "##वय": 1016,
      "उठ": 1017,
      "##काश": 1018,
      "विशष": 1019,
      "##धिक": 1020,
      "गण": 1021,
      "##िनन": 1022,
      "##कारी": 1023,
      "परम": 1024,
      "उनका": 1025,
      "अति": 1026,
      "मत": 1027,
      "परश": 1028,
      "निशच": 1029,
      "पदा": 1030,
      "दिल": 1031,
      "पार": 1032,
      "आर": 1033,
      "##णी": 1034,
      "##डर": 1035,
      "##चित": 1036,
      "आधार": 1037,
      "करम": 1038,
      "ताकि": 1039,
      "आय": 1040,
      "सार": 1041,
      "##िता": 1042,
      "##यालय": 1043,
      "परवर": 1044,
      "परयोग": 1045,
      "##वाद": 1046,
      "शा": 1047,
      "##वान": 1048,
      "##हित": 1049,
      "कवल": 1050,
      "सथा": 1051,
      "##बल": 1052,
      "सट": 1053,
      "##तना": 1054,
      "बडा": 1055,
      "##रत": 1056,
      "##ताब": 1057,
      "दसर": 1058,
      "उसी": 1059,
      "##कषण": 1060,
      "कयोकि": 1061,
      "##टन": 1062,
      "जिसम": 1063,
      "##a¥a¤": 1064,
      "विचार": 1065,
      "जाएगा": 1066,
      "##दय": 1067,
      "आवश": 1068,
      "साम": 1069,
      "महत": 1070,
      "हक": 1071,
      "##ोह": 1072,
      "सथान": 1073,
      "पन": 1074,
      "##चना": 1075,
      "पल": 1076,
      "##गल": 1077,
      "तब": 1078,
      "##यास": 1079,
      "##पी": 1080,
      "##शक": 1081,
      "##तरी": 1082,
      "किस": 1083,
      "##00": 1084,
      "मज": 1085,
      "इसम": 1086,
      "विन": 1087,
      "खल": 1088,
      "सबस": 1089,
      "हमारी": 1090,
      "##गम": 1091,
      "##an": 1092,
      "डा": 1093,
      "जात": 1094,
      "जम": 1095,
      "काफ": 1096,
      "बदल": 1097,
      "दता": 1098,
      "घर": 1099,
      "सदश": 1100,
      "##वाह": 1101,
      "##राम": 1102,
      "जाना": 1103,
      "उनस": 1104,
      "आवशयक": 1105,
      "लिख": 1106,
      "कन": 1107,
      "तरफ": 1108,
      "छोड": 1109,
      "सवि": 1110,
      "वयव": 1111,
      "उतपा": 1112,
      "माम": 1113,
      "अथ": 1114,
      "उनम": 1115,
      "वाली": 1116,
      "आज": 1117,
      "उसस": 1118,
      "##दिगार": 1119,
      "##कस": 1120,
      "##िज": 1121,
      "##बन": 1122,
      "परवरदिगार": 1123,
      "आख": 1124,
      "##ोत": 1125,
      "##जार": 1126,
      "सचना": 1127,
      "कभी": 1128,
      "##tion": 1129,
      "सामान": 1130,
      "##िकी": 1131,
      "##हार": 1132,
      "##लिए": 1133,
      "##ालन": 1134,
      "निरधार": 1135,
      "##जञान": 1136,
      "##ताओ": 1137,
      "अथवा": 1138,
      "पशच": 1139,
      "अधिकार": 1140,
      "वहा": 1141,
      "मारग": 1142,
      "सो": 1143,
      "##er": 1144,
      "मरी": 1145,
      "##पित": 1146,
      "##बद": 1147,
      "बडी": 1148,
      "##ame": 1149,
      "##करिया": 1150,
      "आन": 1151,
      "##लबध": 1152,
      "##ितर": 1153,
      "सकती": 1154,
      "जञ": 1155,
      "होगी": 1156,
      "शकति": 1157,
      "पतर": 1158,
      "भर": 1159,
      "कस": 1160,
      "उपलबध": 1161,
      "##ोजना": 1162,
      "हि": 1163,
      "विभ": 1164,
      "बड": 1165,
      "होग": 1166,
      "यही": 1167,
      "आद": 1168,
      "##ताव": 1169,
      "जिनह": 1170,
      "दत": 1171,
      "घट": 1172,
      "इसलिए": 1173,
      "##दयोग": 1174,
      "डाल": 1175,
      "बठ": 1176,
      "सथिति": 1177,
      "##गो": 1178,
      "योजना": 1179,
      "##वरण": 1180,
      "##तियो": 1181,
      "फल": 1182,
      "करती": 1183,
      "होना": 1184,
      "##ीर": 1185,
      "राषटरीय": 1186,
      "धारा": 1187,
      "##इन": 1188,
      "रो": 1189,
      "##भव": 1190,
      "बक": 1191,
      "बलकि": 1192,
      "कहत": 1193,
      "##चन": 1194,
      "आया": 1195,
      "##हन": 1196,
      "लिय": 1197,
      "अलग": 1198,
      "##कता": 1199,
      "201": 1200,
      "सहायता": 1201,
      "रखा": 1202,
      "उनको": 1203,
      "महा": 1204,
      "हाल": 1205,
      "##तक": 1206,
      "हिस": 1207,
      "जया": 1208,
      "धर": 1209,
      "याद": 1210,
      "##जाब": 1211,
      "##शत": 1212,
      "करक": 1213,
      "शाम": 1214,
      "शिकषा": 1215,
      "दौर": 1216,
      "इसस": 1217,
      "सपर": 1218,
      "##षटि": 1219,
      "पता": 1220,
      "अधिन": 1221,
      "लो": 1222,
      "परार": 1223,
      "जाय": 1224,
      "गिर": 1225,
      "करगा": 1226,
      "##वालो": 1227,
      "उचच": 1228,
      "सग": 1229,
      "वयाप": 1230,
      "इसी": 1231,
      "##यर": 1232,
      "अरथ": 1233,
      "योग": 1234,
      "##मल": 1235,
      "सची": 1236,
      "हाथ": 1237,
      "उल": 1238,
      "सना": 1239,
      "##ची": 1240,
      "pr": 1241,
      "गो": 1242,
      "##इट": 1243,
      "##es": 1244,
      "पढ": 1245,
      "किताब": 1246,
      "महतव": 1247,
      "अचछा": 1248,
      "उसम": 1249,
      "बचच": 1250,
      "झठ": 1251,
      "सामन": 1252,
      "सिर": 1253,
      "भाषा": 1254,
      "##तिक": 1255,
      "अधिनियम": 1256,
      "चक": 1257,
      "पट": 1258,
      "सदस": 1259,
      "हत": 1260,
      "परभाव": 1261,
      "सवय": 1262,
      "##कन": 1263,
      "वसत": 1264,
      "सवी": 1265,
      "मध": 1266,
      "##सट": 1267,
      "##दधि": 1268,
      "विद": 1269,
      "आई": 1270,
      "जग": 1271,
      "मो": 1272,
      "अनसार": 1273,
      "जिसक": 1274,
      "मौज": 1275,
      "##जना": 1276,
      "##गरह": 1277,
      "आपको": 1278,
      "मसल": 1279,
      "सखया": 1280,
      "विभिनन": 1281,
      "##माज": 1282,
      "कई": 1283,
      "##ॉल": 1284,
      "चाहत": 1285,
      "##िव": 1286,
      "कट": 1287,
      "परिवर": 1288,
      "तमहारी": 1289,
      "सकर": 1290,
      "मदद": 1291,
      "इसका": 1292,
      "##भाग": 1293,
      "वासतव": 1294,
      "##ीक": 1295,
      "विषय": 1296,
      "परकरिया": 1297,
      "##जित": 1298,
      "जमीन": 1299,
      "तल": 1300,
      "दनिया": 1301,
      "सरव": 1302,
      "भम": 1303,
      "अग": 1304,
      "आए": 1305,
      "कान": 1306,
      "अधीन": 1307,
      "कदर": 1308,
      "##सद": 1309,
      "##रिक": 1310,
      "##जय": 1311,
      "सल": 1312,
      "वित": 1313,
      "शामिल": 1314,
      "दौरान": 1315,
      "बाहर": 1316,
      "अक": 1317,
      "जोड": 1318,
      "उततर": 1319,
      "पीछ": 1320,
      "सपषट": 1321,
      "##षित": 1322,
      "##सन": 1323,
      "परमाण": 1324,
      "खड": 1325,
      "कद": 1326,
      "निशचय": 1327,
      "डर": 1328,
      "अनक": 1329,
      "##बत": 1330,
      "मगर": 1331,
      "##नि": 1332,
      "##डियो": 1333,
      "##लप": 1334,
      "##तान": 1335,
      "पत": 1336,
      "सघ": 1337,
      "चार": 1338,
      "##मिक": 1339,
      "अजाब": 1340,
      "इनकार": 1341,
      "बता": 1342,
      "रग": 1343,
      "परतयक": 1344,
      "##वाला": 1345,
      "200": 1346,
      "तयार": 1347,
      "लाभ": 1348,
      "##तरण": 1349,
      "जयादा": 1350,
      "##तः": 1351,
      "##ितव": 1352,
      "##ासन": 1353,
      "##al": 1354,
      "गय": 1355,
      "मि": 1356,
      "पि": 1357,
      "##शो": 1358,
      "##नो": 1359,
      "##याल": 1360,
      "अतः": 1361,
      "धरम": 1362,
      "##हरा": 1363,
      "पानी": 1364,
      "सिवा": 1365,
      "मरा": 1366,
      "अमर": 1367,
      "##हरी": 1368,
      "तमहारा": 1369,
      "सबधित": 1370,
      "##in": 1371,
      "तीन": 1372,
      "आपक": 1373,
      "लोक": 1374,
      "गल": 1375,
      "##णड": 1376,
      "ली": 1377,
      "चाहता": 1378,
      "##पति": 1379,
      "खर": 1380,
      "गयी": 1381,
      "जञान": 1382,
      "##षक": 1383,
      "काफी": 1384,
      "ठीक": 1385,
      "बच": 1386,
      "फोल": 1387,
      "##थान": 1388,
      "सभा": 1389,
      "कही": 1390,
      "##la": 1391,
      "नई": 1392,
      "परकाश": 1393,
      "ऊपर": 1394,
      "बशक": 1395,
      "मखय": 1396,
      "लन": 1397,
      "बनान": 1398,
      "लड": 1399,
      "##फर": 1400,
      "परिण": 1401,
      "अधय": 1402,
      "बो": 1403,
      "पछ": 1404,
      "##पट": 1405,
      "निरमाण": 1406,
      "शख": 1407,
      "आदि": 1408,
      "सौ": 1409,
      "##फा": 1410,
      "##मो": 1411,
      "मक": 1412,
      "बनाए": 1413,
      "जिसन": 1414,
      "अवसर": 1415,
      "परौ": 1416,
      "##िब": 1417,
      "करग": 1418,
      "##िको": 1419,
      "उठा": 1420,
      "##लक": 1421,
      "##or": 1422,
      "नीच": 1423,
      "नियम": 1424,
      "खोल": 1425,
      "बिल": 1426,
      "भज": 1427,
      "गरा": 1428,
      "तरी": 1429,
      "बनाया": 1430,
      "ससथा": 1431,
      "मी": 1432,
      "##शील": 1433,
      "काल": 1434,
      "सकष": 1435,
      "##it": 1436,
      "फोलडर": 1437,
      "दना": 1438,
      "##शि": 1439,
      "##ततर": 1440,
      "##विद": 1441,
      "उदयोग": 1442,
      "##हास": 1443,
      "पसत": 1444,
      "किनत": 1445,
      "सामानय": 1446,
      "छा": 1447,
      "धरती": 1448,
      "निकल": 1449,
      "पक": 1450,
      "परिणाम": 1451,
      "लाए": 1452,
      "##ॉन": 1453,
      "दखा": 1454,
      "लौ": 1455,
      "##वक": 1456,
      "##कषित": 1457,
      "बिना": 1458,
      "जारी": 1459,
      "##डिया": 1460,
      "##पि": 1461,
      "पथ": 1462,
      "निय": 1463,
      "कारयकरम": 1464,
      "करा": 1465,
      "कठ": 1466,
      "##पना": 1467,
      "छो": 1468,
      "निरधारित": 1469,
      "परयास": 1470,
      "सफल": 1471,
      "##वादी": 1472,
      "लख": 1473,
      "माध": 1474,
      "रहन": 1475,
      "##जो": 1476,
      "समह": 1477,
      "रखन": 1478,
      "हिन": 1479,
      "##एस": 1480,
      "जिसका": 1481,
      "तमस": 1482,
      "##ic": 1483,
      "##टि": 1484,
      "परतिशत": 1485,
      "##योजन": 1486,
      "परौदयोग": 1487,
      "गति": 1488,
      "##लाम": 1489,
      "वकत": 1490,
      "आम": 1491,
      "name": 1492,
      "##ोरट": 1493,
      "धयान": 1494,
      "होकर": 1495,
      "##बार": 1496,
      "आरथ": 1497,
      "सीमा": 1498,
      "महतवपरण": 1499,
      "##मित": 1500,
      "##मार": 1501,
      "निश": 1502,
      "##मक": 1503,
      "जबकि": 1504,
      "बढा": 1505,
      "गना": 1506,
      "##दाय": 1507,
      "फिल": 1508,
      "विशवास": 1509,
      "पाठ": 1510,
      "यकी": 1511,
      "सवर": 1512,
      "in": 1513,
      "परियो": 1514,
      "लकर": 1515,
      "##तमक": 1516,
      "आखिर": 1517,
      "समान": 1518,
      "जमा": 1519,
      "##सया": 1520,
      "पश": 1521,
      "परबध": 1522,
      "आरथिक": 1523,
      "रोग": 1524,
      "##मति": 1525,
      "##सतत": 1526,
      "परियोजना": 1527,
      "कौम": 1528,
      "समरथ": 1529,
      "आदश": 1530,
      "नीति": 1531,
      "जरर": 1532,
      "समाज": 1533,
      "दिए": 1534,
      "अभी": 1535,
      "##ee": 1536,
      "ससथान": 1537,
      "जानता": 1538,
      "आत": 1539,
      "44": 1540,
      "जाच": 1541,
      "परिवरतन": 1542,
      "चर": 1543,
      "जसा": 1544,
      "रखत": 1545,
      "इसकी": 1546,
      "ht": 1547,
      "##तिहास": 1548,
      "##पतर": 1549,
      "निस": 1550,
      "विडो": 1551,
      "जाएग": 1552,
      "कोर": 1553,
      "अचछी": 1554,
      "तमन": 1555,
      "सवीकार": 1556,
      "##सता": 1557,
      "भाव": 1558,
      "##मता": 1559,
      "मलय": 1560,
      "पिछ": 1561,
      "विदश": 1562,
      "जनता": 1563,
      "एस": 1564,
      "जगह": 1565,
      "पजी": 1566,
      "पकष": 1567,
      "दगा": 1568,
      "जाएगी": 1569,
      "चला": 1570,
      "मसा": 1571,
      "कला": 1572,
      "बदला": 1573,
      "परमख": 1574,
      "मस": 1575,
      "कोश": 1576,
      "चौ": 1577,
      "##ालय": 1578,
      "समसया": 1579,
      "कषतरो": 1580,
      "एन": 1581,
      "##दिषट": 1582,
      "करिया": 1583,
      "मामल": 1584,
      "##ab": 1585,
      "##णय": 1586,
      "टर": 1587,
      "##ियन": 1588,
      "ऋण": 1589,
      "खद": 1590,
      "जाओ": 1591,
      "##यद": 1592,
      "बोल": 1593,
      "अपर": 1594,
      "धन": 1595,
      "ती": 1596,
      "जानकारी": 1597,
      "वब": 1598,
      "उसको": 1599,
      "##दरश": 1600,
      "बराबर": 1601,
      "##ील": 1602,
      "##यल": 1603,
      "भवन": 1604,
      "##गन": 1605,
      "रोक": 1606,
      "धार": 1607,
      "##भग": 1608,
      "सका": 1609,
      "##टो": 1610,
      "बहतर": 1611,
      "##बाद": 1612,
      "परौदयोगिकी": 1613,
      "जह": 1614,
      "कवि": 1615,
      "##नीय": 1616,
      "आयत": 1617,
      "निष": 1618,
      "सधार": 1619,
      "##टक": 1620,
      "माधयम": 1621,
      "मिला": 1622,
      "जानत": 1623,
      "सिरफ": 1624,
      "##जञा": 1625,
      "चयन": 1626,
      "##डल": 1627,
      "##भर": 1628,
      "##शय": 1629,
      "अफ": 1630,
      "पो": 1631,
      "हकम": 1632,
      "उददश": 1633,
      "##िषट": 1634,
      "पहचा": 1635,
      "##en": 1636,
      "सिदध": 1637,
      "##a¤¾": 1638,
      "कहन": 1639,
      "##ठन": 1640,
      "अतय": 1641,
      "##पनन": 1642,
      "डी": 1643,
      "लाग": 1644,
      "##कषय": 1645,
      "परिस": 1646,
      "परभ": 1647,
      "साफ": 1648,
      "वालो": 1649,
      "अवधि": 1650,
      "##ar": 1651,
      "परती": 1652,
      "करान": 1653,
      "यातना": 1654,
      "वरत": 1655,
      "अतिरिक": 1656,
      "सदर": 1657,
      "साल": 1658,
      "आकाश": 1659,
      "दकष": 1660,
      "लत": 1661,
      "सही": 1662,
      "##ran": 1663,
      "पद": 1664,
      "मधय": 1665,
      "##पाल": 1666,
      "अतिरिकत": 1667,
      "कषि": 1668,
      "##माजिक": 1669,
      "परया": 1670,
      "18": 1671,
      "##पस": 1672,
      "पशचात": 1673,
      "उदा": 1674,
      "वयापार": 1675,
      "मतर": 1676,
      "सामाजिक": 1677,
      "जिसस": 1678,
      "वी": 1679,
      "10": 1680,
      "लगभग": 1681,
      "निकाल": 1682,
      "##हम": 1683,
      "सविधा": 1684,
      "कपनी": 1685,
      "शक": 1686,
      "##आई": 1687,
      "##यात": 1688,
      "##दारी": 1689,
      "वासत": 1690,
      "जीव": 1691,
      "रहत": 1692,
      "चका": 1693,
      "##चल": 1694,
      "##ot": 1695,
      "वार": 1696,
      "हः": 1697,
      "##िख": 1698,
      "परणाली": 1699,
      "##तरित": 1700,
      "राह": 1701,
      "सकषम": 1702,
      "निमन": 1703,
      "कौन": 1704,
      "अद": 1705,
      "तौर": 1706,
      "कत": 1707,
      "मानव": 1708,
      "वयवसथा": 1709,
      "विशवविद": 1710,
      "सथापित": 1711,
      "##सस": 1712,
      "पषठ": 1713,
      "##चर": 1714,
      "आवशयकता": 1715,
      "आकार": 1716,
      "##परा": 1717,
      "##लख": 1718,
      "खोज": 1719,
      "वरण": 1720,
      "सहयोग": 1721,
      "कश": 1722,
      "शबद": 1723,
      "तमको": 1724,
      "##धारा": 1725,
      "रात": 1726,
      "उतपादन": 1727,
      "इत": 1728,
      "लान": 1729,
      "सरकषा": 1730,
      "विजञान": 1731,
      "पहचान": 1732,
      "##यिक": 1733,
      "आसमान": 1734,
      "##हीन": 1735,
      "##धारण": 1736,
      "इज": 1737,
      "##दगी": 1738,
      "टी": 1739,
      "##हरण": 1740,
      "यदध": 1741,
      "कित": 1742,
      "तरटि": 1743,
      "सथित": 1744,
      "##at": 1745,
      "सपरक": 1746,
      "विधि": 1747,
      "##बनध": 1748,
      "गम": 1749,
      "बग": 1750,
      "सकल": 1751,
      "परो": 1752,
      "##दरशन": 1753,
      "आव": 1754,
      "##थम": 1755,
      "माग": 1756,
      "दग": 1757,
      "भला": 1758,
      "##विध": 1759,
      "निरदश": 1760,
      "##gm": 1761,
      "##फार": 1762,
      "##रोप": 1763,
      "जररत": 1764,
      "kgm": 1765,
      "आरभ": 1766,
      "राषटर": 1767,
      "डाक": 1768,
      "मसलमान": 1769,
      "##डन": 1770,
      "##वाई": 1771,
      "दसरी": 1772,
      "परारभ": 1773,
      "शरीर": 1774,
      "नयायालय": 1775,
      "##राही": 1776,
      "परनत": 1777,
      "दशो": 1778,
      "जिनहोन": 1779,
      "हमारा": 1780,
      "सवततर": 1781,
      "##गरी": 1782,
      "बाल": 1783,
      "##करता": 1784,
      "महिला": 1785,
      "महान": 1786,
      "मश": 1787,
      "##कतिक": 1788,
      "अभि": 1789,
      "वाय": 1790,
      "विशिषट": 1791,
      "##राषट": 1792,
      "भजा": 1793,
      "##सित": 1794,
      "वरषो": 1795,
      "##le": 1796,
      "दिखाए": 1797,
      "मास": 1798,
      "दखत": 1799,
      "कषमता": 1800,
      "फा": 1801,
      "राशि": 1802,
      "परष": 1803,
      "शरणी": 1804,
      "##सथित": 1805,
      "वरतमान": 1806,
      "##सदह": 1807,
      "अमरिका": 1808,
      "नाज": 1809,
      "दषटि": 1810,
      "उददशय": 1811,
      "##शिया": 1812,
      "##rans": 1813,
      "जिनक": 1814,
      "घो": 1815,
      "सतय": 1816,
      "बट": 1817,
      "अधिकारी": 1818,
      "खास": 1819,
      "सदसय": 1820,
      "नए": 1821,
      "परशन": 1822,
      "12": 1823,
      "हमशा": 1824,
      "इतिहास": 1825,
      "हल": 1826,
      "घटना": 1827,
      "trans": 1828,
      "घा": 1829,
      "जवा": 1830,
      "बचचो": 1831,
      "विर": 1832,
      "बख": 1833,
      "##ption": 1834,
      "निससदह": 1835,
      "छोट": 1836,
      "रोज": 1837,
      "##िकर": 1838,
      "विभाग": 1839,
      "अश": 1840,
      "खरच": 1841,
      "##िसट": 1842,
      "अतरगत": 1843,
      "##सम": 1844,
      "साहित": 1845,
      "##दारो": 1846,
      "transla": 1847,
      "##सो": 1848,
      "बाजार": 1849,
      "हाला": 1850,
      "परिवार": 1851,
      "झठला": 1852,
      "एम": 1853,
      "मौजद": 1854,
      "उतपाद": 1855,
      "हालाकि": 1856,
      "नौ": 1857,
      "शी": 1858,
      "यातरा": 1859,
      "दकषि": 1860,
      "##कषर": 1861,
      "##००": 1862,
      "वरग": 1863,
      "##काल": 1864,
      "नय": 1865,
      "निशचित": 1866,
      "निवश": 1867,
      "##सथय": 1868,
      "शीर": 1869,
      "अनसधान": 1870,
      "##कम": 1871,
      "##तिया": 1872,
      "##ॉर": 1873,
      "उदाहरण": 1874,
      "निरणय": 1875,
      "##बदध": 1876,
      "##ानो": 1877,
      "लगता": 1878,
      "गनाह": 1879,
      "गाधी": 1880,
      "बचा": 1881,
      "भाई": 1882,
      "##शवर": 1883,
      "डि": 1884,
      "##िशच": 1885,
      "एकस": 1886,
      "##धर": 1887,
      "##om": 1888,
      "पाक": 1889,
      "जहनन": 1890,
      "ततव": 1891,
      "भड": 1892,
      "##िरो": 1893,
      "भग": 1894,
      "##वो": 1895,
      "option": 1896,
      "सभ": 1897,
      "समापत": 1898,
      "ऑफ": 1899,
      "रचना": 1900,
      "अतिम": 1901,
      "किय": 1902,
      "फस": 1903,
      "पकार": 1904,
      "सकरिय": 1905,
      "सवासथय": 1906,
      "जि": 1907,
      "##णा": 1908,
      "##गति": 1909,
      "छवि": 1910,
      "##रोध": 1911,
      "रहता": 1912,
      "##पाद": 1913,
      "परसतत": 1914,
      "नाजिल": 1915,
      "ससा": 1916,
      "सथानी": 1917,
      "तय": 1918,
      "15": 1919,
      "आकर": 1920,
      "हार": 1921,
      "जनम": 1922,
      "बाप": 1923,
      "##st": 1924,
      "भमि": 1925,
      "जिसकी": 1926,
      "मनषय": 1927,
      "##ारथ": 1928,
      "##राषटरीय": 1929,
      "##नाथ": 1930,
      "वस": 1931,
      "फरमा": 1932,
      "नव": 1933,
      "चि": 1934,
      "चिक": 1935,
      "आश": 1936,
      "भगत": 1937,
      "नर": 1938,
      "साझ": 1939,
      "पालन": 1940,
      "परशिक": 1941,
      "पसतक": 1942,
      "अनभव": 1943,
      "जाल": 1944,
      "##मब": 1945,
      "राजनी": 1946,
      "खब": 1947,
      "विशवविदयालय": 1948,
      "कोरइ": 1949,
      "जड": 1950,
      "बाहरी": 1951,
      "a¤a¤": 1952,
      "सथानीय": 1953,
      "नियतरण": 1954,
      "निरधारण": 1955,
      "दसताव": 1956,
      "परदश": 1957,
      "अनमति": 1958,
      "परसताव": 1959,
      "बला": 1960,
      "सास": 1961,
      "उपधारा": 1962,
      "पाया": 1963,
      "विकलप": 1964,
      "उपा": 1965,
      "ततर": 1966,
      "##फत": 1967,
      "परधान": 1968,
      "कयामत": 1969,
      "##पतति": 1970,
      "पस": 1971,
      "##पक": 1972,
      "आधारित": 1973,
      "उम": 1974,
      "सरवर": 1975,
      "कमी": 1976,
      "##तत": 1977,
      "परवश": 1978,
      "रज": 1979,
      "##वाज": 1980,
      "दिख": 1981,
      "सबधी": 1982,
      "##पो": 1983,
      "11": 1984,
      "निशान": 1985,
      "##वज": 1986,
      "विसत": 1987,
      "लाख": 1988,
      "कपया": 1989,
      "सज": 1990,
      "भिनन": 1991,
      "सहज": 1992,
      "सयकत": 1993,
      "नक": 1994,
      "जिम": 1995,
      "डिस": 1996,
      "गरी": 1997,
      "##राजय": 1998,
      "##वरी": 1999,
      "मतय": 2000,
      "पाच": 2001,
      "मना": 2002,
      "पनः": 2003,
      "विकसित": 2004,
      "ससाधन": 2005,
      "खात": 2006,
      "सविधान": 2007,
      "जहननम": 2008,
      "कषमा": 2009,
      "महर": 2010,
      "दिलली": 2011,
      "वश": 2012,
      "माना": 2013,
      "optional": 2014,
      "सहायक": 2015,
      "रिप": 2016,
      "आदमी": 2017,
      "##णश": 2018,
      "##करी": 2019,
      "अला": 2020,
      "पगम": 2021,
      "रि": 2022,
      "##टाए": 2023,
      "रखता": 2024,
      "पहली": 2025,
      "विसतार": 2026,
      "शास": 2027,
      "पनर": 2028,
      "##भत": 2029,
      "खो": 2030,
      "pro": 2031,
      "लकषय": 2032,
      "हिससा": 2033,
      "बिलकल": 2034,
      "थो": 2035,
      "##िशत": 2036,
      "उपकरण": 2037,
      "दिशा": 2038,
      "उनपर": 2039,
      "चाल": 2040,
      "##वस": 2041,
      "शखस": 2042,
      "##लन": 2043,
      "लिखा": 2044,
      "सारव": 2045,
      "विततीय": 2046,
      "परथम": 2047,
      "दिनो": 2048,
      "खरी": 2049,
      "अधययन": 2050,
      "सतता": 2051,
      "विदशी": 2052,
      "वदधि": 2053,
      "##चछा": 2054,
      "पराधिक": 2055,
      "मिट": 2056,
      "कब": 2057,
      "##छष": 2058,
      "भमिका": 2059,
      "ऊणश": 2060,
      "ऊणशछष": 2061,
      "उतपनन": 2062,
      "##ोरड": 2063,
      "रहो": 2064,
      "सजा": 2065,
      "##विक": 2066,
      "किन": 2067,
      "##साइट": 2068,
      "पौ": 2069,
      "##tp": 2070,
      "##तरो": 2071,
      "बाग": 2072,
      "हिनद": 2073,
      "##ly": 2074,
      "खबर": 2075,
      "सरकारी": 2076,
      "शब": 2077,
      "यकीनन": 2078,
      "##इल": 2079,
      "अपरा": 2080,
      "योगय": 2081,
      "हिद": 2082,
      "खाता": 2083,
      "विरदध": 2084,
      "##गाह": 2085,
      "##तमाल": 2086,
      "मालम": 2087,
      "निरदिषट": 2088,
      "##a¤¾a¤": 2089,
      "##िशचित": 2090,
      "अम": 2091,
      "पडा": 2092,
      "##घर": 2093,
      "सिह": 2094,
      "परगति": 2095,
      "इसतमाल": 2096,
      "इतना": 2097,
      "कागर": 2098,
      "खिला": 2099,
      "##एम": 2100,
      "##तरिक": 2101,
      "मातरा": 2102,
      "सथापना": 2103,
      "अतयनत": 2104,
      "##जह": 2105,
      "##name": 2106,
      "मोह": 2107,
      "199": 2108,
      "विभा": 2109,
      "##िड": 2110,
      "अह": 2111,
      "सोच": 2112,
      "##वाली": 2113,
      "##पण": 2114,
      "खान": 2115,
      "##ity": 2116,
      "वासतविक": 2117,
      "चिकित": 2118,
      "शो": 2119,
      "सफलता": 2120,
      "वापस": 2121,
      "बातो": 2122,
      "पिछल": 2123,
      "##िखित": 2124,
      "भीतर": 2125,
      "नागर": 2126,
      "do": 2127,
      "पान": 2128,
      "##जल": 2129,
      "भल": 2130,
      "तस": 2131,
      "रस": 2132,
      "अनप": 2133,
      "##धित": 2134,
      "वयकत": 2135,
      "समरथन": 2136,
      "सभाव": 2137,
      "विवरण": 2138,
      "दखन": 2139,
      "राम": 2140,
      "##सफ": 2141,
      "साहितय": 2142,
      "शासन": 2143,
      "नट": 2144,
      "बाज": 2145,
      "भावना": 2146,
      "आक": 2147,
      "समबनध": 2148,
      "अतरराषटरीय": 2149,
      "##हक": 2150,
      "सामगरी": 2151,
      "ऊर": 2152,
      "एल": 2153,
      "दकषिण": 2154,
      "कहो": 2155,
      "परभा": 2156,
      "##मिन": 2157,
      "छट": 2158,
      "##परी": 2159,
      "रहग": 2160,
      "भगतान": 2161,
      "कोशिश": 2162,
      "चना": 2163,
      "निकट": 2164,
      "वबसाइट": 2165,
      "##दद": 2166,
      "##ाश": 2167,
      "##आर": 2168,
      "##िसतान": 2169,
      "कनदर": 2170,
      "कमा": 2171,
      "##योजित": 2172,
      "ईसा": 2173,
      "लखा": 2174,
      "##वाही": 2175,
      "राजा": 2176,
      "आतम": 2177,
      "तकनी": 2178,
      "जिमम": 2179,
      "##टना": 2180,
      "परकट": 2181,
      "##फट": 2182,
      "परकति": 2183,
      "दशय": 2184,
      "##धया": 2185,
      "समार": 2186,
      "डरा": 2187,
      "##वरक": 2188,
      "##थित": 2189,
      "समिति": 2190,
      "कागरस": 2191,
      "##ठा": 2192,
      "अनि": 2193,
      "बयान": 2194,
      "मतरी": 2195,
      "##परवक": 2196,
      "##यकष": 2197,
      "जसी": 2198,
      "##दरी": 2199,
      "बज": 2200,
      "यन": 2201,
      "##वसथा": 2202,
      "अलावा": 2203,
      "नयाय": 2204,
      "##बो": 2205,
      "##यटर": 2206,
      "जररी": 2207,
      "परबधन": 2208,
      "भवि": 2209,
      "नदी": 2210,
      "##ीकरण": 2211,
      "##भार": 2212,
      "लाल": 2213,
      "करी": 2214,
      "##रजी": 2215,
      "तन": 2216,
      "सशो": 2217,
      "इसलाम": 2218,
      "##एल": 2219,
      "मॉ": 2220,
      "हसता": 2221,
      "अपकषा": 2222,
      "वजह": 2223,
      "मदरा": 2224,
      "रखो": 2225,
      "जिनम": 2226,
      "गज": 2227,
      "not": 2228,
      "बरिट": 2229,
      "##नय": 2230,
      "रिपोरट": 2231,
      "ससद": 2232,
      "पाए": 2233,
      "हित": 2234,
      "मदिर": 2235,
      "कदम": 2236,
      "खश": 2237,
      "सहित": 2238,
      "##लिखित": 2239,
      "कानन": 2240,
      "तहत": 2241,
      "चाहिय": 2242,
      "translation": 2243,
      "आयतो": 2244,
      "पहा": 2245,
      "सगठन": 2246,
      "परशिकषण": 2247,
      "नहर": 2248,
      "हास": 2249,
      "पिता": 2250,
      "फसल": 2251,
      "##ानि": 2252,
      "हद": 2253,
      "नजर": 2254,
      "उपबध": 2255,
      "जित": 2256,
      "मोड": 2257,
      "उललख": 2258,
      "##जनिक": 2259,
      "हट": 2260,
      "इब": 2261,
      "परयोजन": 2262,
      "http": 2263,
      "##लम": 2264,
      "शहर": 2265,
      "##उट": 2266,
      "शायद": 2267,
      "##सक": 2268,
      "निरयात": 2269,
      "आधन": 2270,
      "##eed": 2271,
      "फसला": 2272,
      "दसतावज": 2273,
      "##खया": 2274,
      "मामलो": 2275,
      "सनत": 2276,
      "करोड": 2277,
      "सदसयो": 2278,
      "उचित": 2279,
      "दती": 2280,
      "अनतर": 2281,
      "##वासी": 2282,
      "सनिशचित": 2283,
      "सममान": 2284,
      "सरचना": 2285,
      "तौ": 2286,
      "राजयो": 2287,
      "जवाब": 2288,
      "सारवजनिक": 2289,
      "##पल": 2290,
      "##चारी": 2291,
      "यरोप": 2292,
      "##खिल": 2293,
      "असम": 2294,
      "दल": 2295,
      "वो": 2296,
      "मितर": 2297,
      "गी": 2298,
      "भविषय": 2299,
      "इनम": 2300,
      "need": 2301,
      "##घा": 2302,
      "##ौती": 2303,
      "आयात": 2304,
      "##कात": 2305,
      "##यतन": 2306,
      "चयनित": 2307,
      "आतक": 2308,
      "औदयोग": 2309,
      "##काम": 2310,
      "अगरजी": 2311,
      "री": 2312,
      "दिखाई": 2313,
      "##नाक": 2314,
      "##ियान": 2315,
      "पज": 2316,
      "टक": 2317,
      "##he": 2318,
      "##डाई": 2319,
      "वयवहार": 2320,
      "##मीण": 2321,
      "मिस": 2322,
      "डिसक": 2323,
      "##बान": 2324,
      "##ol": 2325,
      "रकत": 2326,
      "##डक": 2327,
      "असफल": 2328,
      "परशासन": 2329,
      "##il": 2330,
      "##se": 2331,
      "अरथा": 2332,
      "गरामीण": 2333,
      "मसलमानो": 2334,
      "##िद": 2335,
      "##रित": 2336,
      "ढग": 2337,
      "##ोगराम": 2338,
      "मकत": 2339,
      "ऊरजा": 2340,
      "अकष": 2341,
      "नमाज": 2342,
      "##रय": 2343,
      "असत": 2344,
      "तारी": 2345,
      "##चाई": 2346,
      "##लत": 2347,
      "निजी": 2348,
      "##ोस": 2349,
      "तरीक": 2350,
      "##ारो": 2351,
      "१९": 2352,
      "शभ": 2353,
      "##थी": 2354,
      "चढ": 2355,
      "रिक": 2356,
      "आशा": 2357,
      "##करमण": 2358,
      "दषट": 2359,
      "##राह": 2360,
      "आपस": 2361,
      "सरकषित": 2362,
      "##शल": 2363,
      "##ou": 2364,
      "गरज": 2365,
      "ठहरा": 2366,
      "##खत": 2367,
      "रखना": 2368,
      "##लाइन": 2369,
      "परोत": 2370,
      "कॉ": 2371,
      "एह": 2372,
      "##bab": 2373,
      "अधयकष": 2374,
      "##nt": 2375,
      "परान": 2376,
      "अवशय": 2377,
      "विनिर": 2378,
      "अवसथा": 2379,
      "##city": 2380,
      "सवततरता": 2381,
      "##सव": 2382,
      "अनपर": 2383,
      "वयकतियो": 2384,
      "does": 2385,
      "हिसा": 2386,
      "पराण": 2387,
      "दशा": 2388,
      "probab": 2389,
      "विधान": 2390,
      "probably": 2391,
      "कफ": 2392,
      "बजा": 2393,
      "परतिनि": 2394,
      "##वित": 2395,
      "##ॉक": 2396,
      "विध": 2397,
      "##षद": 2398,
      "ढा": 2399,
      "एशिया": 2400,
      "वयापक": 2401,
      "डाला": 2402,
      "दवी": 2403,
      "औदयोगिक": 2404,
      "सदरभ": 2405,
      "##थमिक": 2406,
      "##िकल": 2407,
      "भो": 2408,
      "दसरा": 2409,
      "कबल": 2410,
      "लौट": 2411,
      "समम": 2412,
      "मका": 2413,
      "##इयो": 2414,
      "सरोत": 2415,
      "नत": 2416,
      "पराथमिक": 2417,
      "दौ": 2418,
      "सभव": 2419,
      "##चछद": 2420,
      "भट": 2421,
      "##वरती": 2422,
      "बनदो": 2423,
      "ति": 2424,
      "##दारथ": 2425,
      "परोतसा": 2426,
      "मखरजी": 2427,
      "अरथात": 2428,
      "##वधान": 2429,
      "आवदन": 2430,
      "ढढ": 2431,
      "उनही": 2432,
      "कजी": 2433,
      "आधनिक": 2434,
      "लगी": 2435,
      "शतान": 2436,
      "यदय": 2437,
      "##खी": 2438,
      "पकड": 2439,
      "परद": 2440,
      "यदयपि": 2441,
      "चकी": 2442,
      "जोर": 2443,
      "जालिम": 2444,
      "परसकार": 2445,
      "रकषा": 2446,
      "htm": 2447,
      "चितर": 2448,
      "विष": 2449,
      "आखिरत": 2450,
      "आतमा": 2451,
      "##रीका": 2452,
      "196": 2453,
      "##वतता": 2454,
      "बनी": 2455,
      "भौ": 2456,
      "##दव": 2457,
      "गिरोह": 2458,
      "राय": 2459,
      "खरा": 2460,
      "वजञान": 2461,
      "जिला": 2462,
      "कहना": 2463,
      "##ोलन": 2464,
      "गजर": 2465,
      "पदारथ": 2466,
      "डटा": 2467,
      "परयापत": 2468,
      "##यकति": 2469,
      "छोडकर": 2470,
      "भारी": 2471,
      "##मह": 2472,
      "परमाणपतर": 2473,
      "राजनीतिक": 2474,
      "सखत": 2475,
      "हजार": 2476,
      "25": 2477,
      "##लब": 2478,
      "##फी": 2479,
      "##उन": 2480,
      "बनद": 2481,
      "सीध": 2482,
      "अगल": 2483,
      "उदयम": 2484,
      "समझा": 2485,
      "गलत": 2486,
      "चित": 2487,
      "अधया": 2488,
      "अता": 2489,
      "साह": 2490,
      "शबदो": 2491,
      "##कशन": 2492,
      "मला": 2493,
      "परभावित": 2494,
      "##et": 2495,
      "धीर": 2496,
      "अनत": 2497,
      "तमम": 2498,
      "छोटी": 2499,
      "अतया": 2500,
      "मिलन": 2501,
      "तरक": 2502,
      "बरी": 2503,
      "सचच": 2504,
      "194": 2505,
      "##यालयो": 2506,
      "##राहीम": 2507,
      "यवा": 2508,
      "##तार": 2509,
      "आपकी": 2510,
      "आता": 2511,
      "रल": 2512,
      "लघ": 2513,
      "##थि": 2514,
      "पशचिम": 2515,
      "##टरन": 2516,
      "दखो": 2517,
      "##मट": 2518,
      "इबराहीम": 2519,
      "वन": 2520,
      "मोमिन": 2521,
      "परकाशित": 2522,
      "दया": 2523,
      "सिदधात": 2524,
      "##वयर": 2525,
      "हिनदी": 2526,
      "जलदी": 2527,
      "##पादन": 2528,
      "कहग": 2529,
      "##ियर": 2530,
      "पचा": 2531,
      "##िनी": 2532,
      "##दायत": 2533,
      "हिदायत": 2534,
      "इका": 2535,
      "कमप": 2536,
      "हासिल": 2537,
      "शरम": 2538,
      "##सिक": 2539,
      "शाति": 2540,
      "ससकति": 2541,
      "##रष": 2542,
      "तमपर": 2543,
      "14": 2544,
      "##लीफ": 2545,
      "शकर": 2546,
      "मौजदा": 2547,
      "##भीर": 2548,
      "##िना": 2549,
      "हालत": 2550,
      "करनवालो": 2551,
      "##ातमक": 2552,
      "ईशवर": 2553,
      "बया": 2554,
      "##झा": 2555,
      "आवाज": 2556,
      "परीकषा": 2557,
      "मजबत": 2558,
      "सलाह": 2559,
      "##कषक": 2560,
      "इचछा": 2561,
      "##is": 2562,
      "##मबर": 2563,
      "पडता": 2564,
      "##चीन": 2565,
      "लागत": 2566,
      "उपसथित": 2567,
      "##राज": 2568,
      "जट": 2569,
      "पदध": 2570,
      "अनिवार": 2571,
      "##योकता": 2572,
      "पकति": 2573,
      "मड": 2574,
      "##सवर": 2575,
      "परसनन": 2576,
      "मतरालय": 2577,
      "भय": 2578,
      "रखी": 2579,
      "कदरीय": 2580,
      "बगाल": 2581,
      "##her": 2582,
      "वरणन": 2583,
      "शीरष": 2584,
      "भाति": 2585,
      "16": 2586,
      "195": 2587,
      "##मद": 2588,
      "##िरा": 2589,
      "##पकष": 2590,
      "अपील": 2591,
      "##कीय": 2592,
      "दिलो": 2593,
      "नगर": 2594,
      "लना": 2595,
      "फिरऔ": 2596,
      "ससार": 2597,
      "कसम": 2598,
      "सगरह": 2599,
      "समझौ": 2600,
      "सवाओ": 2601,
      "##सार": 2602,
      "समझत": 2603,
      "सगी": 2604,
      "नटवरक": 2605,
      "फिरऔन": 2606,
      "परवी": 2607,
      "योगदान": 2608,
      "##सथिति": 2609,
      "शीघर": 2610,
      "परणब": 2611,
      "मकर": 2612,
      "परय": 2613,
      "##टल": 2614,
      "##परति": 2615,
      "##षणा": 2616,
      "कपयटर": 2617,
      "मशीन": 2618,
      "बोरड": 2619,
      "परदरश": 2620,
      "गरह": 2621,
      "13": 2622,
      "शरणीः": 2623,
      "चीजो": 2624,
      "##सती": 2625,
      "##गिज": 2626,
      "वाकि": 2627,
      "सारी": 2628,
      "परोगराम": 2629,
      "किसम": 2630,
      "निदश": 2631,
      "##चक": 2632,
      "टन": 2633,
      "फिलम": 2634,
      "हवा": 2635,
      "तज": 2636,
      "बठक": 2637,
      "बताया": 2638,
      "हसताकषर": 2639,
      "शिका": 2640,
      "मसलिम": 2641,
      "##इड": 2642,
      "##ालित": 2643,
      "गणवतता": 2644,
      "भोजन": 2645,
      "तत": 2646,
      "विफल": 2647,
      "झग": 2648,
      "बाध": 2649,
      "गाव": 2650,
      "आपका": 2651,
      "यथा": 2652,
      "तलना": 2653,
      "##रात": 2654,
      "कफर": 2655,
      "बधा": 2656,
      "मिली": 2657,
      "अभिल": 2658,
      "तारीख": 2659,
      "लडक": 2660,
      "पलट": 2661,
      "चरचा": 2662,
      "रकम": 2663,
      "विशाल": 2664,
      "##जत": 2665,
      "कषण": 2666,
      "सशोधन": 2667,
      "re": 2668,
      "मानत": 2669,
      "आती": 2670,
      "रासत": 2671,
      "##मीद": 2672,
      "अदर": 2673,
      "मिलता": 2674,
      "अभिव": 2675,
      "कनद": 2676,
      "नसी": 2677,
      "दाखिल": 2678,
      "##रद": 2679,
      "आकाशो": 2680,
      "रहगा": 2681,
      "सपाद": 2682,
      "वितत": 2683,
      "##वरष": 2684,
      "जाद": 2685,
      "##नाम": 2686,
      "खलती": 2687,
      "अनपरयोग": 2688,
      "##मि": 2689,
      "रहती": 2690,
      "nic": 2691,
      "वाकिफ": 2692,
      "दबा": 2693,
      "कविता": 2694,
      "निषकर": 2695,
      "विदयार": 2696,
      "अधिकाश": 2697,
      "करनी": 2698,
      "तझ": 2699,
      "अड": 2700,
      "बदधि": 2701,
      "##चारियो": 2702,
      "दरज": 2703,
      "इला": 2704,
      "उपभ": 2705,
      "गह": 2706,
      "##वट": 2707,
      "आयोग": 2708,
      "दीन": 2709,
      "##पता": 2710,
      "कीमत": 2711,
      "##साय": 2712,
      "अपराध": 2713,
      "बरिटिश": 2714,
      "परवि": 2715,
      "साधन": 2716,
      "इनह": 2717,
      "##जञात": 2718,
      "##खो": 2719,
      "##लाई": 2720,
      "##di": 2721,
      "तथ": 2722,
      "##हज": 2723,
      "पराकतिक": 2724,
      "बनाना": 2725,
      "निरवा": 2726,
      "निरभर": 2727,
      "रहना": 2728,
      "कफफार": 2729,
      "जाति": 2730,
      "परदरशन": 2731,
      "सकी": 2732,
      "निमनलिखित": 2733,
      "दाय": 2734,
      "##दरशी": 2735,
      "धारमिक": 2736,
      "फार": 2737,
      "##नाए": 2738,
      "##सवरप": 2739,
      "##धिकार": 2740,
      "197": 2741,
      "भडार": 2742,
      "निशानिया": 2743,
      "कारयालय": 2744,
      "the": 2745,
      "अतयत": 2746,
      "सदन": 2747,
      "सात": 2748,
      "##कारो": 2749,
      "शष": 2750,
      "आपन": 2751,
      "विवाह": 2752,
      "सदव": 2753,
      "समदाय": 2754,
      "##षठा": 2755,
      "चिकितसा": 2756,
      "विरोध": 2757,
      "परभावी": 2758,
      "खन": 2759,
      "चलत": 2760,
      "पलग": 2761,
      "छोटा": 2762,
      "लोड": 2763,
      "भली": 2764,
      "कारयो": 2765,
      "परिषद": 2766,
      "पलिस": 2767,
      "कनदरीय": 2768,
      "जाह": 2769,
      "##किग": 2770,
      "##ॉप": 2771,
      "दरद": 2772,
      "हरगिज": 2773,
      "अनचछद": 2774,
      "हदय": 2775,
      "समदर": 2776,
      "वीडियो": 2777,
      "##वरो": 2778,
      "महीन": 2779,
      "दिवस": 2780,
      "निधि": 2781,
      "सीमित": 2782,
      "शिकायत": 2783,
      "##ment": 2784,
      "परवत": 2785,
      "करीब": 2786,
      "एड": 2787,
      "इजरा": 2788,
      "शाखा": 2789,
      "##एफ": 2790,
      "##िदध": 2791,
      "बत": 2792,
      "एज": 2793,
      "समारोह": 2794,
      "जलम": 2795,
      "मजा": 2796,
      "##ॉग": 2797,
      "रोजी": 2798,
      "मालिक": 2799,
      "सगीत": 2800,
      "महारा": 2801,
      "साधारण": 2802,
      "फला": 2803,
      "सघरष": 2804,
      "सथल": 2805,
      "महततव": 2806,
      "गौर": 2807,
      "इनक": 2808,
      "सित": 2809,
      "198": 2810,
      "पटटी": 2811,
      "तजी": 2812,
      "लता": 2813,
      "विविध": 2814,
      "वयकतिगत": 2815,
      "बधाई": 2816,
      "कॉल": 2817,
      "हड": 2818,
      "जिसको": 2819,
      "पगमबर": 2820,
      "करार": 2821,
      "कठिन": 2822,
      "ii": 2823,
      "बयाज": 2824,
      "सतया": 2825,
      "सकलप": 2826,
      "समाधान": 2827,
      "पजा": 2828,
      "विचारो": 2829,
      "भागी": 2830,
      "खयाल": 2831,
      "सवरप": 2832,
      "गवाह": 2833,
      "ताल": 2834,
      "नता": 2835,
      "000": 2836,
      "सपतति": 2837,
      "काट": 2838,
      "पराय": 2839,
      "पराचीन": 2840,
      "मिटटी": 2841,
      "नसीहत": 2842,
      "मच": 2843,
      "जिल": 2844,
      "##सय": 2845,
      "चरण": 2846,
      "निरधारिती": 2847,
      "सरक": 2848,
      "ससकत": 2849,
      "हटा": 2850,
      "##खड": 2851,
      "हिम": 2852,
      "वाक": 2853,
      "##जली": 2854,
      "##बई": 2855,
      "##िकोण": 2856,
      "30": 2857,
      "अना": 2858,
      "नोट": 2859,
      "इनस": 2860,
      "##सतान": 2861,
      "सममिल": 2862,
      "दोष": 2863,
      "उममीद": 2864,
      "##भति": 2865,
      "सगठ": 2866,
      "बौ": 2867,
      "सममल": 2868,
      "मग": 2869,
      "शताब": 2870,
      "चिहन": 2871,
      "अनिवारय": 2872,
      "आदोलन": 2873,
      "##el": 2874,
      "सबको": 2875,
      "##थियो": 2876,
      "उपयकत": 2877,
      "सिक": 2878,
      "समन": 2879,
      "लगाया": 2880,
      "आनद": 2881,
      "ससथानो": 2882,
      "##िमी": 2883,
      "परतयकष": 2884,
      "सरल": 2885,
      "शली": 2886,
      "निका": 2887,
      "नह": 2888,
      "उपन": 2889,
      "रपय": 2890,
      "##ियत": 2891,
      "मानो": 2892,
      "##जनक": 2893,
      "आजा": 2894,
      "बनाकर": 2895,
      "खशी": 2896,
      "निरमित": 2897,
      "फी": 2898,
      "##िकट": 2899,
      "आयोजित": 2900,
      "पच": 2901,
      "पौध": 2902,
      "दिय": 2903,
      "अदा": 2904,
      "शलक": 2905,
      "खरीद": 2906,
      "लब": 2907,
      "अरथवय": 2908,
      "तला": 2909,
      "अवध": 2910,
      "खाली": 2911,
      "खडा": 2912,
      "##मय": 2913,
      "एच": 2914,
      "असा": 2915,
      "यग": 2916,
      "गभीर": 2917,
      "##ठी": 2918,
      "साझी": 2919,
      "वजञानिक": 2920,
      "वसतओ": 2921,
      "टाइ": 2922,
      "आउट": 2923,
      "सथायी": 2924,
      "100": 2925,
      "##षिक": 2926,
      "सरकषण": 2927,
      "उततम": 2928,
      "लखक": 2929,
      "मकाबल": 2930,
      "घरो": 2931,
      "##यशन": 2932,
      "कठोर": 2933,
      "17": 2934,
      "वध": 2935,
      "अधिकतर": 2936,
      "परदरशित": 2937,
      "पराम": 2938,
      "##वजद": 2939,
      "फट": 2940,
      "##चि": 2941,
      "इतनी": 2942,
      "जिनका": 2943,
      "पहला": 2944,
      "काफिरो": 2945,
      "कषति": 2946,
      "लिखन": 2947,
      "a¤¸": 2948,
      "बावजद": 2949,
      "परपरा": 2950,
      "बीमा": 2951,
      "सश": 2952,
      "घोषणा": 2953,
      "सिसट": 2954,
      "##थन": 2955,
      "अकसर": 2956,
      "##ur": 2957,
      "गतिविध": 2958,
      "रोजगार": 2959,
      "लाइ": 2960,
      "समाचार": 2961,
      "शि": 2962,
      "मिटाए": 2963,
      "शान": 2964,
      "छिप": 2965,
      "##ec": 2966,
      "बढान": 2967,
      "करनवाला": 2968,
      "नियत": 2969,
      "of": 2970,
      "सॉ": 2971,
      "सममिलित": 2972,
      "वायदा": 2973,
      "अधिकारियो": 2974,
      "अरथवयवसथा": 2975,
      "आजञा": 2976,
      "##रास": 2977,
      "भरो": 2978,
      "कोशिका": 2979,
      "जायगा": 2980,
      "खाना": 2981,
      "कारर": 2982,
      "डॉ": 2983,
      "##दिक": 2984,
      "अधिकतम": 2985,
      "झठलाया": 2986,
      "पसद": 2987,
      "##दम": 2988,
      "परवा": 2989,
      "पारटी": 2990,
      "एफ": 2991,
      "पढा": 2992,
      "दरशन": 2993,
      "##मीर": 2994,
      "सतरी": 2995,
      "भगवान": 2996,
      "##याग": 2997,
      "अपरल": 2998,
      "नागरिक": 2999,
      "##उस": 3000,
      "सचार": 3001,
      "परसार": 3002,
      "##साद": 3003,
      "##जोर": 3004,
      "खली": 3005,
      "मारगदरशन": 3006,
      "##गण": 3007,
      "इबाद": 3008,
      "बनाई": 3009,
      "##ोलयशन": 3010,
      "इबादत": 3011,
      "उसपर": 3012,
      "##नद": 3013,
      "##इस": 3014,
      "वयाव": 3015,
      "अफरीका": 3016,
      "पदधति": 3017,
      "##ानक": 3018,
      "ठिक": 3019,
      "शतर": 3020,
      "यसफ": 3021,
      "आतकवाद": 3022,
      "डाटा": 3023,
      "निगम": 3024,
      "सिसटम": 3025,
      "कहानी": 3026,
      "##id": 3027,
      "करनवाल": 3028,
      "##वशाली": 3029,
      "परापति": 3030,
      "ससकरण": 3031,
      "गरइ": 3032,
      "मातर": 3033,
      "दषटिकोण": 3034,
      "कडी": 3035,
      "##टस": 3036,
      "रौ": 3037,
      "समी": 3038,
      "शरआ": 3039,
      "सभावना": 3040,
      "बढकर": 3041,
      "सकगा": 3042,
      "छि": 3043,
      "परयकत": 3044,
      "पशचिमी": 3045,
      "नाटक": 3046,
      "सारा": 3047,
      "##लड": 3048,
      "अनकल": 3049,
      "मारच": 3050,
      "परसपर": 3051,
      "जरिए": 3052,
      "दायितव": 3053,
      "सममलन": 3054,
      "तार": 3055,
      "##जिए": 3056,
      "वाद": 3057,
      "सलगन": 3058,
      "हानि": 3059,
      "वाता": 3060,
      "वतन": 3061,
      "विसतत": 3062,
      "अच": 3063,
      "##जीव": 3064,
      "फरिशत": 3065,
      "##यब": 3066,
      "##दशा": 3067,
      "##सतर": 3068,
      "सवामी": 3069,
      "शयर": 3070,
      "बिजली": 3071,
      "##सनद": 3072,
      "परतीक": 3073,
      "html": 3074,
      "अनमान": 3075,
      "सिफार": 3076,
      "कदा": 3077,
      "जाहिर": 3078,
      "##बरी": 3079,
      "वयय": 3080,
      "तौबा": 3081,
      "गराम": 3082,
      "अधि": 3083,
      "##ut": 3084,
      "##िकरी": 3085,
      "50": 3086,
      "कारयान": 3087,
      "सिफारिश": 3088,
      "##कान": 3089,
      "तकनीकी": 3090,
      "सवचछ": 3091,
      "दरी": 3092,
      "##भमि": 3093,
      "##थर": 3094,
      "मलया": 3095,
      "##ma": 3096,
      "परयावरण": 3097,
      "विमान": 3098,
      "अरब": 3099,
      "चलो": 3100,
      "##ed": 3101,
      "दादा": 3102,
      "परिसथित": 3103,
      "##भाषा": 3104,
      "नकल": 3105,
      "समकष": 3106,
      "मनो": 3107,
      "मतलब": 3108,
      "नकस": 3109,
      "##°a¥a¤": 3110,
      "##कषट": 3111,
      "खवाह": 3112,
      "औरत": 3113,
      "##तता": 3114,
      "दीर": 3115,
      "सजन": 3116,
      "गरहण": 3117,
      "##मतरी": 3118,
      "कायम": 3119,
      "जीवित": 3120,
      "कमजोर": 3121,
      "वातावरण": 3122,
      "नयन": 3123,
      "##सपर": 3124,
      "गहरा": 3125,
      "कथा": 3126,
      "##जाम": 3127,
      "कलिक": 3128,
      "चलता": 3129,
      "कितन": 3130,
      "##रर": 3131,
      "विशल": 3132,
      "समरप": 3133,
      "शताबदी": 3134,
      "हिसाब": 3135,
      "उपर": 3136,
      "##ालत": 3137,
      "लगान": 3138,
      "थोडा": 3139,
      "परतिकर": 3140,
      "पतनी": 3141,
      "हाथो": 3142,
      "माह": 3143,
      "भलाई": 3144,
      "दकर": 3145,
      "तकलीफ": 3146,
      "दध": 3147,
      "##एगा": 3148,
      "##धानी": 3149,
      "शखश": 3150,
      "सफ": 3151,
      "##जक": 3152,
      "पीठ": 3153,
      "##यतः": 3154,
      "आसान": 3155,
      "2014": 3156,
      "महिलाओ": 3157,
      "घाट": 3158,
      "खी": 3159,
      "बाकी": 3160,
      "हसत": 3161,
      "सामना": 3162,
      "बोझ": 3163,
      "24": 3164,
      "एवोलयशन": 3165,
      "चलन": 3166,
      "भरोसा": 3167,
      "अनवाद": 3168,
      "दावा": 3169,
      "महसस": 3170,
      "निरदशिका": 3171,
      "इडिया": 3172,
      "विल": 3173,
      "खादय": 3174,
      "बढावा": 3175,
      "##ढी": 3176,
      "जरा": 3177,
      "धवन": 3178,
      "##जात": 3179,
      "परीकषण": 3180,
      "इजरायल": 3181,
      "दिखाया": 3182,
      "pres": 3183,
      "मसी": 3184,
      "ईमानदारो": 3185,
      "##गज": 3186,
      "२००": 3187,
      "##िकस": 3188,
      "परदा": 3189,
      "अभिलख": 3190,
      "ठहर": 3191,
      "इतया": 3192,
      "खिलाफ": 3193,
      "उमर": 3194,
      "कलपना": 3195,
      "उपभोक": 3196,
      "##ओग": 3197,
      "उपनयास": 3198,
      "गद": 3199,
      "##ce": 3200,
      "मिश": 3201,
      "शनय": 3202,
      "##वयन": 3203,
      "कदरत": 3204,
      "नियकत": 3205,
      "दीवार": 3206,
      "कोड": 3207,
      "##िनद": 3208,
      "निशानी": 3209,
      "##बारा": 3210,
      "जिनकी": 3211,
      "सनन": 3212,
      "हस": 3213,
      "##नदर": 3214,
      "सरवा": 3215,
      "काररवाई": 3216,
      "आदरश": 3217,
      "बनिया": 3218,
      "दआ": 3219,
      "नवान": 3220,
      "मदर": 3221,
      "सपरण": 3222,
      "सरवो": 3223,
      "परसननता": 3224,
      "सवाए": 3225,
      "परधानमतरी": 3226,
      "फरिश": 3227,
      "वकष": 3228,
      "सवाल": 3229,
      "##सि": 3230,
      "नियमित": 3231,
      "गार": 3232,
      "परजा": 3233,
      "##सरण": 3234,
      "पढन": 3235,
      "चिन": 3236,
      "डरत": 3237,
      "दवार": 3238,
      "गाल": 3239,
      "नवानव": 3240,
      "तीस": 3241,
      "अकल": 3242,
      "सटर": 3243,
      "बौदध": 3244,
      "##लील": 3245,
      "नकसान": 3246,
      "सकरीन": 3247,
      "##धक": 3248,
      "सपता": 3249,
      "दयाल": 3250,
      "कोल": 3251,
      "कितनी": 3252,
      "परहज": 3253,
      "मिलकर": 3254,
      "परतिनिध": 3255,
      "माता": 3256,
      "निरतर": 3257,
      "##लोड": 3258,
      "##यण": 3259,
      "##वहन": 3260,
      "पचाग": 3261,
      "धो": 3262,
      "##लाद": 3263,
      "सासकतिक": 3264,
      "कच": 3265,
      "दड": 3266,
      "सझा": 3267,
      "##पात": 3268,
      "उपचार": 3269,
      "##हरो": 3270,
      "मानसिक": 3271,
      "बराई": 3272,
      "टा": 3273,
      "मिन": 3274,
      "जनस": 3275,
      "मिलती": 3276,
      "##रणा": 3277,
      "आदम": 3278,
      "समसयाओ": 3279,
      "फक": 3280,
      "फोन": 3281,
      "##बित": 3282,
      "##तकाल": 3283,
      "करमचारियो": 3284,
      "नामक": 3285,
      "खला": 3286,
      "##ent": 3287,
      "##करा": 3288,
      "विदयत": 3289,
      "com": 3290,
      "हराम": 3291,
      "उपाय": 3292,
      "बाह": 3293,
      "दसरो": 3294,
      "ठिकाना": 3295,
      "रव": 3296,
      "##परिय": 3297,
      "काब": 3298,
      "कावय": 3299,
      "बको": 3300,
      "विवाद": 3301,
      "चनाव": 3302,
      "सवाद": 3303,
      "विनिरदिषट": 3304,
      "इकट": 3305,
      "##मारी": 3306,
      "##तित": 3307,
      "जानन": 3308,
      "परिच": 3309,
      "शरआत": 3310,
      "कषतरीय": 3311,
      "लोकत": 3312,
      "नियमो": 3313,
      "परारथ": 3314,
      "##रश": 3315,
      "मौसम": 3316,
      "लकषण": 3317,
      "पजय": 3318,
      "वयवसाय": 3319,
      "सॉफट": 3320,
      "##सटर": 3321,
      "तरीका": 3322,
      "##ताए": 3323,
      "##कतता": 3324,
      "गमराही": 3325,
      "फरम": 3326,
      "परवाह": 3327,
      "##ॉकि": 3328,
      "शीरषक": 3329,
      "वारषिक": 3330,
      "आयकत": 3331,
      "मामला": 3332,
      "इतयादि": 3333,
      "जय": 3334,
      "ऑन": 3335,
      "पाकिसतान": 3336,
      "##लिया": 3337,
      "##िफ": 3338,
      "परयासो": 3339,
      "अवि": 3340,
      "##ri": 3341,
      "विज": 3342,
      "विरो": 3343,
      "अनसरण": 3344,
      "परोट": 3345,
      "इरा": 3346,
      "वादा": 3347,
      "खती": 3348,
      "शदध": 3349,
      "करगी": 3350,
      "तट": 3351,
      "हालॉकि": 3352,
      "चारो": 3353,
      "सामराजय": 3354,
      "सपताह": 3355,
      "बनात": 3356,
      "उदार": 3357,
      "##ममद": 3358,
      "##शाला": 3359,
      "उतार": 3360,
      "##शाली": 3361,
      "##दीक": 3362,
      "नयाया": 3363,
      "##सभा": 3364,
      "सथिर": 3365,
      "गणराजय": 3366,
      "बॉ": 3367,
      "दोसत": 3368,
      "परसिदध": 3369,
      "अधिस": 3370,
      "परयोजनो": 3371,
      "##ईल": 3372,
      "##वितर": 3373,
      "##शबद": 3374,
      "मछ": 3375,
      "##धीन": 3376,
      "जानी": 3377,
      "कमाड": 3378,
      "होनी": 3379,
      "तिथि": 3380,
      "टिप": 3381,
      "महरबान": 3382,
      "##टिग": 3383,
      "सामरथ": 3384,
      "विदय": 3385,
      "इड": 3386,
      "पछा": 3387,
      "पाठय": 3388,
      "कहता": 3389,
      "सतरियो": 3390,
      "##आन": 3391,
      "पातर": 3392,
      "मलयाकन": 3393,
      "खौ": 3394,
      "193": 3395,
      "गवाही": 3396,
      "वाण": 3397,
      "छपा": 3398,
      "बिकरी": 3399,
      "ससथाओ": 3400,
      "सीख": 3401,
      "नषट": 3402,
      "##िसटर": 3403,
      "##दियो": 3404,
      "इलक": 3405,
      "शिव": 3406,
      "##दित": 3407,
      "##शास": 3408,
      "इकाई": 3409,
      "##वीर": 3410,
      "##भाल": 3411,
      "माबद": 3412,
      "लॉग": 3413,
      "गपत": 3414,
      "##सरो": 3415,
      "अतयधिक": 3416,
      "मानक": 3417,
      "अज": 3418,
      "भाषण": 3419,
      "बरसा": 3420,
      "निरवाचन": 3421,
      "##ियल": 3422,
      "शभकाम": 3423,
      "जञा": 3424,
      "लाइन": 3425,
      "कलया": 3426,
      "उतर": 3427,
      "गोल": 3428,
      "भागो": 3429,
      "परभार": 3430,
      "असमरथ": 3431,
      "रासता": 3432,
      "2015": 3433,
      "असतितव": 3434,
      "परायः": 3435,
      "##वतति": 3436,
      "मौत": 3437,
      "अदयतन": 3438,
      "सबह": 3439,
      "##वासियो": 3440,
      "सिवाय": 3441,
      "उठान": 3442,
      "परतिकरिया": 3443,
      "नबी": 3444,
      "##बरो": 3445,
      "सवागत": 3446,
      "इतन": 3447,
      "महततवपरण": 3448,
      "वाणिज": 3449,
      "चम": 3450,
      "कारड": 3451,
      "##तमा": 3452,
      "मदान": 3453,
      "आरम": 3454,
      "गस": 3455,
      "वितरण": 3456,
      "सीधा": 3457,
      "ककष": 3458,
      "दढ": 3459,
      "##विल": 3460,
      "परारथना": 3461,
      "##मानी": 3462,
      "23": 3463,
      "आठ": 3464,
      "नयनतम": 3465,
      "समसत": 3466,
      "दखभाल": 3467,
      "काफिर": 3468,
      "##अप": 3469,
      "तमाम": 3470,
      "##वरड": 3471,
      "उड": 3472,
      "रदद": 3473,
      "##uk": 3474,
      "##सथान": 3475,
      "21": 3476,
      "आनन": 3477,
      "चकि": 3478,
      "सगण": 3479,
      "st": 3480,
      "तोड": 3481,
      "जनवरी": 3482,
      "नज": 3483,
      "कपन": 3484,
      "पसतिका": 3485,
      "अजञात": 3486,
      "रक": 3487,
      "किरा": 3488,
      "गगा": 3489,
      "तीवर": 3490,
      "गालिब": 3491,
      "गरथ": 3492,
      "डाउन": 3493,
      "##जज": 3494,
      "औरतो": 3495,
      "दयावान": 3496,
      "सदा": 3497,
      "##दधा": 3498,
      "मानयता": 3499,
      "कठिना": 3500,
      "दरशा": 3501,
      "सगम": 3502,
      "पात": 3503,
      "आतरिक": 3504,
      "यकति": 3505,
      "चट": 3506,
      "वचन": 3507,
      "दखकर": 3508,
      "मकररर": 3509,
      "लाया": 3510,
      "##मस": 3511,
      "मिशन": 3512,
      "लकष": 3513,
      "##हाद": 3514,
      "अनदर": 3515,
      "##सायन": 3516,
      "गतिविधियो": 3517,
      "##शकर": 3518,
      "लखन": 3519,
      "वशविक": 3520,
      "इलकटर": 3521,
      "चतना": 3522,
      "सथानो": 3523,
      "विदयारथियो": 3524,
      "##घन": 3525,
      "##तमिक": 3526,
      "हथ": 3527,
      "सरय": 3528,
      "दयालता": 3529,
      "सवतः": 3530,
      "करमचारी": 3531,
      "परचार": 3532,
      "परोतसाहन": 3533,
      "कशल": 3534,
      "सॉफटवयर": 3535,
      "ऊचाई": 3536,
      "विनयास": 3537,
      "कटौती": 3538,
      "##वीय": 3539,
      "खतम": 3540,
      "सामरथय": 3541,
      "आधया": 3542,
      "लट": 3543,
      "##ारड": 3544,
      "उपयोकता": 3545,
      "औलाद": 3546,
      "##बस": 3547,
      "पररित": 3548,
      "##इश": 3549,
      "जोख": 3550,
      "जाओग": 3551,
      "परावधान": 3552,
      "शभकामनाए": 3553,
      "तभी": 3554,
      "नततव": 3555,
      "अट": 3556,
      "आओ": 3557,
      "लिखी": 3558,
      "##चीत": 3559,
      "##लाल": 3560,
      "a¤a¥a¤": 3561,
      "औसत": 3562,
      "मगल": 3563,
      "आलो": 3564,
      "दवा": 3565,
      "पडी": 3566,
      "विशलषण": 3567,
      "कव": 3568,
      "##यतर": 3569,
      "अनरप": 3570,
      "##तया": 3571,
      "##ानत": 3572,
      "बातचीत": 3573,
      "धवनि": 3574,
      "##मातर": 3575,
      "##चलित": 3576,
      "आफ": 3577,
      "जव": 3578,
      "##एग": 3579,
      "इटरन": 3580,
      "सबक": 3581,
      "घरल": 3582,
      "सिल": 3583,
      "उतकषट": 3584,
      "शरीक": 3585,
      "माइ": 3586,
      "काननी": 3587,
      "पवितर": 3588,
      "कलयाण": 3589,
      "जिनदगी": 3590,
      "##बाज": 3591,
      "यकीनी": 3592,
      "26": 3593,
      "फिलटर": 3594,
      "a¤ª": 3595,
      "परारप": 3596,
      "जञापन": 3597,
      "वाज": 3598,
      "##कषतर": 3599,
      "परोफ": 3600,
      "भौतिक": 3601,
      "लडाई": 3602,
      "चो": 3603,
      "चकर": 3604,
      "यकत": 3605,
      "पति": 3606,
      "फलो": 3607,
      "अभिन": 3608,
      "पारित": 3609,
      "##गान": 3610,
      "जाकर": 3611,
      "आधयातमिक": 3612,
      "समति": 3613,
      "##ing": 3614,
      "##जिर": 3615,
      "कॉन": 3616,
      "वसा": 3617,
      "गीत": 3618,
      "जोखिम": 3619,
      "अनमो": 3620,
      "सतभ": 3621,
      "हिसस": 3622,
      "##वली": 3623,
      "##लोकन": 3624,
      "##अत": 3625,
      "परतिषठ": 3626,
      "मझस": 3627,
      "##यदा": 3628,
      "सचचा": 3629,
      "जिनदा": 3630,
      "विजय": 3631,
      "##परक": 3632,
      "##रिया": 3633,
      "कटशबद": 3634,
      "दखता": 3635,
      "मबई": 3636,
      "##तिहासिक": 3637,
      "बनन": 3638,
      "नयायाधी": 3639,
      "गन": 3640,
      "लबा": 3641,
      "आशच": 3642,
      "इसरा": 3643,
      "पहचन": 3644,
      "तयाग": 3645,
      "परिसथितियो": 3646,
      "22": 3647,
      "विदवान": 3648,
      "मिटा": 3649,
      "परिय": 3650,
      "बनदगी": 3651,
      "किनार": 3652,
      "मशक": 3653,
      "##लामी": 3654,
      "जिनको": 3655,
      "जलद": 3656,
      "##भागय": 3657,
      "परामरश": 3658,
      "चीन": 3659,
      "धम": 3660,
      "निरी": 3661,
      "दिस": 3662,
      "##खला": 3663,
      "परशसा": 3664,
      "##muk": 3665,
      "एका": 3666,
      "कारयकरमो": 3667,
      "सडक": 3668,
      "##नतिक": 3669,
      "अकषम": 3670,
      "विधयक": 3671,
      "pran": 3672,
      "आकरमण": 3673,
      "सबर": 3674,
      "इजीन": 3675,
      "कमर": 3676,
      "शरत": 3677,
      "फरिशतो": 3678,
      "जनसखया": 3679,
      "फॉन": 3680,
      "बीमारी": 3681,
      "##तल": 3682,
      "सबधो": 3683,
      "हिदी": 3684,
      "##अर": 3685,
      "उपयोगी": 3686,
      "तथय": 3687,
      "लगातार": 3688,
      "लिक": 3689,
      "##jee": 3690,
      "सहकारी": 3691,
      "##abmuk": 3692,
      "##herjee": 3693,
      "pranabmuk": 3694,
      "pranabmukherjee": 3695,
      "31": 3696,
      "मीडिया": 3697,
      "सजदा": 3698,
      "##निर": 3699,
      "लोकततर": 3700,
      "खतर": 3701,
      "वरषा": 3702,
      "जिनस": 3703,
      "असथ": 3704,
      "पाल": 3705,
      "वयाखया": 3706,
      "prh": 3707,
      "##घात": 3708,
      "डिफ": 3709,
      "सरवोचच": 3710,
      "पमान": 3711,
      "##पास": 3712,
      "बादशा": 3713,
      "गोया": 3714,
      "पतथर": 3715,
      "विरोधी": 3716,
      "con": 3717,
      "सलाम": 3718,
      "##परीत": 3719,
      "ततकाल": 3720,
      "नअ": 3721,
      "सचालन": 3722,
      "ससाधनो": 3723,
      "##op": 3724,
      "राजनतिक": 3725,
      "गरम": 3726,
      "##a¤a¤": 3727,
      "छिपा": 3728,
      "अमल": 3729,
      "झा": 3730,
      "नतिक": 3731,
      "पसनद": 3732,
      "शरण": 3733,
      "जितना": 3734,
      "रहमत": 3735,
      "हमस": 3736,
      "नअमत": 3737,
      "##कित": 3738,
      "साबित": 3739,
      "औष": 3740,
      "विपरीत": 3741,
      "अनया": 3742,
      "##दल": 3743,
      "धरय": 3744,
      "192": 3745,
      "आसानी": 3746,
      "जिममदारी": 3747,
      "कितना": 3748,
      "दरम": 3749,
      "घडी": 3750,
      "आशचरय": 3751,
      "##लान": 3752,
      "डिजा": 3753,
      "विषयो": 3754,
      "मीटर": 3755,
      "पथवी": 3756,
      "दौड": 3757,
      "थोड": 3758,
      "असर": 3759,
      "भरा": 3760,
      "##एन": 3761,
      "##वाय": 3762,
      "##पान": 3763,
      "अभियान": 3764,
      "2000": 3765,
      "पगमबरो": 3766,
      "आरमभ": 3767,
      "रपए": 3768,
      "विशषजञ": 3769,
      "आकडा": 3770,
      "झगड": 3771,
      "उर": 3772,
      "##डित": 3773,
      "##ठित": 3774,
      "##of": 3775,
      "##िमा": 3776,
      "जरम": 3777,
      "बदर": 3778,
      "बीमार": 3779,
      "असथा": 3780,
      "भद": 3781,
      "##मानय": 3782,
      "उचचतम": 3783,
      "सड": 3784,
      "परतीत": 3785,
      "सनतान": 3786,
      "लात": 3787,
      "ऐतिहासिक": 3788,
      "विदयमान": 3789,
      "शारी": 3790,
      "##ra": 3791,
      "बीज": 3792,
      "ताप": 3793,
      "##शनल": 3794,
      "मसज": 3795,
      "फजल": 3796,
      "परतीकषा": 3797,
      "मई": 3798,
      "करआन": 3799,
      "हतया": 3800,
      "परिणामसवरप": 3801,
      "दखी": 3802,
      "2013": 3803,
      "##दिर": 3804,
      "##पद": 3805,
      "##गारो": 3806,
      "साकष": 3807,
      "अतरण": 3808,
      "तव": 3809,
      "वीर": 3810,
      "एकल": 3811,
      "उपभोकता": 3812,
      "आयोजन": 3813,
      "##सायिक": 3814,
      "लोकपरिय": 3815,
      "##ोटो": 3816,
      "परच": 3817,
      "27": 3818,
      "##कषिक": 3819,
      "##बीर": 3820,
      "जटिल": 3821,
      "नयी": 3822,
      "बटन": 3823,
      "##षको": 3824,
      "##दीय": 3825,
      "महामह": 3826,
      "सपषटीकरण": 3827,
      "सभाष": 3828,
      "##हिक": 3829,
      "गड": 3830,
      "अधिकारो": 3831,
      "ma": 3832,
      "छह": 3833,
      "##िगर": 3834,
      "करोग": 3835,
      "किसानो": 3836,
      "पोरट": 3837,
      "शल": 3838,
      "सटिग": 3839,
      "बध": 3840,
      "मसति": 3841,
      "जीन": 3842,
      "लम": 3843,
      "##दास": 3844,
      "सटी": 3845,
      "शिकार": 3846,
      "महामहिम": 3847,
      "आइ": 3848,
      "औजार": 3849,
      "##पथ": 3850,
      "##फस": 3851,
      "पाई": 3852,
      "उलट": 3853,
      "घटा": 3854,
      "उठाए": 3855,
      "डाउनलोड": 3856,
      "दान": 3857,
      "##दक": 3858,
      "जननत": 3859,
      "चिता": 3860,
      "उतपादो": 3861,
      "अगला": 3862,
      "##ase": 3863,
      "रीति": 3864,
      "तग": 3865,
      "पला": 3866,
      "विधा": 3867,
      "जबरद": 3868,
      "समापति": 3869,
      "बखशन": 3870,
      "आगरह": 3871,
      "##करीब": 3872,
      "28": 3873,
      "कारबार": 3874,
      "hi": 3875,
      "नकी": 3876,
      "##लीय": 3877,
      "दशमन": 3878,
      "इगल": 3879,
      "##बक": 3880,
      "वसी": 3881,
      "गठन": 3882,
      "खराब": 3883,
      "जागर": 3884,
      "आपरति": 3885,
      "अनकरीब": 3886,
      "कौशल": 3887,
      "टल": 3888,
      "सरदार": 3889,
      "अगसत": 3890,
      "लानवालो": 3891,
      "निषकरिय": 3892,
      "तरा": 3893,
      "##गढ": 3894,
      "आब": 3895,
      "शारीरिक": 3896,
      "for": 3897,
      "लगत": 3898,
      "घोषित": 3899,
      "गनाहो": 3900,
      "फॉनट": 3901,
      "##दिन": 3902,
      "सकट": 3903,
      "बनियादी": 3904,
      "दीरघ": 3905,
      "कसर": 3906,
      "to": 3907,
      "##ोष": 3908,
      "##िटी": 3909,
      "##ितीय": 3910,
      "ईमानदार": 3911,
      "सरवाधिक": 3912,
      "##गिक": 3913,
      "लगाए": 3914,
      "उदयोगो": 3915,
      "an": 3916,
      "बहा": 3917,
      "करण": 3918,
      "इसको": 3919,
      "सचित": 3920,
      "##करताओ": 3921,
      "##भाषित": 3922,
      "##मना": 3923,
      "दशक": 3924,
      "दोबारा": 3925,
      "एकता": 3926,
      "चनद": 3927,
      "बजाय": 3928,
      "##ॉरम": 3929,
      "##चरण": 3930,
      "आखो": 3931,
      "कदापि": 3932,
      "कसा": 3933,
      "विभाजन": 3934,
      "पाय": 3935,
      "टग": 3936,
      "पजाब": 3937,
      "बारगाह": 3938,
      "ईमानवालो": 3939,
      "रौशन": 3940,
      "नाट": 3941,
      "##बनधी": 3942,
      "बचन": 3943,
      "भारती": 3944,
      "गिरफत": 3945,
      "परका": 3946,
      "01": 3947,
      "इक": 3948,
      "दिला": 3949,
      "मलाकात": 3950,
      "दह": 3951,
      "विरा": 3952,
      "सकन": 3953,
      "उठाया": 3954,
      "मिसाल": 3955,
      "आना": 3956,
      "उतसा": 3957,
      "अजी": 3958,
      "अकबर": 3959,
      "##पालिका": 3960,
      "अधयाय": 3961,
      "आननद": 3962,
      "कारयवाही": 3963,
      "मही": 3964,
      "हज": 3965,
      "टट": 3966,
      "दरमियान": 3967,
      "तिर": 3968,
      "गणना": 3969,
      "बदलन": 3970,
      "##बाइल": 3971,
      "पटट": 3972,
      "अमरिकी": 3973,
      "ऑनलाइन": 3974,
      "अचानक": 3975,
      "हिक": 3976,
      "परयतन": 3977,
      "किलो": 3978,
      "साथी": 3979,
      "दाव": 3980,
      "कनकशन": 3981,
      "आरोप": 3982,
      "बनाय": 3983,
      "समझौता": 3984,
      "##यट": 3985,
      "2016": 3986,
      "आराम": 3987,
      "कियामत": 3988,
      "कारयक": 3989,
      "परववरष": 3990,
      "इल": 3991,
      "दार": 3992,
      "##मती": 3993,
      "##ad": 3994,
      "कलकतता": 3995,
      "भजन": 3996,
      "रसलो": 3997,
      "अपमान": 3998,
      "बढती": 3999,
      "##हो": 4000,
      "भाषाओ": 4001,
      "##राव": 4002,
      "बदलाव": 4003,
      "कषमाशील": 4004,
      "##ारिक": 4005,
      "इकटठा": 4006,
      "##शदा": 4007,
      "साइ": 4008,
      "शिख": 4009,
      "होम": 4010,
      "लिखित": 4011,
      "नागरिको": 4012,
      "##si": 4013,
      "बिद": 4014,
      "अवजञा": 4015,
      "##मिट": 4016,
      "रोकन": 4017,
      "अहम": 4018,
      "कारो": 4019,
      "##िपट": 4020,
      "सफद": 4021,
      "##ch": 4022,
      "मरद": 4023,
      "अभिवयकति": 4024,
      "वद": 4025,
      "शिश": 4026,
      "##re": 4027,
      "निहित": 4028,
      "विशषकर": 4029,
      "नवानवषण": 4030,
      "कति": 4031,
      "डब": 4032,
      "परिवरतित": 4033,
      "उपबधो": 4034,
      "गिन": 4035,
      "##वसत": 4036,
      "निदशक": 4037,
      "बदध": 4038,
      "मशकिल": 4039,
      "is": 4040,
      "बझ": 4041,
      "निभा": 4042,
      "रहगी": 4043,
      "ताकत": 4044,
      "बसती": 4045,
      "##तीत": 4046,
      "अनपात": 4047,
      "##फिक": 4048,
      "थोडी": 4049,
      "इटरनट": 4050,
      "हिकमत": 4051,
      "काश": 4052,
      "अकत": 4053,
      "परतिभा": 4054,
      "परभत": 4055,
      "चप": 4056,
      "समबनधी": 4057,
      "##ow": 4058,
      "##चितर": 4059,
      "सभयता": 4060,
      "##डिग": 4061,
      "सिखा": 4062,
      "रिस": 4063,
      "परिवहन": 4064,
      "लती": 4065,
      "##यरो": 4066,
      "गमराह": 4067,
      "छत": 4068,
      "मसतिषक": 4069,
      "तमिल": 4070,
      "inf": 4071,
      "सरकारो": 4072,
      "पररणा": 4073,
      "##काए": 4074,
      "शरषठ": 4075,
      "##दह": 4076,
      "##चालित": 4077,
      "##चारिक": 4078,
      "##िमय": 4079,
      "गराहक": 4080,
      "##वदन": 4081,
      "##षी": 4082,
      "मात": 4083,
      "मिनट": 4084,
      "जनर": 4085,
      "मलयो": 4086,
      "समरथित": 4087,
      "##ome": 4088,
      "ततवदरशी": 4089,
      "जोडन": 4090,
      "इलम": 4091,
      "सकग": 4092,
      "##मीटर": 4093,
      "सदढ": 4094,
      "पषठभमि": 4095,
      "जिहाद": 4096,
      "पराधिकारी": 4097,
      "तरत": 4098,
      "सगठनो": 4099,
      "##राब": 4100,
      "डिजाइन": 4101,
      "कहान": 4102,
      "अनततः": 4103,
      "नरम": 4104,
      "परतिनिधितव": 4105,
      "जमान": 4106,
      "डरो": 4107,
      "##कारा": 4108,
      "परियोजनाओ": 4109,
      "चनौती": 4110,
      "घटनाओ": 4111,
      "परविषट": 4112,
      "##पय": 4113,
      "मसीबत": 4114,
      "अरज": 4115,
      "तबा": 4116,
      "इनका": 4117,
      "परभतवशाली": 4118,
      "पतन": 4119,
      "##इया": 4120,
      "##तावनी": 4121,
      "आदर": 4122,
      "हवाई": 4123,
      "तथापि": 4124,
      "40": 4125,
      "##ॉलट": 4126,
      "##कालीन": 4127,
      "आमत": 4128,
      "पलगइन": 4129,
      "डिब": 4130,
      "दखद": 4131,
      "अनयथा": 4132,
      "चतावनी": 4133,
      "##दवी": 4134,
      "सदह": 4135,
      "टीम": 4136,
      "ईमल": 4137,
      "खिल": 4138,
      "##सान": 4139,
      "राजनीति": 4140,
      "##षटर": 4141,
      "आह": 4142,
      "अहल": 4143,
      "सटा": 4144,
      "शरखला": 4145,
      "कीट": 4146,
      "##िकष": 4147,
      "तसवीर": 4148,
      "पराथमिकता": 4149,
      "भागीदारी": 4150,
      "दिखान": 4151,
      "रपा": 4152,
      "##बीह": 4153,
      "##जरव": 4154,
      "सरवकषण": 4155,
      "तयशदा": 4156,
      "नसल": 4157,
      "##ियार": 4158,
      "शकतियो": 4159,
      "##षटा": 4160,
      "##जान": 4161,
      "अलप": 4162,
      "सपादक": 4163,
      "##शम": 4164,
      "सागर": 4165,
      "पाठयकरम": 4166,
      "खौफ": 4167,
      "रिया": 4168,
      "परकाशन": 4169,
      "##बानी": 4170,
      "पाव": 4171,
      "दिखाता": 4172,
      "धारण": 4173,
      "आमतौर": 4174,
      "समित": 4175,
      "चलान": 4176,
      "नवीन": 4177,
      "चढा": 4178,
      "टब": 4179,
      "##टिक": 4180,
      "मिलगा": 4181,
      "आवास": 4182,
      "मडल": 4183,
      "बाब": 4184,
      "हय": 4185,
      "##लाप": 4186,
      "सहन": 4187,
      "चनदर": 4188,
      "translat": 4189,
      "जलाई": 4190,
      "उततरी": 4191,
      "कहगा": 4192,
      "राजयपाल": 4193,
      "शौ": 4194,
      "बलल": 4195,
      "##सीन": 4196,
      "हटकर": 4197,
      "बटा": 4198,
      "शहरी": 4199,
      "ऑडियो": 4200,
      "नात": 4201,
      "नोड": 4202,
      "सासारिक": 4203,
      "##करो": 4204,
      "डो": 4205,
      "सिन": 4206,
      "समझन": 4207,
      "पडगा": 4208,
      "सविधाओ": 4209,
      "खडी": 4210,
      "शकषिक": 4211,
      "##दरनाथ": 4212,
      "##षयो": 4213,
      "जञात": 4214,
      "चौडाई": 4215,
      "फरवरी": 4216,
      "##रस": 4217,
      "मौल": 4218,
      "अवय": 4219,
      "आसपास": 4220,
      "अदालत": 4221,
      "परारभिक": 4222,
      "मॉडल": 4223,
      "बहिशत": 4224,
      "नियतरित": 4225,
      "परानी": 4226,
      "भरी": 4227,
      "कतल": 4228,
      "मित": 4229,
      "सविदा": 4230,
      "##षप": 4231,
      "उततरा": 4232,
      "##वधि": 4233,
      "##सना": 4234,
      "विनषट": 4235,
      "35": 4236,
      "उधार": 4237,
      "इसन": 4238,
      "अभिपर": 4239,
      "##िपत": 4240,
      "जायगी": 4241,
      "रोगी": 4242,
      "80": 4243,
      "आल": 4244,
      "इच": 4245,
      "सोन": 4246,
      "##ex": 4247,
      "##गामी": 4248,
      "जिममदार": 4249,
      "info": 4250,
      "कड": 4251,
      "बाधा": 4252,
      "##कीन": 4253,
      "वाप": 4254,
      "मधयम": 4255,
      "बागो": 4256,
      "बहस": 4257,
      "उलल": 4258,
      "मोबाइल": 4259,
      "खोलन": 4260,
      "वयावसायिक": 4261,
      "फरी": 4262,
      "हाइ": 4263,
      "बाहय": 4264,
      "qu": 4265,
      "##सोस": 4266,
      "इनकी": 4267,
      "तसबीह": 4268,
      "सवार": 4269,
      "पजीकरण": 4270,
      "भडारण": 4271,
      "सरो": 4272,
      "रचि": 4273,
      "रलव": 4274,
      "निः": 4275,
      "टकड": 4276,
      "ढाच": 4277,
      "अवतरित": 4278,
      "दखना": 4279,
      "##भाविक": 4280,
      "असवी": 4281,
      "उपकरम": 4282,
      "##िषठ": 4283,
      "##धय": 4284,
      "##°a¤": 4285,
      "##दायी": 4286,
      "अफसोस": 4287,
      "सरवोत": 4288,
      "पहाड": 4289,
      "मजदर": 4290,
      "##सकट": 4291,
      "बिगा": 4292,
      "विनिमय": 4293,
      "जयाद": 4294,
      "चली": 4295,
      "##खर": 4296,
      "##com": 4297,
      "अनगरह": 4298,
      "निगर": 4299,
      "सबदध": 4300,
      "कशमीर": 4301,
      "##lease": 4302,
      "परोतसाहित": 4303,
      "चहर": 4304,
      "तात": 4305,
      "##ॉट": 4306,
      "##oo": 4307,
      "याच": 4308,
      "##कषप": 4309,
      "टरक": 4310,
      "आकरषित": 4311,
      "कागज": 4312,
      "समगर": 4313,
      "बाबत": 4314,
      "आसति": 4315,
      "तकनीक": 4316,
      "##परिक": 4317,
      "समदध": 4318,
      "नाफर": 4319,
      "कपड": 4320,
      "आयी": 4321,
      "##याश": 4322,
      "चनल": 4323,
      "कराया": 4324,
      "अभाव": 4325,
      "दः": 4326,
      "##वादियो": 4327,
      "महातमा": 4328,
      "सझाव": 4329,
      "रण": 4330,
      "महल": 4331,
      "किल": 4332,
      "काला": 4333,
      "खाओ": 4334,
      "##कालिक": 4335,
      "##पिक": 4336,
      "डराइ": 4337,
      "##मभ": 4338,
      "असथायी": 4339,
      "##शीलता": 4340,
      "नार": 4341,
      "मसजिद": 4342,
      "बश": 4343,
      "मिलत": 4344,
      "फायदा": 4345,
      "वरगो": 4346,
      "बराउ": 4347,
      "परबधक": 4348,
      "फरमाया": 4349,
      "कारयानवयन": 4350,
      "ऊची": 4351,
      "मकान": 4352,
      "अपकषित": 4353,
      "रिजरव": 4354,
      "##घाटन": 4355,
      "नताओ": 4356,
      "a¤¨": 4357,
      "तारा": 4358,
      "निपट": 4359,
      "दय": 4360,
      "दाह": 4361,
      "शाह": 4362,
      "बचचा": 4363,
      "पना": 4364,
      "सपादन": 4365,
      "विदर": 4366,
      "चीनी": 4367,
      "समपरण": 4368,
      "##dia": 4369,
      "निकाला": 4370,
      "सपादित": 4371,
      "टो": 4372,
      "बगल": 4373,
      "सविधाए": 4374,
      "भरम": 4375,
      "डिफॉलट": 4376,
      "बखश": 4377,
      "हटाए": 4378,
      "##ir": 4379,
      "हाजिर": 4380,
      "##नर": 4381,
      "##रीकी": 4382,
      "आहार": 4383,
      "वयत": 4384,
      "सनता": 4385,
      "सौर": 4386,
      "ससदीय": 4387,
      "परसति": 4388,
      "बारी": 4389,
      "##ww": 4390,
      "आखरत": 4391,
      "मकका": 4392,
      "फिली": 4393,
      "मजर": 4394,
      "पडो": 4395,
      "समीकषा": 4396,
      "सतरो": 4397,
      "जयो": 4398,
      "निरा": 4399,
      "##धारी": 4400,
      "##कील": 4401,
      "करल": 4402,
      "लाओ": 4403,
      "##दायिक": 4404,
      "www": 4405,
      "रडियो": 4406,
      "सतह": 4407,
      "##पथी": 4408,
      "विशवविदयालयो": 4409,
      "पषटि": 4410,
      "आजादी": 4411,
      "विनय": 4412,
      "कपा": 4413,
      "##us": 4414,
      "बढन": 4415,
      "नयायाधीश": 4416,
      "हला": 4417,
      "जनजा": 4418,
      "यनिट": 4419,
      "##खतयार": 4420,
      "तना": 4421,
      "अनदान": 4422,
      "सरकशी": 4423,
      "वल": 4424,
      "##रक": 4425,
      "उनन": 4426,
      "##िसा": 4427,
      "##परव": 4428,
      "कामना": 4429,
      "मददो": 4430,
      "बोस": 4431,
      "वयसत": 4432,
      "पतरिका": 4433,
      "यथ": 4434,
      "निगरानी": 4435,
      "it": 4436,
      "ऊच": 4437,
      "बगर": 4438,
      "महाराषटर": 4439,
      "अभिपरत": 4440,
      "धात": 4441,
      "एकमातर": 4442,
      "सवचालित": 4443,
      "उकत": 4444,
      "गफा": 4445,
      "चिप": 4446,
      "निवास": 4447,
      "टिपप": 4448,
      "##वलोकन": 4449,
      "जालिमो": 4450,
      "दिनाक": 4451,
      "02": 4452,
      "परषो": 4453,
      "शासतर": 4454,
      "लाइसस": 4455,
      "32": 4456,
      "मोमिनीन": 4457,
      "परयटन": 4458,
      "##ate": 4459,
      "दम": 4460,
      "##वया": 4461,
      "##ियाई": 4462,
      "निरीकषण": 4463,
      "सीधी": 4464,
      "परशासनिक": 4465,
      "ईर": 4466,
      "सावधान": 4467,
      "यकीन": 4468,
      "कतर": 4469,
      "##तिम": 4470,
      "समझता": 4471,
      "किसान": 4472,
      "तफ": 4473,
      "अनरोध": 4474,
      "पथक": 4475,
      "बकिग": 4476,
      "मकस": 4477,
      "##गोल": 4478,
      "##ge": 4479,
      "2007": 4480,
      "##सप": 4481,
      "सिविल": 4482,
      "टिपपणी": 4483,
      "समरपित": 4484,
      "सवरण": 4485,
      "परथा": 4486,
      "##डस": 4487,
      "##बाजी": 4488,
      "पडन": 4489,
      "जडा": 4490,
      "##वरत": 4491,
      "उपसथिति": 4492,
      "कॉनफ": 4493,
      "दरश": 4494,
      "बहन": 4495,
      "1961": 4496,
      "गावो": 4497,
      "दबाव": 4498,
      "कषट": 4499,
      "शहरो": 4500,
      "##यय": 4501,
      "अनसचित": 4502,
      "समझौत": 4503,
      "झक": 4504,
      "लिमिट": 4505,
      "##कलन": 4506,
      "शिखर": 4507,
      "चाहग": 4508,
      "जहाज": 4509,
      "##पचारिक": 4510,
      "उतारा": 4511,
      "सोचा": 4512,
      "##comment": 4513,
      "60": 4514,
      "ऊचा": 4515,
      "नारा": 4516,
      "हकी": 4517,
      "खीच": 4518,
      "वगरह": 4519,
      "मट": 4520,
      "##भारत": 4521,
      "चनन": 4522,
      "दात": 4523,
      "##यवाद": 4524,
      "बनाता": 4525,
      "गढ": 4526,
      "भजी": 4527,
      "भकति": 4528,
      "##वद": 4529,
      "सबो": 4530,
      "सरवोततम": 4531,
      "डसकट": 4532,
      "बचत": 4533,
      "जयादती": 4534,
      "गौ": 4535,
      "पयार": 4536,
      "परसत": 4537,
      "उदघाटन": 4538,
      "बिगाड": 4539,
      "चाहगा": 4540,
      "सीडी": 4541,
      "अका": 4542,
      "उननत": 4543,
      "पलस": 4544,
      "परचलित": 4545,
      "कतजञ": 4546,
      "परतिषठित": 4547,
      "मछली": 4548,
      "कपनियो": 4549,
      "शिल": 4550,
      "नियकति": 4551,
      "तलाश": 4552,
      "##मड": 4553,
      "विवक": 4554,
      "असपता": 4555,
      "बोली": 4556,
      "##नाश": 4557,
      "मिलगी": 4558,
      "चाहा": 4559,
      "##दरशक": 4560,
      "अपरि": 4561,
      "हमको": 4562,
      "जानवरो": 4563,
      "जीत": 4564,
      "दनिक": 4565,
      "एकतर": 4566,
      "बढत": 4567,
      "योजनाओ": 4568,
      "याचिका": 4569,
      "लिमिटड": 4570,
      "आभ": 4571,
      "लबी": 4572,
      "##बला": 4573,
      "##टरस": 4574,
      "अरबी": 4575,
      "मोहममद": 4576,
      "चिहनित": 4577,
      "##लित": 4578,
      "करात": 4579,
      "सवीकति": 4580,
      "विशषता": 4581,
      "तवचा": 4582,
      "कसी": 4583,
      "वत": 4584,
      "शव": 4585,
      "सरी": 4586,
      "सकरमण": 4587,
      "यो": 4588,
      "दोहरा": 4589,
      "##वण": 4590,
      "2012": 4591,
      "सभवत": 4592,
      "परवावलोकन": 4593,
      "अधिसचना": 4594,
      "परास": 4595,
      "जगत": 4596,
      "परतियोग": 4597,
      "परतिनिधि": 4598,
      "नपाल": 4599,
      "रन": 4600,
      "जानवर": 4601,
      "आमाल": 4602,
      "पय": 4603,
      "बराहम": 4604,
      "##विजञान": 4605,
      "लिखत": 4606,
      "इसराईल": 4607,
      "सवाभाविक": 4608,
      "विभाजित": 4609,
      "डसकटॉप": 4610,
      "सचत": 4611,
      "191": 4612,
      "जलवाय": 4613,
      "मानवीय": 4614,
      "परविषटि": 4615,
      "quot": 4616,
      "छातर": 4617,
      "परदषण": 4618,
      "रवीन": 4619,
      "##शासतर": 4620,
      "खतरा": 4621,
      "सरज": 4622,
      "मिलियन": 4623,
      "पडती": 4624,
      "चरितर": 4625,
      "मकति": 4626,
      "##ail": 4627,
      "##घटना": 4628,
      "##विधि": 4629,
      "भावी": 4630,
      "फोटो": 4631,
      "##दाता": 4632,
      "##परि": 4633,
      "गजरात": 4634,
      "दवीप": 4635,
      "जला": 4636,
      "राजसथान": 4637,
      "##em": 4638,
      "##खयात": 4639,
      "दवि": 4640,
      "##लिप": 4641,
      "यहदी": 4642,
      "निशानियो": 4643,
      "det": 4644,
      "जोडा": 4645,
      "साइट": 4646,
      "घटक": 4647,
      "अख": 4648,
      "फिलीसती": 4649,
      "बाहम": 4650,
      "चलाए": 4651,
      "खिस": 4652,
      "##बादी": 4653,
      "महीनो": 4654,
      "छोडा": 4655,
      "##हल": 4656,
      "##तवय": 4657,
      "समनवय": 4658,
      "छाया": 4659,
      "दरदनाक": 4660,
      "कादिर": 4661,
      "मोर": 4662,
      "मानना": 4663,
      "साझा": 4664,
      "ढाचा": 4665,
      "परिचय": 4666,
      "##पणन": 4667,
      "उदध": 4668,
      "नबर": 4669,
      "अपरत": 4670,
      "कण": 4671,
      "सीन": 4672,
      "##जनो": 4673,
      "29": 4674,
      "सराह": 4675,
      "##मच": 4676,
      "परषित": 4677,
      "कारणो": 4678,
      "sh": 4679,
      "अकषर": 4680,
      "करिकट": 4681,
      "शरतो": 4682,
      "नजदीक": 4683,
      "यतर": 4684,
      "##ऊगा": 4685,
      "लौटा": 4686,
      "शोध": 4687,
      "पौधो": 4688,
      "नो": 4689,
      "मजदरी": 4690,
      "आजाद": 4691,
      "##as": 4692,
      "बचान": 4693,
      "ततरिका": 4694,
      "पीन": 4695,
      "मरन": 4696,
      "पासवरड": 4697,
      "##शव": 4698,
      "उतना": 4699,
      "अरजन": 4700,
      "##वरतन": 4701,
      "नीतियो": 4702,
      "हसी": 4703,
      "सनदर": 4704,
      "हारदिक": 4705,
      "इडियन": 4706,
      "##कब": 4707,
      "माफ": 4708,
      "मादा": 4709,
      "##ation": 4710,
      "उतत": 4711,
      "समहो": 4712,
      "गहन": 4713,
      "दवितीय": 4714,
      "गहरी": 4715,
      "योगयता": 4716,
      "आएगा": 4717,
      "गरीबी": 4718,
      "इगलड": 4719,
      "##भावना": 4720,
      "अरध": 4721,
      "शिकषक": 4722,
      "जितनी": 4723,
      "कमपनी": 4724,
      "सतयापन": 4725,
      "कठिनाई": 4726,
      "जिकर": 4727,
      "##इज": 4728,
      "विपणन": 4729,
      "आजमा": 4730,
      "##िगम": 4731,
      "##ारथी": 4732,
      "कॉनफिगर": 4733,
      "##ist": 4734,
      "2001": 4735,
      "ऑफलाइन": 4736,
      "##सवी": 4737,
      "मरत": 4738,
      "छातरो": 4739,
      "यरोपीय": 4740,
      "शरो": 4741,
      "##ारक": 4742,
      "नौकरी": 4743,
      "उज": 4744,
      "दगी": 4745,
      "राजधानी": 4746,
      "पीढी": 4747,
      "गाय": 4748,
      "##ाक": 4749,
      "अगली": 4750,
      "तरटिः": 4751,
      "##िटल": 4752,
      "गरीब": 4753,
      "गट": 4754,
      "आवशयकताओ": 4755,
      "ईसाई": 4756,
      "समदरी": 4757,
      "परतिसपर": 4758,
      "हितो": 4759,
      "बनकर": 4760,
      "उतसाह": 4761,
      "परसतिश": 4762,
      "##जरत": 4763,
      "उडा": 4764,
      "चतन": 4765,
      "##सागर": 4766,
      "जनरल": 4767,
      "सरकषक": 4768,
      "परिभाषित": 4769,
      "वसतए": 4770,
      "सवसथ": 4771,
      "ठोस": 4772,
      "नाग": 4773,
      "##a¤¾a¤a¤": 4774,
      "वयकतितव": 4775,
      "पोषण": 4776,
      "अनतिम": 4777,
      "ससथापित": 4778,
      "गिरफतार": 4779,
      "भाष": 4780,
      "शकतिशाली": 4781,
      "खशख": 4782,
      "detail": 4783,
      "फफ": 4784,
      "यौ": 4785,
      "अगरज": 4786,
      "सतत": 4787,
      "सीमाओ": 4788,
      "निषकरष": 4789,
      "खशखबरी": 4790,
      "##नस": 4791,
      "##av": 4792,
      "दास": 4793,
      "##सिल": 4794,
      "##रोल": 4795,
      "मानद": 4796,
      "हलाक": 4797,
      "अली": 4798,
      "जत": 4799,
      "तरकी": 4800,
      "टॉ": 4801,
      "मरदो": 4802,
      "फॉरम": 4803,
      "##िसी": 4804,
      "##गरसत": 4805,
      "##india": 4806,
      "दिवय": 4807,
      "करज": 4808,
      "सहमत": 4809,
      "##कटरी": 4810,
      "गिरा": 4811,
      "लडकी": 4812,
      "समदधि": 4813,
      "##जनन": 4814,
      "बचाव": 4815,
      "सवाम": 4816,
      "वरगी": 4817,
      "छाप": 4818,
      "पराधिकरण": 4819,
      "नशनल": 4820,
      "उदयान": 4821,
      "राजी": 4822,
      "आयर": 4823,
      "अनमोदन": 4824,
      "इसपर": 4825,
      "##हाई": 4826,
      "##राय": 4827,
      "कामो": 4828,
      "चतर": 4829,
      "मनषयो": 4830,
      "2018": 4831,
      "तौरत": 4832,
      "पदारथो": 4833,
      "गवर": 4834,
      "##चारय": 4835,
      "समावश": 4836,
      "उपयोगकरता": 4837,
      "सधया": 4838,
      "सचिव": 4839,
      "निषपादन": 4840,
      "आकड": 4841,
      "इजा": 4842,
      "चोट": 4843,
      "##ck": 4844,
      "अधिव": 4845,
      "ततवो": 4846,
      "##डकर": 4847,
      "अनयाय": 4848,
      "चाय": 4849,
      "दरघटना": 4850,
      "##mp": 4851,
      "सनिक": 4852,
      "गला": 4853,
      "रसायन": 4854,
      "##बती": 4855,
      "बरफ": 4856,
      "पाएग": 4857,
      "रहमान": 4858,
      "सटशन": 4859,
      "सामहिक": 4860,
      "सकाः": 4861,
      "पॉ": 4862,
      "मलभत": 4863,
      "तद": 4864,
      "##शः": 4865,
      "पकज": 4866,
      "##दशय": 4867,
      "मिलाकर": 4868,
      "अनतरगत": 4869,
      "उललघन": 4870,
      "##उड": 4871,
      "डरान": 4872,
      "बौदधिक": 4873,
      "##11": 4874,
      "इसलामी": 4875,
      "जडी": 4876,
      "##सवा": 4877,
      "दवता": 4878,
      "अवधारण": 4879,
      "लगती": 4880,
      "आलोचना": 4881,
      "अगरिम": 4882,
      "विदया": 4883,
      "उललखनीय": 4884,
      "##णि": 4885,
      "दरवाज": 4886,
      "##ाइल": 4887,
      "उभर": 4888,
      "##सकर": 4889,
      "बरहम": 4890,
      "वाकिफकार": 4891,
      "हॉ": 4892,
      "कमार": 4893,
      "तीसर": 4894,
      "धारणा": 4895,
      "सदी": 4896,
      "करवा": 4897,
      "दरिया": 4898,
      "सवरधन": 4899,
      "इनसान": 4900,
      "##जीशन": 4901,
      "a¤®": 4902,
      "जायग": 4903,
      "##निषठ": 4904,
      "परानत": 4905,
      "##ौल": 4906,
      "करतवय": 4907,
      "वकील": 4908,
      "उपास": 4909,
      "चाहती": 4910,
      "2005": 4911,
      "अपनाया": 4912,
      "जवाहर": 4913,
      "सयतर": 4914,
      "रए": 4915,
      "परात": 4916,
      "सहिता": 4917,
      "##जिया": 4918,
      "पकषो": 4919,
      "वारिस": 4920,
      "मिसर": 4921,
      "आउटपट": 4922,
      "press": 4923,
      "भारतीयो": 4924,
      "or": 4925,
      "बारह": 4926,
      "कराति": 4927,
      "आसमानो": 4928,
      "बिनद": 4929,
      "पाकी": 4930,
      "release": 4931,
      "वक": 4932,
      "##अल": 4933,
      "बरह": 4934,
      "समानता": 4935,
      "रड": 4936,
      "चनौ": 4937,
      "वसतर": 4938,
      "छटकारा": 4939,
      "फारम": 4940,
      "सितबर": 4941,
      "##ident": 4942,
      "मरम": 4943,
      "##वियो": 4944,
      "दविप": 4945,
      "लगाना": 4946,
      "##दरशिता": 4947,
      "परवतति": 4948,
      "उदय": 4949,
      "पछो": 4950,
      "##परद": 4951,
      "गराह": 4952,
      "##तको": 4953,
      "अगरणी": 4954,
      "गराफ": 4955,
      "अभिला": 4956,
      "president": 4957,
      "जकात": 4958,
      "टरम": 4959,
      "परतिबध": 4960,
      "पोजीशन": 4961,
      "सरपर": 4962,
      "परकाशना": 4963,
      "बजट": 4964,
      "ऊपरी": 4965,
      "##वती": 4966,
      "##बरा": 4967,
      "जिसपर": 4968,
      "00": 4969,
      "लाना": 4970,
      "इमार": 4971,
      "डॉल": 4972,
      "##शर": 4973,
      "साध": 4974,
      "अतरिकष": 4975,
      "##ॉरड": 4976,
      "आदान": 4977,
      "##गित": 4978,
      "लिग": 4979,
      "औषध": 4980,
      "भख": 4981,
      "बसतियो": 4982,
      "##ofindia": 4983,
      "##सियो": 4984,
      "##दायक": 4985,
      "अतराल": 4986,
      "फरा": 4987,
      "रोका": 4988,
      "सलमान": 4989,
      "2006": 4990,
      "असाधारण": 4991,
      "असपताल": 4992,
      "##हाल": 4993,
      "##²a¥a¤": 4994,
      "राहत": 4995,
      "उपनि": 4996,
      "परसग": 4997,
      "बठा": 4998,
      "निकलन": 4999,
      "फसाद": 5000,
      "रवि": 5001,
      "१५": 5002,
      "भरती": 5003,
      "presidentofindia": 5004,
      "शोक": 5005,
      "190": 5006,
      "शिकषण": 5007,
      "परमपरा": 5008,
      "मजिल": 5009,
      "उपकरणो": 5010,
      "रसी": 5011,
      "पहची": 5012,
      "आरभिक": 5013,
      "नतय": 5014,
      "अकतबर": 5015,
      "##हट": 5016,
      "##ोप": 5017,
      "दशी": 5018,
      "ऑख": 5019,
      "धवज": 5020,
      "विमर": 5021,
      "##परशन": 5022,
      "रवीनदरनाथ": 5023,
      "पॉल": 5024,
      "##भि": 5025,
      "परारमभ": 5026,
      "दलील": 5027,
      "##मडल": 5028,
      "ch": 5029,
      "जबान": 5030,
      "सवदन": 5031,
      "रम": 5032,
      "समपरक": 5033,
      "१८": 5034,
      "गरदन": 5035,
      "सदसयता": 5036,
      "मकद": 5037,
      "घाटी": 5038,
      "##सथापित": 5039,
      "मोट": 5040,
      "परिक": 5041,
      "बराहमण": 5042,
      "लार": 5043,
      "फाइलो": 5044,
      "ककषा": 5045,
      "निरमा": 5046,
      "वाहन": 5047,
      "विविधता": 5048,
      "सकगी": 5049,
      "धनयवाद": 5050,
      "वाणिजयिक": 5051,
      "परतियोगिता": 5052,
      "मददगार": 5053,
      "रिकत": 5054,
      "नास": 5055,
      "##जख": 5056,
      "कहला": 5057,
      "##िली": 5058,
      "gn": 5059,
      "##ct": 5060,
      "समचित": 5061,
      "साव": 5062,
      "सटार": 5063,
      "विहित": 5064,
      "बरिटन": 5065,
      "##मख": 5066,
      "राजसव": 5067,
      "परणाल": 5068,
      "आधर": 5069,
      "सथाना": 5070,
      "जीवा": 5071,
      "साहब": 5072,
      "आका": 5073,
      "धी": 5074,
      "सरा": 5075,
      "##ap": 5076,
      "मानन": 5077,
      "कथन": 5078,
      "##माग": 5079,
      "इलकटरॉन": 5080,
      "जातियो": 5081,
      "सामानयतः": 5082,
      "ईधन": 5083,
      "नकार": 5084,
      "सवीकत": 5085,
      "वारता": 5086,
      "खाल": 5087,
      "फायद": 5088,
      "##शकति": 5089,
      "इजाजत": 5090,
      "गलाम": 5091,
      "वरन": 5092,
      "मदिरो": 5093,
      "बिहार": 5094,
      "पाद": 5095,
      "##मारग": 5096,
      "पिछली": 5097,
      "हन": 5098,
      "अवसरो": 5099,
      "##ay": 5100,
      "##un": 5101,
      "##ub": 5102,
      "सवभाव": 5103,
      "##ोततर": 5104,
      "08": 5105,
      "पशन": 5106,
      "फरास": 5107,
      "हकदार": 5108,
      "अतयाचारी": 5109,
      "फौ": 5110,
      "##डरो": 5111,
      "सकषिपत": 5112,
      "ताला": 5113,
      "##दरा": 5114,
      "##नाड": 5115,
      "ताजा": 5116,
      "a¤a¥": 5117,
      "ईमानवाल": 5118,
      "सिदधातो": 5119,
      "हिमालय": 5120,
      "सरपरसत": 5121,
      "रपो": 5122,
      "गलती": 5123,
      "अकार": 5124,
      "घमा": 5125,
      "##थिति": 5126,
      "पीडित": 5127,
      "लाएग": 5128,
      "दकषिणी": 5129,
      "आचरण": 5130,
      "घोड": 5131,
      "साहितयिक": 5132,
      "साहस": 5133,
      "उगा": 5134,
      "खणड": 5135,
      "##धानिक": 5136,
      "##धिकारी": 5137,
      "जबरदसत": 5138,
      "##पश": 5139,
      "निम": 5140,
      "##ियॉ": 5141,
      "विकरय": 5142,
      "a¥": 5143,
      "समरण": 5144,
      "पतरो": 5145,
      "हिदसतान": 5146,
      "##वाना": 5147,
      "करमा": 5148,
      "##मारक": 5149,
      "विमरश": 5150,
      "36": 5151,
      "गरन": 5152,
      "जादगर": 5153,
      "सरकश": 5154,
      "विरासत": 5155,
      "ताज": 5156,
      "पख": 5157,
      "बागला": 5158,
      "वरिषठ": 5159,
      "दोजख": 5160,
      "विदयालय": 5161,
      "##कषीय": 5162,
      "इनपट": 5163,
      "औपचारिक": 5164,
      "##गारी": 5165,
      "ऊट": 5166,
      "गरभ": 5167,
      "नतर": 5168,
      "लगो": 5169,
      "a¤ªa¥a¤": 5170,
      "मितरो": 5171,
      "वचित": 5172,
      "सफर": 5173,
      "सवपन": 5174,
      "सभावित": 5175,
      "##गस": 5176,
      "अधिकरण": 5177,
      "##गरा": 5178,
      "##ारत": 5179,
      "##िनल": 5180,
      "हलाल": 5181,
      "गाधीजी": 5182,
      "बादशाह": 5183,
      "##ीकत": 5184,
      "पराधिकार": 5185,
      "गहराई": 5186,
      "##बाब": 5187,
      "पजीकत": 5188,
      "##टाई": 5189,
      "निकाय": 5190,
      "डल": 5191,
      "अगरजो": 5192,
      "##ौरन": 5193,
      "मानी": 5194,
      "सहमति": 5195,
      "अकला": 5196,
      "अनश": 5197,
      "लकडी": 5198,
      "दिखाय": 5199,
      "अतयाचार": 5200,
      "कारोबार": 5201,
      "##साफ": 5202,
      "विनिरमाण": 5203,
      "फौरन": 5204,
      "भटक": 5205,
      "##शिषट": 5206,
      "तह": 5207,
      "विदयारथी": 5208,
      "##शनी": 5209,
      "परतिबदध": 5210,
      "दरसथ": 5211,
      "नती": 5212,
      "##कोश": 5213,
      "##सनीय": 5214,
      "समभव": 5215,
      "75": 5216,
      "##दायो": 5217,
      "हिमा": 5218,
      "बाए": 5219,
      "परतय": 5220,
      "पाकीजा": 5221,
      "डॉलर": 5222,
      "निकालन": 5223,
      "कनकट": 5224,
      "##बतता": 5225,
      "तरीको": 5226,
      "बलाया": 5227,
      "मौलिक": 5228,
      "सला": 5229,
      "अलबतता": 5230,
      "पाबन": 5231,
      "उपलबधि": 5232,
      "निषठा": 5233,
      "जमम": 5234,
      "तापमान": 5235,
      "नाफरमानी": 5236,
      "##टियो": 5237,
      "##यस": 5238,
      "पटल": 5239,
      "पथभर": 5240,
      "सफलतापरवक": 5241,
      "डिग": 5242,
      "शरदधा": 5243,
      "अकाद": 5244,
      "नब": 5245,
      "असली": 5246,
      "शिर": 5247,
      "साख": 5248,
      "पडित": 5249,
      "नयायिक": 5250,
      "अनाज": 5251,
      "##राट": 5252,
      "सिध": 5253,
      "सकीम": 5254,
      "महाराजा": 5255,
      "iii": 5256,
      "चदर": 5257,
      "पिक": 5258,
      "रानी": 5259,
      "परतिदिन": 5260,
      "मिथ": 5261,
      "##पादित": 5262,
      "##ारातमक": 5263,
      "##जील": 5264,
      "सचची": 5265,
      "करनाटक": 5266,
      "गरमी": 5267,
      "मलक": 5268,
      "सामानयत": 5269,
      "कदरित": 5270,
      "परोटोक": 5271,
      "गहर": 5272,
      "जमी": 5273,
      "वजन": 5274,
      "##ld": 5275,
      "##िरण": 5276,
      "कोशिकाओ": 5277,
      "##नीति": 5278,
      "दरभागय": 5279,
      "पारपरिक": 5280,
      "उततरदायी": 5281,
      "##टित": 5282,
      "अबदल": 5283,
      "अमरीका": 5284,
      "सराहना": 5285,
      "विनियम": 5286,
      "मासिक": 5287,
      "हजारो": 5288,
      "दाम": 5289,
      "अफगान": 5290,
      "एहसान": 5291,
      "इलाज": 5292,
      "पारक": 5293,
      "सफा": 5294,
      "पकारा": 5295,
      "##हान": 5296,
      "अरजित": 5297,
      "असल": 5298,
      "फिट": 5299,
      "##20": 5300,
      "आकलन": 5301,
      "तिल": 5302,
      "याकब": 5303,
      "लमब": 5304,
      "वरीय": 5305,
      "##yp": 5306,
      "विनाश": 5307,
      "चाद": 5308,
      "समाहित": 5309,
      "समबध": 5310,
      "##दीदा": 5311,
      "शोर": 5312,
      "पाता": 5313,
      "##सको": 5314,
      "दिलच": 5315,
      "दविपकषीय": 5316,
      "##छा": 5317,
      "समद": 5318,
      "नामः": 5319,
      "महाभारत": 5320,
      "आदमियो": 5321,
      "परशात": 5322,
      "कीजिए": 5323,
      "रजिसटर": 5324,
      "यवाओ": 5325,
      "आबादी": 5326,
      "##कला": 5327,
      "2008": 5328,
      "रिकारड": 5329,
      "##डिट": 5330,
      "##खन": 5331,
      "गरसत": 5332,
      "बटो": 5333,
      "##कती": 5334,
      "परशान": 5335,
      "उचचतर": 5336,
      "कॉलज": 5337,
      "##लस": 5338,
      "सपन": 5339,
      "##000": 5340,
      "यथासथिति": 5341,
      "परोज": 5342,
      "याची": 5343,
      "गणो": 5344,
      "पहाडी": 5345,
      "लबाई": 5346,
      "जगल": 5347,
      "फत": 5348,
      "बिस": 5349,
      "बरो": 5350,
      "रद": 5351,
      "दरग": 5352,
      "बरकत": 5353,
      "इसीलिए": 5354,
      "लानत": 5355,
      "अमरीकी": 5356,
      "##sion": 5357,
      "शराब": 5358,
      "##um": 5359,
      "कारक": 5360,
      "सकड": 5361,
      "##वरणी": 5362,
      "परिश": 5363,
      "मानता": 5364,
      "अमान": 5365,
      "डालन": 5366,
      "साकषय": 5367,
      "सहारा": 5368,
      "##ोरस": 5369,
      "सशकत": 5370,
      "##काता": 5371,
      "परतिभति": 5372,
      "परतिषठा": 5373,
      "निकाह": 5374,
      "##रता": 5375,
      "##ver": 5376,
      "डीवी": 5377,
      "तततव": 5378,
      "घन": 5379,
      "##साइ": 5380,
      "परिवश": 5381,
      "##हारिक": 5382,
      "विभागो": 5383,
      "पहाडो": 5384,
      "##खयान": 5385,
      "परिभाषा": 5386,
      "##कय": 5387,
      "फलसवरप": 5388,
      "सावधानी": 5389,
      "नाश": 5390,
      "वापसी": 5391,
      "##तरक": 5392,
      "शकतिया": 5393,
      "कॉपी": 5394,
      "वाजए": 5395,
      "गठित": 5396,
      "सचालित": 5397,
      "सगठित": 5398,
      "##शवास": 5399,
      "##लाग": 5400,
      "करणा": 5401,
      "परशनो": 5402,
      "डालत": 5403,
      "फीस": 5404,
      "सवामितव": 5405,
      "##कसा": 5406,
      "कराना": 5407,
      "कामया": 5408,
      "परौदयोगिक": 5409,
      "a¤¼": 5410,
      "चतनय": 5411,
      "शात": 5412,
      "##राबाद": 5413,
      "सिचाई": 5414,
      "बोला": 5415,
      "दःख": 5416,
      "दकान": 5417,
      "सतलन": 5418,
      "बोलत": 5419,
      "गराहको": 5420,
      "##मप": 5421,
      "नमन": 5422,
      "रखकर": 5423,
      "पथभरषट": 5424,
      "अकित": 5425,
      "दिसबर": 5426,
      "##षि": 5427,
      "##ढा": 5428,
      "##ानिक": 5429,
      "##tin": 5430,
      "मॉड": 5431,
      "इद": 5432,
      "करः": 5433,
      "लिखना": 5434,
      "तयारी": 5435,
      "पोल": 5436,
      "बिट": 5437,
      "साथियो": 5438,
      "परसस": 5439,
      "लगात": 5440,
      "एहकाम": 5441,
      "समितियो": 5442,
      "45": 5443,
      "##दना": 5444,
      "इनसाफ": 5445,
      "खाद": 5446,
      "##ताबिक": 5447,
      "सौप": 5448,
      "करियान": 5449,
      "आजञाकारी": 5450,
      "मताबिक": 5451,
      "सदाय": 5452,
      "सशोधित": 5453,
      "09": 5454,
      "हमला": 5455,
      "सतरिया": 5456,
      "इजीनिय": 5457,
      "यथारथ": 5458,
      "##rl": 5459,
      "अधर": 5460,
      "अगरच": 5461,
      "पकारत": 5462,
      "नवा": 5463,
      "##याम": 5464,
      "आशिक": 5465,
      "बाधय": 5466,
      "सचमच": 5467,
      "लडका": 5468,
      "सबोधित": 5469,
      "यानी": 5470,
      "##कलपिक": 5471,
      "##शोथ": 5472,
      "a¤¸a¥a¤": 5473,
      "विदरोह": 5474,
      "डिगरी": 5475,
      "90": 5476,
      "बहर": 5477,
      "परिचित": 5478,
      "खनिज": 5479,
      "एकदम": 5480,
      "##सीसी": 5481,
      "नील": 5482,
      "खिलाडी": 5483,
      "दिमाग": 5484,
      "सभवतः": 5485,
      "##ानसार": 5486,
      "नयायालयो": 5487,
      "un": 5488,
      "पोसट": 5489,
      "जितन": 5490,
      "पनाह": 5491,
      "इटर": 5492,
      "परक": 5493,
      "समपनन": 5494,
      "वयापारी": 5495,
      "पसतको": 5496,
      "डीवीडी": 5497,
      "जक": 5498,
      "जापान": 5499,
      "जानकर": 5500,
      "परतिकल": 5501,
      "हाथी": 5502,
      "परिसर": 5503,
      "वषण": 5504,
      "मौका": 5505,
      "परिवारो": 5506,
      "समबनधित": 5507,
      "१९९": 5508,
      "वितर": 5509,
      "##od": 5510,
      "उतारी": 5511,
      "पकषी": 5512,
      "##ig": 5513,
      "ससगत": 5514,
      "जरमनी": 5515,
      "##तीकरण": 5516,
      "##कषी": 5517,
      "मिशरण": 5518,
      "##पोरट": 5519,
      "ईरान": 5520,
      "अभिलाभ": 5521,
      "नल": 5522,
      "##विन": 5523,
      "लगन": 5524,
      "भत": 5525,
      "रहित": 5526,
      "मजबर": 5527,
      "वरणित": 5528,
      "##पसद": 5529,
      "##ia": 5530,
      "कटटर": 5531,
      "इता": 5532,
      "कक": 5533,
      "निगाह": 5534,
      "अपराधी": 5535,
      "बजाए": 5536,
      "##बोरड": 5537,
      "हसतकषप": 5538,
      "ठा": 5539,
      "परजनन": 5540,
      "सतोष": 5541,
      "वकलपिक": 5542,
      "##µa¤": 5543,
      "राजभाषा": 5544,
      "परकरियाओ": 5545,
      "##ind": 5546,
      "कबज": 5547,
      "जयोति": 5548,
      "चकता": 5549,
      "चमक": 5550,
      "बटी": 5551,
      "मगा": 5552,
      "##रन": 5553,
      "##खान": 5554,
      "रहसय": 5555,
      "झठलान": 5556,
      "##गरहण": 5557,
      "खत": 5558,
      "डिज": 5559,
      "बहशत": 5560,
      "मोटर": 5561,
      "##सीय": 5562,
      "निवार": 5563,
      "##जीवी": 5564,
      "डाली": 5565,
      "समपतति": 5566,
      "सपनन": 5567,
      "पाइ": 5568,
      "अभिगम": 5569,
      "शिकषको": 5570,
      "वसली": 5571,
      "किनही": 5572,
      "उरद": 5573,
      "लबल": 5574,
      "##काया": 5575,
      "दरबार": 5576,
      "हदराबाद": 5577,
      "इचछ": 5578,
      "##यज": 5579,
      "उददशयो": 5580,
      "कारबन": 5581,
      "आतकवादी": 5582,
      "घात": 5583,
      "##eat": 5584,
      "जानो": 5585,
      "दीजिए": 5586,
      "##कषणिक": 5587,
      "खलन": 5588,
      "आएगी": 5589,
      "सलगनक": 5590,
      "##लिपि": 5591,
      "##लभ": 5592,
      "विड": 5593,
      "##वतत": 5594,
      "##तातरिक": 5595,
      "अनसची": 5596,
      "महादवी": 5597,
      "रच": 5598,
      "##16": 5599,
      "निवासी": 5600,
      "दखोग": 5601,
      "जवाहरलाल": 5602,
      "खज": 5603,
      "जनन": 5604,
      "परको": 5605,
      "2002": 5606,
      "परोफाइल": 5607,
      "तमिलनाड": 5608,
      "##th": 5609,
      "सको": 5610,
      "उतनी": 5611,
      "फरमाबर": 5612,
      "परयोकता": 5613,
      "मौजिज": 5614,
      "नवी": 5615,
      "पण": 5616,
      "सगर": 5617,
      "समराट": 5618,
      "दखग": 5619,
      "हरि": 5620,
      "पडत": 5621,
      "##ors": 5622,
      "कमपयटर": 5623,
      "चटट": 5624,
      "be": 5625,
      "कचच": 5626,
      "गाडी": 5627,
      "खवाहिश": 5628,
      "परोजकट": 5629,
      "ap": 5630,
      "घनिषठ": 5631,
      "##वाड": 5632,
      "पहन": 5633,
      "##िकाओ": 5634,
      "##ener": 5635,
      "##धयकष": 5636,
      "वयवसथित": 5637,
      "हारन": 5638,
      "वासतविकता": 5639,
      "गदय": 5640,
      "##दत": 5641,
      "##पार": 5642,
      "रहम": 5643,
      "इजीनियर": 5644,
      "##परस": 5645,
      "नाहक": 5646,
      "हारड": 5647,
      "किलोमीटर": 5648,
      "करातिक": 5649,
      "भरण": 5650,
      "भरत": 5651,
      "हिल": 5652,
      "परतिदान": 5653,
      "अभियो": 5654,
      "##ोहन": 5655,
      "सममानित": 5656,
      "असवीकार": 5657,
      "33": 5658,
      "नयास": 5659,
      "एहद": 5660,
      "विवरणी": 5661,
      "अनजञात": 5662,
      "बरस": 5663,
      "धप": 5664,
      "बिन": 5665,
      "अपनान": 5666,
      "सकारातमक": 5667,
      "एटी": 5668,
      "जाया": 5669,
      "भकत": 5670,
      "मारा": 5671,
      "विषण": 5672,
      "##वशिक": 5673,
      "करमशः": 5674,
      "मजबती": 5675,
      "चलाया": 5676,
      "अनपालन": 5677,
      "टाल": 5678,
      "इसल": 5679,
      "अधिका": 5680,
      "मशरिक": 5681,
      "वयावहारिक": 5682,
      "खया": 5683,
      "##परदायिक": 5684,
      "वरमा": 5685,
      "मतभ": 5686,
      "##िच": 5687,
      "सपी": 5688,
      "आध": 5689,
      "##मास": 5690,
      "##िजा": 5691,
      "जीवो": 5692,
      "मानवता": 5693,
      "कशलता": 5694,
      "आकति": 5695,
      "##टरी": 5696,
      "##वासत": 5697,
      "योजनाए": 5698,
      "परोकष": 5699,
      "शानदार": 5700,
      "टयब": 5701,
      "परयोगशाला": 5702,
      "साधनो": 5703,
      "आशय": 5704,
      "##नल": 5705,
      "अभयास": 5706,
      "##बलिक": 5707,
      "सधि": 5708,
      "कमरा": 5709,
      "झठा": 5710,
      "कचरा": 5711,
      "##फिल": 5712,
      "उपखड": 5713,
      "रखती": 5714,
      "पीडा": 5715,
      "रोगो": 5716,
      "##वहार": 5717,
      "##एच": 5718,
      "एकीकत": 5719,
      "भागय": 5720,
      "पसा": 5721,
      "रामा": 5722,
      "टकस": 5723,
      "कीटो": 5724,
      "निराश": 5725,
      "बनना": 5726,
      "चलती": 5727,
      "पीछा": 5728,
      "जररतो": 5729,
      "टाइप": 5730,
      "ac": 5731,
      "कारा": 5732,
      "झील": 5733,
      "हरी": 5734,
      "##राशि": 5735,
      "##यकाल": 5736,
      "मनोर": 5737,
      "##and": 5738,
      "अजर": 5739,
      "शवत": 5740,
      "उतसर": 5741,
      "सनय": 5742,
      "आधारभत": 5743,
      "अधिकारिता": 5744,
      "वजञानिको": 5745,
      "en": 5746,
      "फरक": 5747,
      "दसतावजो": 5748,
      "छप": 5749,
      "बम": 5750,
      "##ोगरा": 5751,
      "बढी": 5752,
      "उठाना": 5753,
      "तीनो": 5754,
      "आरो": 5755,
      "##नातमक": 5756,
      "शरीमती": 5757,
      "परोफसर": 5758,
      "इमारत": 5759,
      "मिर": 5760,
      "##ोकत": 5761,
      "पराना": 5762,
      "गतिविधि": 5763,
      "एजसी": 5764,
      "कोलकाता": 5765,
      "गगल": 5766,
      "##दरह": 5767,
      "अततः": 5768,
      "a¤¹": 5769,
      "पसदीदा": 5770,
      "गारटी": 5771,
      "अवधारणा": 5772,
      "आधा": 5773,
      "पिला": 5774,
      "शलय": 5775,
      "##नतर": 5776,
      "##गह": 5777,
      "घटन": 5778,
      "चिल": 5779,
      "हटान": 5780,
      "तथयो": 5781,
      "उगर": 5782,
      "छड": 5783,
      "डॉक": 5784,
      "सनी": 5785,
      "##ao": 5786,
      "पढत": 5787,
      "अभिभा": 5788,
      "शीरषिका": 5789,
      "सफाई": 5790,
      "परबल": 5791,
      "दायर": 5792,
      "##ess": 5793,
      "1999": 5794,
      "##गोलिक": 5795,
      "सदय": 5796,
      "पठ": 5797,
      "बाट": 5798,
      "सवाब": 5799,
      "इरादा": 5800,
      "उभ": 5801,
      "##हारी": 5802,
      "अभिक": 5803,
      "सपदा": 5804,
      "तबाही": 5805,
      "अवरो": 5806,
      "हरा": 5807,
      "##सपति": 5808,
      "##पालन": 5809,
      "आदत": 5810,
      "उच": 5811,
      "##कटर": 5812,
      "काली": 5813,
      "नाक": 5814,
      "आमद": 5815,
      "भौगोलिक": 5816,
      "धोख": 5817,
      "लदन": 5818,
      "बताता": 5819,
      "##ददीन": 5820,
      "मोमिनो": 5821,
      "कतजञता": 5822,
      "##ॉकस": 5823,
      "##षकार": 5824,
      "पछता": 5825,
      "de": 5826,
      "थल": 5827,
      "विडियो": 5828,
      "07": 5829,
      "नजात": 5830,
      "##विया": 5831,
      "मरियम": 5832,
      "सनदह": 5833,
      "पछत": 5834,
      "उतपादक": 5835,
      "घड": 5836,
      "##12": 5837,
      "सवाधीन": 5838,
      "सारणी": 5839,
      "उपायो": 5840,
      "##याशित": 5841,
      "१०": 5842,
      "##os": 5843,
      "लिपि": 5844,
      "परतिब": 5845,
      "परतिवादी": 5846,
      "हथियार": 5847,
      "टरमिनल": 5848,
      "फतह": 5849,
      "##eather": 5850,
      "धा": 5851,
      "नफ": 5852,
      "ममो": 5853,
      "##बड": 5854,
      "##ew": 5855,
      "##14": 5856,
      "##विड": 5857,
      "महममद": 5858,
      "रोकत": 5859,
      "पिछला": 5860,
      "गिनती": 5861,
      "अवयव": 5862,
      "घास": 5863,
      "झका": 5864,
      "ढर": 5865,
      "समत": 5866,
      "##ect": 5867,
      "##mail": 5868,
      "नकारातमक": 5869,
      "##एव": 5870,
      "असह": 5871,
      "##वासन": 5872,
      "##मबई": 5873,
      "ठहराया": 5874,
      "इकाइयो": 5875,
      "##ालो": 5876,
      "बनता": 5877,
      "अतीत": 5878,
      "चपक": 5879,
      "बरबाद": 5880,
      "दरो": 5881,
      "हसन": 5882,
      "##तरियो": 5883,
      "परतया": 5884,
      "सनो": 5885,
      "सनान": 5886,
      "अगनि": 5887,
      "मशर": 5888,
      "a¥a¤": 5889,
      "गतवय": 5890,
      "परणता": 5891,
      "2011": 5892,
      "नस": 5893,
      "##²a¤": 5894,
      "कोन": 5895,
      "अपार": 5896,
      "निच": 5897,
      "भरन": 5898,
      "फकशन": 5899,
      "सरवश": 5900,
      "बोध": 5901,
      "गौरव": 5902,
      "मकदमा": 5903,
      "बकार": 5904,
      "हकमत": 5905,
      "नवबर": 5906,
      "फसलो": 5907,
      "दब": 5908,
      "##his": 5909,
      "सरत": 5910,
      "जानना": 5911,
      "वादय": 5912,
      "सतरीय": 5913,
      "फास": 5914,
      "सकरिया": 5915,
      "##सास": 5916,
      "आपसी": 5917,
      "साकषी": 5918,
      "परससकरण": 5919,
      "एयर": 5920,
      "मकदम": 5921,
      "परिवरतनो": 5922,
      "लमबी": 5923,
      "इबर": 5924,
      "ओपन": 5925,
      "टलीफ": 5926,
      "परतिभ": 5927,
      "मशीनरी": 5928,
      "##णिक": 5929,
      "##लोक": 5930,
      "बरज": 5931,
      "भरपर": 5932,
      "##सिह": 5933,
      "दारशन": 5934,
      "अखबार": 5935,
      "निध": 5936,
      "##विषट": 5937,
      "दिसमबर": 5938,
      "पदो": 5939,
      "##मज": 5940,
      "##तियार": 5941,
      "हमल": 5942,
      "परशास": 5943,
      "कालज": 5944,
      "कय": 5945,
      "##किक": 5946,
      "सीता": 5947,
      "गणित": 5948,
      "नकद": 5949,
      "id": 5950,
      "wh": 5951,
      "रत": 5952,
      "वाह": 5953,
      "मनपसद": 5954,
      "comment": 5955,
      "नमना": 5956,
      "##ox": 5957,
      "विवा": 5958,
      "##नीयता": 5959,
      "परसतावित": 5960,
      "##ort": 5961,
      "असथि": 5962,
      "बराउजर": 5963,
      "निप": 5964,
      "चनौतियो": 5965,
      "पाना": 5966,
      "दवताओ": 5967,
      "चाहो": 5968,
      "##चलन": 5969,
      "दाहिन": 5970,
      "परोटोकॉल": 5971,
      "अखिल": 5972,
      "बतान": 5973,
      "रट": 5974,
      "दनवाला": 5975,
      "अपनाई": 5976,
      "नरस": 5977,
      "गजरा": 5978,
      "सतयापित": 5979,
      "आड": 5980,
      "चखो": 5981,
      "रॉ": 5982,
      "##लास": 5983,
      "वाछ": 5984,
      "रखनवालो": 5985,
      "कमाई": 5986,
      "अय": 5987,
      "गब": 5988,
      "परसाद": 5989,
      "कोष": 5990,
      "लाज": 5991,
      "गरव": 5992,
      "करमो": 5993,
      "डरता": 5994,
      "आहवान": 5995,
      "vi": 5996,
      "##दिया": 5997,
      "करडिट": 5998,
      "डराइव": 5999,
      "फिरत": 6000,
      "चमत": 6001,
      "नदियो": 6002,
      "हमपर": 6003,
      "अनकरम": 6004,
      "इनही": 6005,
      "पाओग": 6006,
      "39": 6007,
      "झोक": 6008,
      "वदिक": 6009,
      "##ul": 6010,
      "कारयरत": 6011,
      "राषटरो": 6012,
      "बादल": 6013,
      "विभद": 6014,
      "सौदर": 6015,
      "विदवानो": 6016,
      "तख": 6017,
      "##गीय": 6018,
      "बनाओ": 6019,
      "सतन": 6020,
      "नवमबर": 6021,
      "चिकितसक": 6022,
      "34": 6023,
      "अवर": 6024,
      "इषट": 6025,
      "तदन": 6026,
      "काबा": 6027,
      "अनव": 6028,
      "उपलबधता": 6029,
      "##दायितव": 6030,
      "05": 6031,
      "चरम": 6032,
      "रिशत": 6033,
      "##धारित": 6034,
      "गरभा": 6035,
      "आरकषित": 6036,
      "सौभागय": 6037,
      "वाणिजय": 6038,
      "चोरी": 6039,
      "शकषणिक": 6040,
      "a¤¤": 6041,
      "लीग": 6042,
      "पलगिन": 6043,
      "अभिभाषण": 6044,
      "झल": 6045,
      "समदायो": 6046,
      "तलाक": 6047,
      "तीसरा": 6048,
      "चखा": 6049,
      "लपट": 6050,
      "दकषता": 6051,
      "शासक": 6052,
      "##टम": 6053,
      "##मपा": 6054,
      "बताए": 6055,
      "विफलः": 6056,
      "03": 6057,
      "उभार": 6058,
      "विट": 6059,
      "पहचाना": 6060,
      "सहयोगी": 6061,
      "उपदश": 6062,
      "परणतः": 6063,
      "पारि": 6064,
      "उललिखित": 6065,
      "जयादातर": 6066,
      "कलाकार": 6067,
      "कडीई": 6068,
      "कहानिया": 6069,
      "फली": 6070,
      "बसा": 6071,
      "##खयक": 6072,
      "बहमत": 6073,
      "1947": 6074,
      "मघ": 6075,
      "##लर": 6076,
      "करनवाली": 6077,
      "खबरदार": 6078,
      "रामायण": 6079,
      "इफ": 6080,
      "##पषट": 6081,
      "फलक": 6082,
      "मगफ": 6083,
      "मकसद": 6084,
      "##िणी": 6085,
      "विलो": 6086,
      "सकटर": 6087,
      "परतिफल": 6088,
      "लगाकर": 6089,
      "बगला": 6090,
      "परभावशाली": 6091,
      "दरशाता": 6092,
      "sp": 6093,
      "टिकट": 6094,
      "छटटी": 6095,
      "आवरण": 6096,
      "ताम": 6097,
      "हमम": 6098,
      "बाति": 6099,
      "तवर": 6100,
      "लल": 6101,
      "समझना": 6102,
      "लोकसभा": 6103,
      "वयाखयान": 6104,
      "शिकषित": 6105,
      "डालो": 6106,
      "गीता": 6107,
      "आकाकषा": 6108,
      "आधी": 6109,
      "धध": 6110,
      "परातः": 6111,
      "नौका": 6112,
      "बिग": 6113,
      "बढता": 6114,
      "##सपरिक": 6115,
      "अनचित": 6116,
      "याता": 6117,
      "सचचाई": 6118,
      "500": 6119,
      "पोत": 6120,
      "विकट": 6121,
      "परचालन": 6122,
      "तदबीर": 6123,
      "##थक": 6124,
      "##weather": 6125,
      "चौथा": 6126,
      "उममत": 6127,
      "नकदी": 6128,
      "भावनाओ": 6129,
      "##ॉकसी": 6130,
      "कारयानवित": 6131,
      "भव": 6132,
      "मआ": 6133,
      "अनदश": 6134,
      "लखको": 6135,
      "सीखन": 6136,
      "रपर": 6137,
      "##चज": 6138,
      "अनर": 6139,
      "तरि": 6140,
      "पारसपरिक": 6141,
      "सदशो": 6142,
      "कतरिम": 6143,
      "ऊतक": 6144,
      "करय": 6145,
      "बीबी": 6146,
      "लोकतातरिक": 6147,
      "##बारड": 6148,
      "वयापारिक": 6149,
      "किर": 6150,
      "कलिप": 6151,
      "सरोतो": 6152,
      "मठ": 6153,
      "##og": 6154,
      "निव": 6155,
      "पराणी": 6156,
      "अतएव": 6157,
      "बतात": 6158,
      "सटरिग": 6159,
      "इताअत": 6160,
      "परववरती": 6161,
      "पढाई": 6162,
      "इबरत": 6163,
      "बकर": 6164,
      "मिया": 6165,
      "##लता": 6166,
      "##भौ": 6167,
      "परासगिक": 6168,
      "यातायात": 6169,
      "नोक": 6170,
      "पलल": 6171,
      "शानति": 6172,
      "अफगानिसतान": 6173,
      "शयरो": 6174,
      "सयोजन": 6175,
      "##गध": 6176,
      "उततरदायितव": 6177,
      "समसयाए": 6178,
      "188": 6179,
      "खतरनाक": 6180,
      "डोमन": 6181,
      "##wor": 6182,
      "वाणी": 6183,
      "आसथा": 6184,
      "2004": 6185,
      "कोरट": 6186,
      "189": 6187,
      "अपरण": 6188,
      "##ियमन": 6189,
      "सतषट": 6190,
      "कदरो": 6191,
      "हलका": 6192,
      "वनसपति": 6193,
      "जागरकता": 6194,
      "##ve": 6195,
      "विजञा": 6196,
      "##चाप": 6197,
      "मारन": 6198,
      "मतदान": 6199,
      "बालो": 6200,
      "असामानय": 6201,
      "नको": 6202,
      "##शान": 6203,
      "##ree": 6204,
      "दिव": 6205,
      "a¤¯": 6206,
      "चावल": 6207,
      "गणा": 6208,
      "घटित": 6209,
      "उधर": 6210,
      "परॉकसी": 6211,
      "वादी": 6212,
      "विचारधारा": 6213,
      "आईटी": 6214,
      "मनाफ": 6215,
      "गान": 6216,
      "##ारस": 6217,
      "मागो": 6218,
      "##शचात": 6219,
      "मरति": 6220,
      "परवरतन": 6221,
      "सवरग": 6222,
      "115": 6223,
      "माप": 6224,
      "अपकषाकत": 6225,
      "मरममत": 6226,
      "जीवाण": 6227,
      "टलीफोन": 6228,
      "सखा": 6229,
      "##ime": 6230,
      "कोण": 6231,
      "निधन": 6232,
      "महता": 6233,
      "सनकर": 6234,
      "मखयतः": 6235,
      "खललम": 6236,
      "गोप": 6237,
      "पटरोल": 6238,
      "सथितियो": 6239,
      "पचास": 6240,
      "अजञान": 6241,
      "दहा": 6242,
      "##ामिन": 6243,
      "##डीएफ": 6244,
      "अगो": 6245,
      "यआर": 6246,
      "##कमार": 6247,
      "मानय": 6248,
      "बरन": 6249,
      "गोरा": 6250,
      "translators": 6251,
      "निपटान": 6252,
      "##डीसा": 6253,
      "पहलओ": 6254,
      "चलना": 6255,
      "2003": 6256,
      "पजाबी": 6257,
      "आयो": 6258,
      "लॉ": 6259,
      "##कारिता": 6260,
      "आपदा": 6261,
      "##णडल": 6262,
      "पराधिकत": 6263,
      "पचायत": 6264,
      "सामानयतया": 6265,
      "ममोरी": 6266,
      "##a¤°": 6267,
      "जिनना": 6268,
      "वयकतिक": 6269,
      "मिलना": 6270,
      "आमतरित": 6271,
      "मतरि": 6272,
      "सजाल": 6273,
      "##एमई": 6274,
      "परपरागत": 6275,
      "अननत": 6276,
      "इनदर": 6277,
      "वयरथ": 6278,
      "तीरथ": 6279,
      "सगणक": 6280,
      "डय": 6281,
      "नग": 6282,
      "##बीन": 6283,
      "##जीवन": 6284,
      "नायक": 6285,
      "नाबारड": 6286,
      "सितमबर": 6287,
      "निःश": 6288,
      "आजीव": 6289,
      "##माना": 6290,
      "माउस": 6291,
      "बढो": 6292,
      "घाटा": 6293,
      "रचनाओ": 6294,
      "दिखाना": 6295,
      "कवियो": 6296,
      "अधिवशन": 6297,
      "बबई": 6298,
      "##ताल": 6299,
      "परमाणित": 6300,
      "उदयमो": 6301,
      "70": 6302,
      "##ter": 6303,
      "ex": 6304,
      "##टिया": 6305,
      "##खाना": 6306,
      "बास": 6307,
      "शाखाओ": 6308,
      "कना": 6309,
      "##जियो": 6310,
      "सकलो": 6311,
      "##तनतर": 6312,
      "बोलन": 6313,
      "वाकय": 6314,
      "समरपण": 6315,
      "काबिल": 6316,
      "सौदरय": 6317,
      "जजा": 6318,
      "डिप": 6319,
      "सोल": 6320,
      "##वता": 6321,
      "बीस": 6322,
      "परणालियो": 6323,
      "वाम": 6324,
      "##कसी": 6325,
      "दरजा": 6326,
      "आकडो": 6327,
      "साराश": 6328,
      "परिशरम": 6329,
      "दक": 6330,
      "पित": 6331,
      "भाइयो": 6332,
      "वसततः": 6333,
      "जिदगी": 6334,
      "सगरहालय": 6335,
      "gnome": 6336,
      "शिरक": 6337,
      "इजीनियरी": 6338,
      "आपर": 6339,
      "टप": 6340,
      "१२": 6341,
      "##बाल": 6342,
      "सनाई": 6343,
      "छद": 6344,
      "लशकर": 6345,
      "##खतियार": 6346,
      "विसफ": 6347,
      "सटट": 6348,
      "छोडन": 6349,
      "सरवथा": 6350,
      "धनराशि": 6351,
      "होसट": 6352,
      "यहॉ": 6353,
      "उपकषा": 6354,
      "सतान": 6355,
      "बछ": 6356,
      "##ib": 6357,
      "##फज": 6358,
      "##वात": 6359,
      "रासायन": 6360,
      "उपगरह": 6361,
      "सोम": 6362,
      "url": 6363,
      "सषटि": 6364,
      "निवदन": 6365,
      "काननो": 6366,
      "वयतपनन": 6367,
      "##यग": 6368,
      "##रीम": 6369,
      "##किम": 6370,
      "बढाना": 6371,
      "समझो": 6372,
      "##वयापी": 6373,
      "हलक": 6374,
      "तसदीक": 6375,
      "असी": 6376,
      "कवत": 6377,
      "परिटर": 6378,
      "बहद": 6379,
      "बालक": 6380,
      "वसीयत": 6381,
      "नित": 6382,
      "परदरशक": 6383,
      "सनाओ": 6384,
      "##ॉरट": 6385,
      "मितरता": 6386,
      "हसियत": 6387,
      "परोटीन": 6388,
      "रपरखा": 6389,
      "कशा": 6390,
      "नम": 6391,
      "सती": 6392,
      "पढी": 6393,
      "परदतत": 6394,
      "नफस": 6395,
      "सहान": 6396,
      "##लपना": 6397,
      "साझीदार": 6398,
      "बललबाज": 6399,
      "##यिका": 6400,
      "कविताओ": 6401,
      "आकरषण": 6402,
      "##रति": 6403,
      "वासी": 6404,
      "a¤a¤°a¥a¤": 6405,
      "कथित": 6406,
      "पग": 6407,
      "परकष": 6408,
      "##गाव": 6409,
      "सरदारो": 6410,
      "मजरी": 6411,
      "बचपन": 6412,
      "सभापति": 6413,
      "इजजत": 6414,
      "रचनातमक": 6415,
      "सोचत": 6416,
      "माइकरो": 6417,
      "अजीब": 6418,
      "बय": 6419,
      "परिपक": 6420,
      "नाप": 6421,
      "सौदा": 6422,
      "185": 6423,
      "छपाए": 6424,
      "दारशनिक": 6425,
      "##जट": 6426,
      "विव": 6427,
      "भीड": 6428,
      "पकका": 6429,
      "खरीदन": 6430,
      "परसारण": 6431,
      "डिजिटल": 6432,
      "मशरकीन": 6433,
      "आजीविका": 6434,
      "ईट": 6435,
      "टली": 6436,
      "धान": 6437,
      "##लियो": 6438,
      "##रखा": 6439,
      "##कक": 6440,
      "##ानतर": 6441,
      "समबदध": 6442,
      "बीत": 6443,
      "मधयसथ": 6444,
      "मदरास": 6445,
      "इराक": 6446,
      "इतर": 6447,
      "नमक": 6448,
      "##हब": 6449,
      "होटल": 6450,
      "निरधन": 6451,
      "दशको": 6452,
      "सरविस": 6453,
      "खासकर": 6454,
      "तिहाई": 6455,
      "तीसरी": 6456,
      "अनजाम": 6457,
      "सबका": 6458,
      "##सरत": 6459,
      "करातिकारी": 6460,
      "उडीसा": 6461,
      "लोह": 6462,
      "बाढ": 6463,
      "##ियस": 6464,
      "इनत": 6465,
      "करोध": 6466,
      "परवतत": 6467,
      "डाकटर": 6468,
      "लकषयो": 6469,
      "सहार": 6470,
      "आसतियो": 6471,
      "जहान": 6472,
      "परिसथिति": 6473,
      "उतपादकता": 6474,
      "ठहरात": 6475,
      "हिमाचल": 6476,
      "विजञापन": 6477,
      "सिदधानत": 6478,
      "कबजा": 6479,
      "उडान": 6480,
      "परतिजञा": 6481,
      "विकासशील": 6482,
      "पशओ": 6483,
      "आबाद": 6484,
      "सझ": 6485,
      "##बाई": 6486,
      "बलि": 6487,
      "आयकर": 6488,
      "किराय": 6489,
      "रासायनिक": 6490,
      "टिक": 6491,
      "यानि": 6492,
      "##वाणी": 6493,
      "खलला": 6494,
      "पाठक": 6495,
      "##olor": 6496,
      "##मियम": 6497,
      "##दाज": 6498,
      "किनारा": 6499,
      "item": 6500,
      "गठ": 6501,
      "##ामक": 6502,
      "नामा": 6503,
      "फारसी": 6504,
      "सकलपना": 6505,
      "##मनी": 6506,
      "##ric": 6507,
      "##तापरवक": 6508,
      "विशषा": 6509,
      "लडकियो": 6510,
      "रददी": 6511,
      "आमदनी": 6512,
      "वनय": 6513,
      "२०": 6514,
      "विषा": 6515,
      "महासागर": 6516,
      "गवरनर": 6517,
      "##60": 6518,
      "हाउस": 6519,
      "शादी": 6520,
      "झिल": 6521,
      "##age": 6522,
      "##रथी": 6523,
      "##चनदर": 6524,
      "परहजगारो": 6525,
      "धोखा": 6526,
      "कतिपय": 6527,
      "आकस": 6528,
      "आलख": 6529,
      "अकादमी": 6530,
      "04": 6531,
      "टरा": 6532,
      "##ढियो": 6533,
      "ताब": 6534,
      "मोहन": 6535,
      "##टको": 6536,
      "##शष": 6537,
      "साकषात": 6538,
      "वितरित": 6539,
      "##तरि": 6540,
      "##a¤¨": 6541,
      "कराई": 6542,
      "##काना": 6543,
      "निरगम": 6544,
      "इनको": 6545,
      "37": 6546,
      "##वानी": 6547,
      "अनध": 6548,
      "##सथल": 6549,
      "2009": 6550,
      "एजसियो": 6551,
      "सतम": 6552,
      "##वयो": 6553,
      "##बिया": 6554,
      "##ile": 6555,
      "विशवसनीय": 6556,
      "अनमोदित": 6557,
      "अण": 6558,
      "बटिया": 6559,
      "मिटाना": 6560,
      "हिनदसतान": 6561,
      "##ip": 6562,
      "जगली": 6563,
      "सरवजञ": 6564,
      "लाभो": 6565,
      "बहादर": 6566,
      "तवरित": 6567,
      "दलो": 6568,
      "बिर": 6569,
      "##रपित": 6570,
      "48": 6571,
      "पशी": 6572,
      "कारयालयो": 6573,
      "रखगा": 6574,
      "महनत": 6575,
      "विनियमन": 6576,
      "अनकमपा": 6577,
      "भडकती": 6578,
      "##हद": 6579,
      "काग": 6580,
      "विधिक": 6581,
      "राषटरी": 6582,
      "नीव": 6583,
      "तनाव": 6584,
      "फिलीसतीनी": 6585,
      "##lo": 6586,
      "उपज": 6587,
      "दिखात": 6588,
      "महरबानी": 6589,
      "सगणना": 6590,
      "आजमाइश": 6591,
      "मानको": 6592,
      "पनरा": 6593,
      "बढाया": 6594,
      "फरमाबरदार": 6595,
      "सवाधीनता": 6596,
      "एखतयार": 6597,
      "रश": 6598,
      "##ऊद": 6599,
      "##हीत": 6600,
      "झठलाओग": 6601,
      "छिपात": 6602,
      "परहजगारी": 6603,
      "##गमन": 6604,
      "सहभाग": 6605,
      "टीका": 6606,
      "चितरण": 6607,
      "बरसात": 6608,
      "सहानभति": 6609,
      "इट": 6610,
      "वदध": 6611,
      "रहकर": 6612,
      "सचर": 6613,
      "नारायण": 6614,
      "फॉर": 6615,
      "हिला": 6616,
      "परषक": 6617,
      "##विदा": 6618,
      "##कषरता": 6619,
      "a¤¸a¤": 6620,
      "##निया": 6621,
      "##कप": 6622,
      "##13": 6623,
      "सनिको": 6624,
      "जिलो": 6625,
      "po": 6626,
      "##यातमक": 6627,
      "खोलकर": 6628,
      "सडको": 6629,
      "गायब": 6630,
      "आईडी": 6631,
      "वाकई": 6632,
      "उतकषटता": 6633,
      "धल": 6634,
      "##िसत": 6635,
      "अवकाश": 6636,
      "कराता": 6637,
      "मिशरित": 6638,
      "इश": 6639,
      "सबकी": 6640,
      "आएग": 6641,
      "जयती": 6642,
      "बागलादश": 6643,
      "as": 6644,
      "परतिलिपि": 6645,
      "तलग": 6646,
      "मागता": 6647,
      "परभारय": 6648,
      "शिलप": 6649,
      "मतभद": 6650,
      "सतमभ": 6651,
      "गत": 6652,
      "डन": 6653,
      "##im": 6654,
      "अनन": 6655,
      "बनायी": 6656,
      "##िगटन": 6657,
      "बकअप": 6658,
      "विसफोट": 6659,
      "##ारम": 6660,
      "सचि": 6661,
      "##lation": 6662,
      "मजदरो": 6663,
      "##यती": 6664,
      "##बारी": 6665,
      "सबत": 6666,
      "##शाही": 6667,
      "मोती": 6668,
      "##जलि": 6669,
      "बजर": 6670,
      "सय": 6671,
      "सजित": 6672,
      "परतिरोध": 6673,
      "महफज": 6674,
      "पहचती": 6675,
      "सविच": 6676,
      "लखापरी": 6677,
      "गध": 6678,
      "जार": 6679,
      "लस": 6680,
      "##ताप": 6681,
      "पाप": 6682,
      "किताबो": 6683,
      "बलात": 6684,
      "##पलट": 6685,
      "मडप": 6686,
      "चिनह": 6687,
      "##ting": 6688,
      "कवर": 6689,
      "अधिकत": 6690,
      "बरतन": 6691,
      "गोली": 6692,
      "मराठी": 6693,
      "लौह": 6694,
      "उननयन": 6695,
      "सरीही": 6696,
      "सवदनशील": 6697,
      "निवारण": 6698,
      "मअ": 6699,
      "समीकरण": 6700,
      "निचल": 6701,
      "छिपी": 6702,
      "इलजाम": 6703,
      "जॉर": 6704,
      "रशम": 6705,
      "##ालयो": 6706,
      "मनय": 6707,
      "लडन": 6708,
      "अनशासन": 6709,
      "पाबनदी": 6710,
      "डॉकटर": 6711,
      "दनी": 6712,
      "रिश": 6713,
      "##ारथियो": 6714,
      "बॉकस": 6715,
      "88": 6716,
      "चत": 6717,
      "##aa": 6718,
      "परित": 6719,
      "सवदश": 6720,
      "नामो": 6721,
      "दाए": 6722,
      "एमएस": 6723,
      "परषण": 6724,
      "गरीन": 6725,
      "1956": 6726,
      "इलाको": 6727,
      "निराशा": 6728,
      "##किल": 6729,
      "अनद": 6730,
      "##बरग": 6731,
      "##िपी": 6732,
      "##पीआई": 6733,
      "रजिसट": 6734,
      "भतता": 6735,
      "##टिन": 6736,
      "बतौर": 6737,
      "अधिसचित": 6738,
      "परावधानो": 6739,
      "मफत": 6740,
      "निदा": 6741,
      "बढिया": 6742,
      "रोजा": 6743,
      "बखबर": 6744,
      "एशियाई": 6745,
      "आपात": 6746,
      "पडोस": 6747,
      "असभव": 6748,
      "सजद": 6749,
      "लप": 6750,
      "१६": 6751,
      "तरल": 6752,
      "समायोजन": 6753,
      "विशषताए": 6754,
      "गणततर": 6755,
      "चौपा": 6756,
      "नतीजा": 6757,
      "06": 6758,
      "जॉन": 6759,
      "लज": 6760,
      "कोट": 6761,
      "वयषटि": 6762,
      "##पीठ": 6763,
      "घरवालो": 6764,
      "धरमो": 6765,
      "अधयकषता": 6766,
      "अपराधियो": 6767,
      "परहजगार": 6768,
      "##lic": 6769,
      "a¤¬": 6770,
      "डालना": 6771,
      "सौपा": 6772,
      "दमन": 6773,
      "##झान": 6774,
      "परबनध": 6775,
      "दादाओ": 6776,
      "जज": 6777,
      "बाड": 6778,
      "दरखत": 6779,
      "महिमा": 6780,
      "चककर": 6781,
      "सभाल": 6782,
      "दरवा": 6783,
      "अभियकत": 6784,
      "फरमाएगा": 6785,
      "लाखो": 6786,
      "बरसाया": 6787,
      "गरनथ": 6788,
      "चिर": 6789,
      "छः": 6790,
      "##िकशन": 6791,
      "##िएशन": 6792,
      "##वशयक": 6793,
      "मनन": 6794,
      "परापतकरता": 6795,
      "पकषियो": 6796,
      "##ीलड": 6797,
      "ठाकर": 6798,
      "सयोग": 6799,
      "तमही": 6800,
      "नीद": 6801,
      "##हाक": 6802,
      "##ासा": 6803,
      "कारगर": 6804,
      "कारयपालिका": 6805,
      "वकतवय": 6806,
      "जबरदसती": 6807,
      "वरगीकरण": 6808,
      "गोर": 6809,
      "घस": 6810,
      "##कना": 6811,
      "इसपात": 6812,
      "कारमिक": 6813,
      "सतति": 6814,
      "ढढन": 6815,
      "चितन": 6816,
      "तदनसार": 6817,
      "अकट": 6818,
      "चब": 6819,
      "##गिर": 6820,
      "##घो": 6821,
      "किमी": 6822,
      "सवधानिक": 6823,
      "दरवय": 6824,
      "राजकमार": 6825,
      "आईसी": 6826,
      "रिकॉरड": 6827,
      "##खल": 6828,
      "कलम": 6829,
      "दाऊद": 6830,
      "इतजार": 6831,
      "मोहलत": 6832,
      "परवाहित": 6833,
      "धमकी": 6834,
      "इलकटरॉनिक": 6835,
      "uri": 6836,
      "कनन": 6837,
      "दफा": 6838,
      "राधा": 6839,
      "सखती": 6840,
      "सगराम": 6841,
      "गोपन": 6842,
      "सकरिपट": 6843,
      "टनिस": 6844,
      "परिकलपना": 6845,
      "पिकसल": 6846,
      "##साइटी": 6847,
      "जता": 6848,
      "##िनत": 6849,
      "डाटाबस": 6850,
      "हकीकत": 6851,
      "अटल": 6852,
      "##नीतिक": 6853,
      "खातो": 6854,
      "मथ": 6855,
      "##दाम": 6856,
      "बीवी": 6857,
      "पतनियो": 6858,
      "शिषट": 6859,
      "##box": 6860,
      "बहम": 6861,
      "सखी": 6862,
      "अदभत": 6863,
      "टगोर": 6864,
      "बातिल": 6865,
      "गरप": 6866,
      "##धरम": 6867,
      "लाई": 6868,
      "समरथक": 6869,
      "सकलन": 6870,
      "अपरतयाशित": 6871,
      "a¤®a¥a¤": 6872,
      "अनाथ": 6873,
      "परभाग": 6874,
      "होश": 6875,
      "##दाद": 6876,
      "##साई": 6877,
      "विकलाग": 6878,
      "विदशो": 6879,
      "जाननवाला": 6880,
      "पागल": 6881,
      "सोसाइटी": 6882,
      "एनको": 6883,
      "मनाफिक": 6884,
      "कलाम": 6885,
      "बताओ": 6886,
      "शपथ": 6887,
      "करबानी": 6888,
      "##सतानी": 6889,
      "##चछदन": 6890,
      "परशिकषित": 6891,
      "सचरिता": 6892,
      "कबर": 6893,
      "विलय": 6894,
      "यातरी": 6895,
      "बनाती": 6896,
      "सहभा": 6897,
      "मील": 6898,
      "सारवभौ": 6899,
      "कहानियो": 6900,
      "फौज": 6901,
      "बधन": 6902,
      "मदी": 6903,
      "##ोद": 6904,
      "सबन": 6905,
      "दरस": 6906,
      "परतिक": 6907,
      "अवसरचना": 6908,
      "ठहराए": 6909,
      "and": 6910,
      "मॉडयल": 6911,
      "ऋत": 6912,
      "टोक": 6913,
      "मचा": 6914,
      "##णता": 6915,
      "##am": 6916,
      "दरलभ": 6917,
      "##जञानी": 6918,
      "बदलना": 6919,
      "##ine": 6920,
      "परभतव": 6921,
      "सालो": 6922,
      "पसतकालय": 6923,
      "वषणव": 6924,
      "चिट": 6925,
      "डवल": 6926,
      "सली": 6927,
      "##िथम": 6928,
      "##णट": 6929,
      "एकड": 6930,
      "साप": 6931,
      "उतसव": 6932,
      "##बररी": 6933,
      "खोजन": 6934,
      "रसवा": 6935,
      "तालिका": 6936,
      "परिचालन": 6937,
      "वतति": 6938,
      "##ast": 6939,
      "यहदियो": 6940,
      "सवन": 6941,
      "आजकल": 6942,
      "उपलबधियो": 6943,
      "निकलत": 6944,
      "पिछड": 6945,
      "उपभोग": 6946,
      "भागीदार": 6947,
      "बोर": 6948,
      "##गोर": 6949,
      "दरसत": 6950,
      "राजन": 6951,
      "अतिमान": 6952,
      "परयव": 6953,
      "रपातरण": 6954,
      "दफ": 6955,
      "##50": 6956,
      "विस": 6957,
      "चादी": 6958,
      "कषतिज": 6959,
      "al": 6960,
      "इकार": 6961,
      "इधर": 6962,
      "पबलिक": 6963,
      "११": 6964,
      "##गना": 6965,
      "##कारियो": 6966,
      "हिससो": 6967,
      "परियोजनाए": 6968,
      "आकरषक": 6969,
      "इदिरा": 6970,
      "मसर": 6971,
      "##चय": 6972,
      "विपकष": 6973,
      "नियो": 6974,
      "बिछ": 6975,
      "सरवपर": 6976,
      "अनतरराषटरीय": 6977,
      "हडडी": 6978,
      "सपा": 6979,
      "सगत": 6980,
      "##करार": 6981,
      "निरनतर": 6982,
      "परणतया": 6983,
      "2010": 6984,
      "घोष": 6985,
      "उपरयकत": 6986,
      "gt": 6987,
      "अचल": 6988,
      "बसव": 6989,
      "##पीसी": 6990,
      "##पटल": 6991,
      "निवशको": 6992,
      "एकसचज": 6993,
      "मकाबला": 6994,
      "इसहाक": 6995,
      "जोडना": 6996,
      "नियतरक": 6997,
      "माहौल": 6998,
      "एट": 6999,
      "##डब": 7000,
      "##oc": 7001,
      "सचक": 7002,
      "पढना": 7003,
      "लौटन": 7004,
      "मागन": 7005,
      "कारयकारी": 7006,
      "बीवियो": 7007,
      "हाई": 7008,
      "पहचाया": 7009,
      "##stel": 7010,
      "उपनिवश": 7011,
      "300": 7012,
      "us": 7013,
      "##लका": 7014,
      "##भकत": 7015,
      "एकतरित": 7016,
      "जोडी": 7017,
      "परतिमा": 7018,
      "परिष": 7019,
      "परिणामो": 7020,
      "##महल": 7021,
      "##ोनि": 7022,
      "राजाओ": 7023,
      "औषधि": 7024,
      "टॉगल": 7025,
      "ऑसटर": 7026,
      "वॉ": 7027,
      "कानो": 7028,
      "टरास": 7029,
      "बलो": 7030,
      "वात": 7031,
      "##ोश": 7032,
      "सादा": 7033,
      "##यारह": 7034,
      "पहचाए": 7035,
      "कशती": 7036,
      "कॉरप": 7037,
      "अमत": 7038,
      "इदर": 7039,
      "कबीर": 7040,
      "करिस": 7041,
      "कोमल": 7042,
      "##तीस": 7043,
      "लायक": 7044,
      "मरया": 7045,
      "सकतक": 7046,
      "उलझ": 7047,
      "tit": 7048,
      "##पानी": 7049,
      "##चद": 7050,
      "##कोष": 7051,
      "आपत": 7052,
      "अकटबर": 7053,
      "नन": 7054,
      "रिम": 7055,
      "रगो": 7056,
      "निबध": 7057,
      "लाभा": 7058,
      "मारक": 7059,
      "गतिविधिया": 7060,
      "##ाण": 7061,
      "##ke": 7062,
      "अपवाद": 7063,
      "डालर": 7064,
      "कमीशन": 7065,
      "शासतरी": 7066,
      "a¤¸a¤a¤": 7067,
      "इसलिय": 7068,
      "सरवशर": 7069,
      "डक": 7070,
      "पिल": 7071,
      "नियन": 7072,
      "हरक": 7073,
      "सघन": 7074,
      "खोला": 7075,
      "शबदा": 7076,
      "रियासत": 7077,
      "निरमाता": 7078,
      "विटामिन": 7079,
      "दरसचार": 7080,
      "title": 7081,
      "वसल": 7082,
      "##यला": 7083,
      "##षमा": 7084,
      "##gle": 7085,
      "जरिय": 7086,
      "मीम": 7087,
      "शोषण": 7088,
      "पजत": 7089,
      "गयारह": 7090,
      "तयो": 7091,
      "एकसट": 7092,
      "मापन": 7093,
      "##यमतरी": 7094,
      "सोचन": 7095,
      "बचचन": 7096,
      "इसलामवादी": 7097,
      "नाटको": 7098,
      "पटरोलियम": 7099,
      "लहर": 7100,
      "##बदो": 7101,
      "अपित": 7102,
      "##दाताओ": 7103,
      "वायर": 7104,
      "सहजन": 7105,
      "कनदरो": 7106,
      "दीवारो": 7107,
      "मदरित": 7108,
      "सिखाया": 7109,
      "वरीयता": 7110,
      "##stellation": 7111,
      "खार": 7112,
      "नाल": 7113,
      "लडी": 7114,
      "##बरट": 7115,
      "समापन": 7116,
      "150": 7117,
      "सलाहकार": 7118,
      "ततकालीन": 7119,
      "आकसमिक": 7120,
      "सरवशरषठ": 7121,
      "सदि": 7122,
      "##ौलत": 7123,
      "##कीर": 7124,
      "मरयम": 7125,
      "आसटर": 7126,
      "किसन": 7127,
      "हालात": 7128,
      "##मलव": 7129,
      "सवीकारय": 7130,
      "बाजारो": 7131,
      "but": 7132,
      "षड": 7133,
      "##फाइ": 7134,
      "##ms": 7135,
      "समकालीन": 7136,
      "सनवाई": 7137,
      "सपरश": 7138,
      "भाषाए": 7139,
      "झठलात": 7140,
      "दीरघा": 7141,
      "इखतयार": 7142,
      "एखतियार": 7143,
      "रगम": 7144,
      "##हाबाद": 7145,
      "सनदश": 7146,
      "##ink": 7147,
      "हसतातरण": 7148,
      "फिटकार": 7149,
      "you": 7150,
      "किरण": 7151,
      "परतिवरष": 7152,
      "बनो": 7153,
      "##फलक": 7154,
      "सलत": 7155,
      "नताजी": 7156,
      "खिसकाए": 7157,
      "on": 7158,
      "आरा": 7159,
      "इजन": 7160,
      "##59": 7161,
      "##हासन": 7162,
      "बारिश": 7163,
      "शरारत": 7164,
      "हरिया": 7165,
      "खाए": 7166,
      "कलिपबोरड": 7167,
      "झिलली": 7168,
      "बही": 7169,
      "भजना": 7170,
      "##खय": 7171,
      "पीडीएफ": 7172,
      "पनल": 7173,
      "मामली": 7174,
      "एसोस": 7175,
      "##end": 7176,
      "1948": 7177,
      "इनहोन": 7178,
      "अहमद": 7179,
      "उततराधिकारी": 7180,
      "##ext": 7181,
      "cd": 7182,
      "लाह": 7183,
      "हिनदओ": 7184,
      "गीतो": 7185,
      "बताना": 7186,
      "prh0": 7187,
      "जरमन": 7188,
      "करमाक": 7189,
      "आवासी": 7190,
      "गवा": 7191,
      "##डना": 7192,
      "मतक": 7193,
      "सकषप": 7194,
      "घम": 7195,
      "सअर": 7196,
      "##भज": 7197,
      "##िकीकरण": 7198,
      "परकोप": 7199,
      "खजान": 7200,
      "लाम": 7201,
      "##डम": 7202,
      "##¦a¥a¤": 7203,
      "निमित": 7204,
      "##टीय": 7205,
      "बदौलत": 7206,
      "##िपरा": 7207,
      "##एमएल": 7208,
      "अवजञाकारी": 7209,
      "यौन": 7210,
      "सरवपरथम": 7211,
      "गलो": 7212,
      "सधारन": 7213,
      "१९८": 7214,
      "सगरहण": 7215,
      "आवि": 7216,
      "खजर": 7217,
      "नमत": 7218,
      "रतन": 7219,
      "##sh": 7220,
      "परमा": 7221,
      "##दाबाद": 7222,
      "अनकरण": 7223,
      "सवदना": 7224,
      "परतिर": 7225,
      "निकला": 7226,
      "कपडा": 7227,
      "सालह": 7228,
      "##समय": 7229,
      "किलोगराम": 7230,
      "पषप": 7231,
      "##ोरम": 7232,
      "##कषात": 7233,
      "समझान": 7234,
      "परवक": 7235,
      "ससथाए": 7236,
      "एलगोर": 7237,
      "पराणियो": 7238,
      "दोषी": 7239,
      "42": 7240,
      "ऑटो": 7241,
      "घमड": 7242,
      "टकरा": 7243,
      "निरण": 7244,
      "##विशवास": 7245,
      "मिलान": 7246,
      "किराया": 7247,
      "बरहमा": 7248,
      "ओड": 7249,
      "कडा": 7250,
      "##पयोग": 7251,
      "##फता": 7252,
      "समता": 7253,
      "रातो": 7254,
      "रखरखा": 7255,
      "उममीदवार": 7256,
      "आनदोलन": 7257,
      "रखरखाव": 7258,
      "डबो": 7259,
      "##मिया": 7260,
      "अनभति": 7261,
      "निरवाह": 7262,
      "कमयन": 7263,
      "मरख": 7264,
      "मजिसटर": 7265,
      "##are": 7266,
      "##art": 7267,
      "आशका": 7268,
      "झगडा": 7269,
      "एणड": 7270,
      "खवा": 7271,
      "उठता": 7272,
      "अहिसा": 7273,
      "लौटकर": 7274,
      "he": 7275,
      "फड": 7276,
      "##एक": 7277,
      "नियोजन": 7278,
      "उपहार": 7279,
      "दरव": 7280,
      "दरगजर": 7281,
      "वाछित": 7282,
      "चहरा": 7283,
      "जलील": 7284,
      "इसमा": 7285,
      "अवगत": 7286,
      "आखिरी": 7287,
      "हिदओ": 7288,
      "तफान": 7289,
      "रका": 7290,
      "##यड": 7291,
      "##mi": 7292,
      "सापरदायिक": 7293,
      "लौटना": 7294,
      "समाजवादी": 7295,
      "पडोसी": 7296,
      "app": 7297,
      "इजीनियरिग": 7298,
      "सलतनत": 7299,
      "कथ": 7300,
      "तारो": 7301,
      "बतो": 7302,
      "साकषरता": 7303,
      "##बामा": 7304,
      "सटोर": 7305,
      "मधमह": 7306,
      "एनआई": 7307,
      "मोहता": 7308,
      "आघात": 7309,
      "पॉप": 7310,
      "बदी": 7311,
      "विवश": 7312,
      "अलपस": 7313,
      "अवसथित": 7314,
      "बहदव": 7315,
      "परवोततर": 7316,
      "सदतत": 7317,
      "##तोष": 7318,
      "फिलीसतीन": 7319,
      "उतसरजन": 7320,
      "खशन": 7321,
      "##टट": 7322,
      "##बझ": 7323,
      "##ah": 7324,
      "निरपकष": 7325,
      "रोशनी": 7326,
      "आशरम": 7327,
      "समारक": 7328,
      "टाइमस": 7329,
      "छपाई": 7330,
      "इचछक": 7331,
      "चारा": 7332,
      "बकस": 7333,
      "##ain": 7334,
      "सोव": 7335,
      "फलन": 7336,
      "187": 7337,
      "कलो": 7338,
      "दशमलव": 7339,
      "परामी": 7340,
      "मनोरजन": 7341,
      "टकन": 7342,
      "##िकोड": 7343,
      "##तरिकी": 7344,
      "अधा": 7345,
      "##लीस": 7346,
      "पकारो": 7347,
      "विसतारित": 7348,
      "पादप": 7349,
      "परतिबदधता": 7350,
      "##काक": 7351,
      "आनवशिक": 7352,
      "पीछला": 7353,
      "iv": 7354,
      "lex": 7355,
      "जहाद": 7356,
      "कराए": 7357,
      "दगध": 7358,
      "goo": 7359,
      "ऑपर": 7360,
      "रोचक": 7361,
      "लडत": 7362,
      "निकलता": 7363,
      "a¤¨a¤": 7364,
      "उग": 7365,
      "घबरा": 7366,
      "जापानी": 7367,
      "##गाठ": 7368,
      "##ाराम": 7369,
      "##लयर": 7370,
      "वरतनी": 7371,
      "ima": 7372,
      "##सिया": 7373,
      "अनो": 7374,
      "अभयार": 7375,
      "पढकर": 7376,
      "##सटिक": 7377,
      "गतिशील": 7378,
      "गरभाशय": 7379,
      "आवतति": 7380,
      "ओवर": 7381,
      "कमान": 7382,
      "##टिव": 7383,
      "समभावना": 7384,
      "##जाइश": 7385,
      "पाओ": 7386,
      "कलब": 7387,
      "##बनधन": 7388,
      "निकालना": 7389,
      "गमभीर": 7390,
      "सवचछता": 7391,
      "झगडत": 7392,
      "धयय": 7393,
      "##ययन": 7394,
      "##कश": 7395,
      "साकार": 7396,
      "उतपर": 7397,
      "अवतार": 7398,
      "महया": 7399,
      "अनसमति": 7400,
      "सनातक": 7401,
      "मसौ": 7402,
      "##हीनता": 7403,
      "भदभाव": 7404,
      "हरम": 7405,
      "१७": 7406,
      "##किया": 7407,
      "विखयात": 7408,
      "##िनट": 7409,
      "बनत": 7410,
      "उनमलन": 7411,
      "सदनो": 7412,
      "फीड": 7413,
      "##ककष": 7414,
      "परचर": 7415,
      "दीकषात": 7416,
      "कामका": 7417,
      "हारडवयर": 7418,
      "कतरा": 7419,
      "खिड": 7420,
      "ढाल": 7421,
      "मटर": 7422,
      "काटन": 7423,
      "जानवाल": 7424,
      "विकिरण": 7425,
      "आगमन": 7426,
      "परशानी": 7427,
      "रोम": 7428,
      "लडको": 7429,
      "मतरियो": 7430,
      "मासटरस": 7431,
      "##oun": 7432,
      "टिपपण": 7433,
      "दष": 7434,
      "##per": 7435,
      "कीटना": 7436,
      "##गरो": 7437,
      "सबब": 7438,
      "पदावार": 7439,
      "उठाकर": 7440,
      "अपीलारथी": 7441,
      "निभाई": 7442,
      "धीमी": 7443,
      "विडोज": 7444,
      "##eneric": 7445,
      "आधिकार": 7446,
      "जदा": 7447,
      "वान": 7448,
      "##जिग": 7449,
      "##नाइट": 7450,
      "लगगा": 7451,
      "अतरित": 7452,
      "विनि": 7453,
      "पशवर": 7454,
      "कनाडा": 7455,
      "जिब": 7456,
      "##con": 7457,
      "बायो": 7458,
      "टरन": 7459,
      "##णायक": 7460,
      "परतिनिधियो": 7461,
      "अमानत": 7462,
      "चटटान": 7463,
      "दोग": 7464,
      "##वशन": 7465,
      "##षम": 7466,
      "##गय": 7467,
      "कारयवाह": 7468,
      "हलकी": 7469,
      "अनिवासी": 7470,
      "असतय": 7471,
      "सतयागरह": 7472,
      "निमितत": 7473,
      "उछ": 7474,
      "ओबामा": 7475,
      "सपत": 7476,
      "##तिर": 7477,
      "पाड": 7478,
      "जनक": 7479,
      "परसव": 7480,
      "पततन": 7481,
      "दिखला": 7482,
      "डटाबस": 7483,
      "सथिरता": 7484,
      "विशषाधिकार": 7485,
      "रगमच": 7486,
      "आगाह": 7487,
      "सथलो": 7488,
      "कहती": 7489,
      "उपाधि": 7490,
      "##ount": 7491,
      "विलियम": 7492,
      "रोड": 7493,
      "##10": 7494,
      "बाई": 7495,
      "नीतिगत": 7496,
      "निसबत": 7497,
      "मनाया": 7498,
      "मतरीपरण": 7499,
      "गिरोहो": 7500,
      "साझीदारी": 7501,
      "साकषातकार": 7502,
      "उडन": 7503,
      "जवर": 7504,
      "भोग": 7505,
      "##पीय": 7506,
      "समट": 7507,
      "सशसतर": 7508,
      "वतत": 7509,
      "##खरा": 7510,
      "कमटी": 7511,
      "बहि": 7512,
      "कसमो": 7513,
      "पतत": 7514,
      "वहन": 7515,
      "महज": 7516,
      "बढना": 7517,
      "सघीय": 7518,
      "गरीबो": 7519,
      "सोचता": 7520,
      "उरवरक": 7521,
      "अधिकाधिक": 7522,
      "गनी": 7523,
      "घणा": 7524,
      "मणि": 7525,
      "##बज": 7526,
      "##शिल": 7527,
      "##लापो": 7528,
      "जिनपर": 7529,
      "पडगी": 7530,
      "वरषगाठ": 7531,
      "उपयोगिता": 7532,
      "##टनर": 7533,
      "टीवी": 7534,
      "परयटको": 7535,
      "रजिसटरी": 7536,
      "यव": 7537,
      "##िषण": 7538,
      "परगा": 7539,
      "##विग": 7540,
      "बरसरो": 7541,
      "सोना": 7542,
      "अपरिय": 7543,
      "इलाहाबाद": 7544,
      "मदरण": 7545,
      "कॉनफिगरशन": 7546,
      "38": 7547,
      "कज": 7548,
      "यान": 7549,
      "##कताओ": 7550,
      "##ओएस": 7551,
      "##ai": 7552,
      "##ob": 7553,
      "##¨a¥a¤": 7554,
      "पायी": 7555,
      "गिरद": 7556,
      "##परापत": 7557,
      "कबरो": 7558,
      "विधियो": 7559,
      "prh2": 7560,
      "google": 7561,
      "ऑपरशन": 7562,
      "छल": 7563,
      "ढक": 7564,
      "भयान": 7565,
      "##िडा": 7566,
      "##पहर": 7567,
      "सवतनतर": 7568,
      "लीजिए": 7569,
      "छाट": 7570,
      "नयायपालिका": 7571,
      "दौरा": 7572,
      "अभिवयकत": 7573,
      "नोटिस": 7574,
      "कबी": 7575,
      "##यदध": 7576,
      "कोयला": 7577,
      "अनजञा": 7578,
      "दशवासियो": 7579,
      "सिहासन": 7580,
      "हरकत": 7581,
      "अभिनन": 7582,
      "नवीनतम": 7583,
      "org": 7584,
      "आधिकारिक": 7585,
      "##दिता": 7586,
      "भयकर": 7587,
      "सटाफ": 7588,
      "मोल": 7589,
      "##30": 7590,
      "परयो": 7591,
      "करसी": 7592,
      "अधरा": 7593,
      "##मानो": 7594,
      "सचिका": 7595,
      "समझी": 7596,
      "बिता": 7597,
      "शाही": 7598,
      "असफलता": 7599,
      "शरमिक": 7600,
      "उपभोकताओ": 7601,
      "अटकल": 7602,
      "action": 7603,
      "आभा": 7604,
      "खपत": 7605,
      "डिर": 7606,
      "रसो": 7607,
      "##मण": 7608,
      "##हाली": 7609,
      "काउस": 7610,
      "##लापन": 7611,
      "##गात": 7612,
      "##ोरशन": 7613,
      "नीतिया": 7614,
      "कपनिया": 7615,
      "यनि": 7616,
      "रढ": 7617,
      "##बदी": 7618,
      "##ालक": 7619,
      "अनकरिया": 7620,
      "##ासत": 7621,
      "दरगा": 7622,
      "बरक": 7623,
      "##शीदा": 7624,
      "मखयालय": 7625,
      "टसट": 7626,
      "विगत": 7627,
      "सधारो": 7628,
      "निरदशो": 7629,
      "अनमानित": 7630,
      "64": 7631,
      "चख": 7632,
      "मनत": 7633,
      "##सथापन": 7634,
      "सनातको": 7635,
      "खराबी": 7636,
      "फोक": 7637,
      "सिया": 7638,
      "##qu": 7639,
      "वयाकरण": 7640,
      "गजब": 7641,
      "##िपीडिया": 7642,
      "परगाढ": 7643,
      "पष": 7644,
      "यती": 7645,
      "सफी": 7646,
      "##सिस": 7647,
      "समपर": 7648,
      "##पतय": 7649,
      "सटॉक": 7650,
      "पतली": 7651,
      "नौकर": 7652,
      "काउसिल": 7653,
      "सजीव": 7654,
      "##िरत": 7655,
      "##गाम": 7656,
      "वरना": 7657,
      "कहकर": 7658,
      "शरीलका": 7659,
      "जगन": 7660,
      "आशवासन": 7661,
      "निरवाचित": 7662,
      "विलोपित": 7663,
      "तान": 7664,
      "योनि": 7665,
      "##यित": 7666,
      "##af": 7667,
      "नाव": 7668,
      "सनह": 7669,
      "इर": 7670,
      "झड": 7671,
      "दोहर": 7672,
      "गरड": 7673,
      "##tic": 7674,
      "पारिश": 7675,
      "विनमर": 7676,
      "भजत": 7677,
      "सकाय": 7678,
      "शीत": 7679,
      "गजराती": 7680,
      "निल": 7681,
      "बयरो": 7682,
      "हकट": 7683,
      "##रील": 7684,
      "निविदा": 7685,
      "हरष": 7686,
      "यनियन": 7687,
      "कदाचित": 7688,
      "अनयायी": 7689,
      "मसत": 7690,
      "##मताओ": 7691,
      "##िडी": 7692,
      "##धो": 7693,
      "सिख": 7694,
      "बलाए": 7695,
      "दबाए": 7696,
      "डबलय": 7697,
      "उननति": 7698,
      "पदरह": 7699,
      "##ear": 7700,
      "##der": 7701,
      "किश": 7702,
      "कोषठ": 7703,
      "सवानि": 7704,
      "विशदध": 7705,
      "अभय": 7706,
      "खाका": 7707,
      "सवयवहार": 7708,
      "डाइ": 7709,
      "शत": 7710,
      "##सिब": 7711,
      "##जीर": 7712,
      "कमजो": 7713,
      "सवायत": 7714,
      "खासी": 7715,
      "पाठको": 7716,
      "साझदारी": 7717,
      "कठिनाइयो": 7718,
      "बादशाही": 7719,
      "लाय": 7720,
      "मौक": 7721,
      "महिलाए": 7722,
      "अनभवो": 7723,
      "लाइबररी": 7724,
      "मिथया": 7725,
      "ऑर": 7726,
      "वदा": 7727,
      "##णीय": 7728,
      "गरिमा": 7729,
      "सथाई": 7730,
      "झठी": 7731,
      "##ory": 7732,
      "आशतोष": 7733,
      "अधयापक": 7734,
      "अतयाचारियो": 7735,
      "कविताए": 7736,
      "अपरतयकष": 7737,
      "65": 7738,
      "दबारा": 7739,
      "रातरि": 7740,
      "##ियारो": 7741,
      "परिपरण": 7742,
      "##शाह": 7743,
      "सनाय": 7744,
      "##irat": 7745,
      "आचार": 7746,
      "जविक": 7747,
      "##लिग": 7748,
      "##सपी": 7749,
      "##शवत": 7750,
      "##ii": 7751,
      "गरिड": 7752,
      "तारीफ": 7753,
      "कारयकलापो": 7754,
      "रिमोट": 7755,
      "नारी": 7756,
      "भस": 7757,
      "एकजट": 7758,
      "अगरसर": 7759,
      "आरय": 7760,
      "सचनाए": 7761,
      "रिहा": 7762,
      "परगतिशील": 7763,
      "1950": 7764,
      "हिममत": 7765,
      "परदाह": 7766,
      "परजाति": 7767,
      "आगामी": 7768,
      "खाम": 7769,
      "गग": 7770,
      "चह": 7771,
      "चरा": 7772,
      "नान": 7773,
      "##नट": 7774,
      "बाया": 7775,
      "निदान": 7776,
      "सरप": 7777,
      "विकरता": 7778,
      "परौढ": 7779,
      "निषपकष": 7780,
      "१९७": 7781,
      "विततपो": 7782,
      "विजट": 7783,
      "पषट": 7784,
      "मदा": 7785,
      "समकित": 7786,
      "बदकार": 7787,
      "मारत": 7788,
      "सारथक": 7789,
      "ससथागत": 7790,
      "1992": 7791,
      "लकषणो": 7792,
      "अखड": 7793,
      "टरी": 7794,
      "##कका": 7795,
      "##19": 7796,
      "##िकरम": 7797,
      "लिप": 7798,
      "रहोग": 7799,
      "दोपहर": 7800,
      "##िशा": 7801,
      "पडग": 7802,
      "##कटरो": 7803,
      "##निहित": 7804,
      "करियाओ": 7805,
      "कनदरित": 7806,
      "इचछाओ": 7807,
      "पछताछ": 7808,
      "what": 7809,
      "wind": 7810,
      "मव": 7811,
      "भरषटा": 7812,
      "पाएगा": 7813,
      "विधवा": 7814,
      "किराए": 7815,
      "शासतरीय": 7816,
      "वशी": 7817,
      "##मोहन": 7818,
      "तरनत": 7819,
      "ईमानदारी": 7820,
      "##दोष": 7821,
      "लोप": 7822,
      "गोला": 7823,
      "सलह": 7824,
      "घाव": 7825,
      "भटका": 7826,
      "rav": 7827,
      "ऑखो": 7828,
      "मनी": 7829,
      "किला": 7830,
      "जाऊ": 7831,
      "##वाट": 7832,
      "##कोर": 7833,
      "निरणायक": 7834,
      "वाश": 7835,
      "##रपण": 7836,
      "पहचना": 7837,
      "बठन": 7838,
      "मोटा": 7839,
      "जमाअत": 7840,
      "कीमतो": 7841,
      "नदिया": 7842,
      "पशा": 7843,
      "##ियामक": 7844,
      "##हतान": 7845,
      "##जागर": 7846,
      "मागा": 7847,
      "दखिए": 7848,
      "विकिपीडिया": 7849,
      "##lami": 7850,
      "बोहतान": 7851,
      "अशोक": 7852,
      "मशरिको": 7853,
      "अलपसखयक": 7854,
      "##iratlami": 7855,
      "raviratlami": 7856,
      "छोर": 7857,
      "टम": 7858,
      "लची": 7859,
      "वग": 7860,
      "##¦a¤": 7861,
      "##वाया": 7862,
      "निकाली": 7863,
      "रोब": 7864,
      "##चनद": 7865,
      "बदरगाह": 7866,
      "अपमानित": 7867,
      "##if": 7868,
      "##फीक": 7869,
      "a¤a¤¾a¤": 7870,
      "मददा": 7871,
      "अतरा": 7872,
      "गोवा": 7873,
      "##नोम": 7874,
      "##लखन": 7875,
      "घायल": 7876,
      "##वासतव": 7877,
      "लाभाश": 7878,
      "भयानक": 7879,
      "झट": 7880,
      "##sl": 7881,
      "##लाइट": 7882,
      "यातरियो": 7883,
      "बिखर": 7884,
      "सचीबदध": 7885,
      "भजता": 7886,
      "मिटान": 7887,
      "सकीरण": 7888,
      "परतिसपरधा": 7889,
      "कहलाता": 7890,
      "गमान": 7891,
      "मढ": 7892,
      "##du": 7893,
      "##गठन": 7894,
      "साचा": 7895,
      "राजमारग": 7896,
      "जलन": 7897,
      "##a¥a¤a¤": 7898,
      "डालगा": 7899,
      "रविशकर": 7900,
      "भाल": 7901,
      "पावर": 7902,
      "कमि": 7903,
      "सतलित": 7904,
      "महाका": 7905,
      "हटाना": 7906,
      "मजाक": 7907,
      "दिलचसप": 7908,
      "खतो": 7909,
      "##आउट": 7910,
      "##योगय": 7911,
      "शरीवासतव": 7912,
      "खाडी": 7913,
      "फायर": 7914,
      "चिडिया": 7915,
      "निपटन": 7916,
      "अमन": 7917,
      "अरपित": 7918,
      "##डट": 7919,
      "अनभ": 7920,
      "##सील": 7921,
      "सकडो": 7922,
      "##परम": 7923,
      "रहस": 7924,
      "विशराम": 7925,
      "गाफिल": 7926,
      "आदशो": 7927,
      "मतरालयो": 7928,
      "दौलत": 7929,
      "उदयमियो": 7930,
      "परजातियो": 7931,
      "window": 7932,
      "यजञ": 7933,
      "शॉरट": 7934,
      "परतिवदन": 7935,
      "वयसक": 7936,
      "चलगा": 7937,
      "कौसिल": 7938,
      "सपरको": 7939,
      "मोटी": 7940,
      "लनदन": 7941,
      "चरित": 7942,
      "शासको": 7943,
      "यआरएल": 7944,
      "सहभागिता": 7945,
      "सचिवाल": 7946,
      "अभयारणय": 7947,
      "दसत": 7948,
      "फका": 7949,
      "##निक": 7950,
      "##खिक": 7951,
      "सिटी": 7952,
      "आगरा": 7953,
      "43": 7954,
      "एप": 7955,
      "तीर": 7956,
      "फिन": 7957,
      "वकर": 7958,
      "१४": 7959,
      "##ion": 7960,
      "विचितर": 7961,
      "आपरा": 7962,
      "अभिर": 7963,
      "बदलत": 7964,
      "नयायाधीशो": 7965,
      "भवय": 7966,
      "##पतियो": 7967,
      "निगह": 7968,
      "##वरग": 7969,
      "अवलोकन": 7970,
      "गरब": 7971,
      "मलयवान": 7972,
      "##sthis": 7973,
      "करियानवयन": 7974,
      "एकसटशन": 7975,
      "55": 7976,
      "bar": 7977,
      "१३": 7978,
      "##लकात": 7979,
      "##एब": 7980,
      "##यापत": 7981,
      "साठ": 7982,
      "##गीर": 7983,
      "शरय": 7984,
      "शासित": 7985,
      "विधानसभा": 7986,
      "बदरददीन": 7987,
      "मरयादा": 7988,
      "##शिला": 7989,
      "परजीवी": 7990,
      "##विजन": 7991,
      "निषपादित": 7992,
      "पोशीदा": 7993,
      "चितरो": 7994,
      "हाइडरो": 7995,
      "आभषण": 7996,
      "सथानातरित": 7997,
      "sy": 7998,
      "तगी": 7999,
      "##िकन": 8000,
      "कारसतान": 8001,
      "निरपित": 8002,
      "माननीय": 8003,
      "बादलो": 8004,
      "पारदरशी": 8005,
      "चरच": 8006,
      "उरवर": 8007,
      "फॉरमट": 8008,
      "lab": 8009,
      "घिर": 8010,
      "डबल": 8011,
      "सिस": 8012,
      "मायन": 8013,
      "सचरण": 8014,
      "पहचता": 8015,
      "सचनाओ": 8016,
      "मौजिजा": 8017,
      "झठलाए": 8018,
      "##०००": 8019,
      "रियायत": 8020,
      "##कसाइड": 8021,
      "एनकोडिग": 8022,
      "मजिसटरट": 8023,
      "समाम": 8024,
      "कारी": 8025,
      "कषमताओ": 8026,
      "बहका": 8027,
      "सामज": 8028,
      "कतार": 8029,
      "##पादक": 8030,
      "1998": 8031,
      "पहाडियो": 8032,
      "लखापरीकषा": 8033,
      "सहभागी": 8034,
      "लाहौर": 8035,
      "किग": 8036,
      "##राइट": 8037,
      "मागी": 8038,
      "मरदा": 8039,
      "##िमब": 8040,
      "असमान": 8041,
      "हिजरत": 8042,
      "कषतिपरति": 8043,
      "whatsthis": 8044,
      "तप": 8045,
      "मवा": 8046,
      "हानिक": 8047,
      "परपतर": 8048,
      "जानती": 8049,
      "मापद": 8050,
      "सनाए": 8051,
      "निरदशित": 8052,
      "महानि": 8053,
      "ठहरन": 8054,
      "कदी": 8055,
      "खि": 8056,
      "##ug": 8057,
      "##ानद": 8058,
      "राजपतर": 8059,
      "चलकर": 8060,
      "चलाना": 8061,
      "तलयक": 8062,
      "वापिस": 8063,
      "बशरत": 8064,
      "कामयाबी": 8065,
      "ठड": 8066,
      "थक": 8067,
      "नफा": 8068,
      "मय": 8069,
      "कपटा": 8070,
      "वयास": 8071,
      "सामदायिक": 8072,
      "शोभा": 8073,
      "नवीकरण": 8074,
      "शसतर": 8075,
      "##बिल": 8076,
      "##ef": 8077,
      "##ov": 8078,
      "निभ": 8079,
      "लौटाए": 8080,
      "सीमाए": 8081,
      "अदवित": 8082,
      "भटान": 8083,
      "label": 8084,
      "चाली": 8085,
      "भभाग": 8086,
      "##तिकी": 8087,
      "##ial": 8088,
      "जीवत": 8089,
      "दीवान": 8090,
      "लगाई": 8091,
      "दिखायी": 8092,
      "महापर": 8093,
      "पराणो": 8094,
      "अभिवदधि": 8095,
      "दातो": 8096,
      "ऑसटरलिया": 8097,
      "अठ": 8098,
      "एजन": 8099,
      "गनोम": 8100,
      "जवान": 8101,
      "तित": 8102,
      "फजी": 8103,
      "शार": 8104,
      "हौ": 8105,
      "हिर": 8106,
      "##ॉस": 8107,
      "##काकल": 8108,
      "किनारो": 8109,
      "दीरघकालिक": 8110,
      "कारयकाल": 8111,
      "सटाक": 8112,
      "रणनीति": 8113,
      "##ype": 8114,
      "पाइप": 8115,
      "कारावास": 8116,
      "ऊतको": 8117,
      "##िटर": 8118,
      "जाऊगा": 8119,
      "##कारड": 8120,
      "अपनाए": 8121,
      "खाई": 8122,
      "परदशो": 8123,
      "कमाया": 8124,
      "सामराजयवाद": 8125,
      "हानिकारक": 8126,
      "इतम": 8127,
      "एर": 8128,
      "##वड": 8129,
      "##करिपट": 8130,
      "अनिशचित": 8131,
      "राव": 8132,
      "##वरधन": 8133,
      "सवचछा": 8134,
      "पीत": 8135,
      "फिलमो": 8136,
      "पदक": 8137,
      "सोवियत": 8138,
      "महानिदश": 8139,
      "सऋ": 8140,
      "##िकीय": 8141,
      "लाता": 8142,
      "डालता": 8143,
      "##ard": 8144,
      "अनपरयोगो": 8145,
      "आतर": 8146,
      "धनी": 8147,
      "भित": 8148,
      "##ith": 8149,
      "टरड": 8150,
      "डराओ": 8151,
      "माइकर": 8152,
      "परतयरथी": 8153,
      "घातक": 8154,
      "परतिबिब": 8155,
      "भरषटाचार": 8156,
      "इना": 8157,
      "मशी": 8158,
      "##मीन": 8159,
      "##ton": 8160,
      "##गजार": 8161,
      "बहती": 8162,
      "मौखिक": 8163,
      "पिघ": 8164,
      "सभाओ": 8165,
      "बगाली": 8166,
      "चिडी": 8167,
      "परसतावो": 8168,
      "उमदा": 8169,
      "रसवाई": 8170,
      "निधियो": 8171,
      "नानक": 8172,
      "मोज": 8173,
      "##सची": 8174,
      "##किर": 8175,
      "विघ": 8176,
      "##साधारण": 8177,
      "बनावट": 8178,
      "शिकष": 8179,
      "विशषताओ": 8180,
      "घटनाए": 8181,
      "मसीह": 8182,
      "लॉगिन": 8183,
      "सीनो": 8184,
      "अनवषण": 8185,
      "शका": 8186,
      "हफत": 8187,
      "यहद": 8188,
      "##नीत": 8189,
      "पाणड": 8190,
      "माबदो": 8191,
      "महलत": 8192,
      "अभिया": 8193,
      "किताबवालो": 8194,
      "फरमाई": 8195,
      "यनिकोड": 8196,
      "कशादा": 8197,
      "मअययन": 8198,
      "ra": 8199,
      "दरा": 8200,
      "नप": 8201,
      "नसर": 8202,
      "पवन": 8203,
      "जबतक": 8204,
      "अरदध": 8205,
      "##जञानिक": 8206,
      "तमनना": 8207,
      "माधयमिक": 8208,
      "खशहाली": 8209,
      "टाइम": 8210,
      "1000": 8211,
      "आबडकर": 8212,
      "बढोतरी": 8213,
      "हरियाणा": 8214,
      "रिज": 8215,
      "लय": 8216,
      "##फो": 8217,
      "परखयात": 8218,
      "समचच": 8219,
      "निवासियो": 8220,
      "लाकर": 8221,
      "उतपतति": 8222,
      "अगरषित": 8223,
      "असपषट": 8224,
      "तनिक": 8225,
      "अदवितीय": 8226,
      "des": 8227,
      "बकाया": 8228,
      "शषक": 8229,
      "जोश": 8230,
      "सहजा": 8231,
      "कौल": 8232,
      "दिली": 8233,
      "पारदरशिता": 8234,
      "सनातन": 8235,
      "रोगियो": 8236,
      "अपरयापत": 8237,
      "भरमण": 8238,
      "रसीद": 8239,
      "कामयाब": 8240,
      "आपतति": 8241,
      "गफल": 8242,
      "हजर": 8243,
      "##शियो": 8244,
      "परमी": 8245,
      "परवासी": 8246,
      "सापकष": 8247,
      "##विटी": 8248,
      "दरबल": 8249,
      "सोचना": 8250,
      "सवचछिक": 8251,
      "इसराइल": 8252,
      "नसलो": 8253,
      "हकटयर": 8254,
      "##रमिक": 8255,
      "##वीप": 8256,
      "उलटी": 8257,
      "रखनवाल": 8258,
      "शोकाकल": 8259,
      "चनावो": 8260,
      "दढता": 8261,
      "यगम": 8262,
      "##सला": 8263,
      "साइन": 8264,
      "परिदशय": 8265,
      "खाक": 8266,
      "सोसाय": 8267,
      "आवदक": 8268,
      "मासटर": 8269,
      "दवारकाना": 8270,
      "सटीक": 8271,
      "आपराधिक": 8272,
      "ver": 8273,
      "कए": 8274,
      "नाना": 8275,
      "हवाल": 8276,
      "लगाय": 8277,
      "खातिर": 8278,
      "मतसय": 8279,
      "हिफा": 8280,
      "आशरय": 8281,
      "विशषजञो": 8282,
      "उदधत": 8283,
      "दिलचसपी": 8284,
      "अकर": 8285,
      "गचछ": 8286,
      "जडन": 8287,
      "##तमकता": 8288,
      "मलटी": 8289,
      "भागवत": 8290,
      "##कषणन": 8291,
      "मनासिब": 8292,
      "काशमीर": 8293,
      "जगननाथ": 8294,
      "दवारकानाथ": 8295,
      "वनो": 8296,
      "##नाल": 8297,
      "अनतः": 8298,
      "परिट": 8299,
      "##वारिक": 8300,
      "आफताब": 8301,
      "चबकीय": 8302,
      "हिफाजत": 8303,
      "ततीय": 8304,
      "##सनी": 8305,
      "परब": 8306,
      "##वादन": 8307,
      "##यततर": 8308,
      "असतर": 8309,
      "लाभदायक": 8310,
      "शखला": 8311,
      "उदासीन": 8312,
      "##सवती": 8313,
      "शिकायतो": 8314,
      "चरणो": 8315,
      "बरोज": 8316,
      "ld": 8317,
      "चहरो": 8318,
      "छिड": 8319,
      "##लाफ": 8320,
      "जानबझ": 8321,
      "सथगित": 8322,
      "आरकषण": 8323,
      "रखनवाला": 8324,
      "समावशी": 8325,
      "उदयमी": 8326,
      "निरमाताओ": 8327,
      "head": 8328,
      "दाना": 8329,
      "##शिप": 8330,
      "परवास": 8331,
      "अनजान": 8332,
      "##किट": 8333,
      "हाए": 8334,
      "फरज": 8335,
      "अनसमारक": 8336,
      "मधर": 8337,
      "लकषमी": 8338,
      "परतिभतियो": 8339,
      "ताना": 8340,
      "हाम": 8341,
      "##पपा": 8342,
      "##भोग": 8343,
      "समककष": 8344,
      "##सीआई": 8345,
      "दरपयोग": 8346,
      "अतिथि": 8347,
      "पारशव": 8348,
      "सभाषबाब": 8349,
      "##िसतानी": 8350,
      "पारिशरमिक": 8351,
      "ढल": 8352,
      "फोट": 8353,
      "##िओ": 8354,
      "##जिन": 8355,
      "खदाई": 8356,
      "जिननो": 8357,
      "वायद": 8358,
      "नाइट": 8359,
      "मददत": 8360,
      "सौद": 8361,
      "पकडा": 8362,
      "चालक": 8363,
      "समितिया": 8364,
      "साधना": 8365,
      "वारतालाप": 8366,
      "एमएसएमई": 8367,
      "85": 8368,
      "खडो": 8369,
      "छीन": 8370,
      "माला": 8371,
      "##इम": 8372,
      "##पाक": 8373,
      "निको": 8374,
      "फलान": 8375,
      "अकड": 8376,
      "रगिसतान": 8377,
      "जहननमी": 8378,
      "##जजब": 8379,
      "अभिनय": 8380,
      "नअमतो": 8381,
      "आइए": 8382,
      "आबटन": 8383,
      "हकीम": 8384,
      "खशनदी": 8385,
      "ईसट": 8386,
      "गजार": 8387,
      "चोर": 8388,
      "तिब": 8389,
      "सउ": 8390,
      "##चदर": 8391,
      "##cri": 8392,
      "विदा": 8393,
      "पाती": 8394,
      "राजवश": 8395,
      "वाई": 8396,
      "जगहो": 8397,
      "इकटठ": 8398,
      "नफरत": 8399,
      "शबदावली": 8400,
      "51": 8401,
      "##आइ": 8402,
      "##de": 8403,
      "निब": 8404,
      "कनया": 8405,
      "आईएस": 8406,
      "लाभपरद": 8407,
      "महरषि": 8408,
      "तालिब": 8409,
      "तातकालिक": 8410,
      "गिरावट": 8411,
      "परशासक": 8412,
      "सचिवालय": 8413,
      "49": 8414,
      "link": 8415,
      "अडा": 8416,
      "आति": 8417,
      "उखा": 8418,
      "नली": 8419,
      "वफा": 8420,
      "##णडी": 8421,
      "##हीद": 8422,
      "शरमा": 8423,
      "परतग": 8424,
      "शाशवत": 8425,
      "डिजी": 8426,
      "समबनधो": 8427,
      "शरमिको": 8428,
      "शरणियो": 8429,
      "तालाब": 8430,
      "कपर": 8431,
      "जना": 8432,
      "पया": 8433,
      "सशल": 8434,
      "##ac": 8435,
      "##ag": 8436,
      "##परय": 8437,
      "ससकार": 8438,
      "बलनद": 8439,
      "सतरकता": 8440,
      "आरख": 8441,
      "उलटा": 8442,
      "पषठो": 8443,
      "##इलड": 8444,
      "उदधरण": 8445,
      "परौदयोगिकियो": 8446,
      "परल": 8447,
      "##नागरी": 8448,
      "एकीकरण": 8449,
      "वहॉ": 8450,
      "सौनदर": 8451,
      "विराट": 8452,
      "सिनमा": 8453,
      "सटारट": 8454,
      "अको": 8455,
      "उदर": 8456,
      "पनन": 8457,
      "शलो": 8458,
      "विलब": 8459,
      "##भाई": 8460,
      "करततो": 8461,
      "पाउ": 8462,
      "विकार": 8463,
      "a¤µa¤": 8464,
      "कयोकर": 8465,
      "दिखाओ": 8466,
      "शतरओ": 8467,
      "सभावनाओ": 8468,
      "असथिर": 8469,
      "आदरशो": 8470,
      "लारवा": 8471,
      "चालीस": 8472,
      "आवा": 8473,
      "अपशिषट": 8474,
      "सचकाक": 8475,
      "मरग": 8476,
      "बदली": 8477,
      "दाया": 8478,
      "छोडना": 8479,
      "पनरनिर": 8480,
      "cont": 8481,
      "सवदशी": 8482,
      "जिबरील": 8483,
      "घोर": 8484,
      "टबल": 8485,
      "##माही": 8486,
      "शरषठता": 8487,
      "नरमदा": 8488,
      "कामकाज": 8489,
      "गफलत": 8490,
      "चशम": 8491,
      "दहरा": 8492,
      "रजा": 8493,
      "परकरम": 8494,
      "कमब": 8495,
      "##िजम": 8496,
      "दिनाकित": 8497,
      "मरतबा": 8498,
      "sec": 8499,
      "आसा": 8500,
      "जटा": 8501,
      "ढील": 8502,
      "पटरन": 8503,
      "मीन": 8504,
      "सता": 8505,
      "##यया": 8506,
      "##नति": 8507,
      "उपहास": 8508,
      "गोद": 8509,
      "1990": 8510,
      "गरथो": 8511,
      "बिगड": 8512,
      "दणड": 8513,
      "भोज": 8514,
      "सध": 8515,
      "##ss": 8516,
      "##परदश": 8517,
      "उतन": 8518,
      "बनाम": 8519,
      "दतत": 8520,
      "बिलियन": 8521,
      "जसाकि": 8522,
      "दवाओ": 8523,
      "छिपाए": 8524,
      "चपचाप": 8525,
      "अपरिचित": 8526,
      "शवसन": 8527,
      "आयरवद": 8528,
      "साचाः": 8529,
      "जगा": 8530,
      "सरसवती": 8531,
      "समायोजित": 8532,
      "पछग": 8533,
      "बढाकर": 8534,
      "दिशाओ": 8535,
      "##out": 8536,
      "##चिहन": 8537,
      "लखनऊ": 8538,
      "constellation": 8539,
      "आशचरयजनक": 8540,
      "विधायिका": 8541,
      "ताजमहल": 8542,
      "पारिवारिक": 8543,
      "##enericname": 8544,
      "##थरो": 8545,
      "##िकता": 8546,
      "माया": 8547,
      "पीडक": 8548,
      "मखाल": 8549,
      "##चितय": 8550,
      "##पटटी": 8551,
      "पकडन": 8552,
      "लखो": 8553,
      "ततपर": 8554,
      "चनदरमा": 8555,
      "chr": 8556,
      "रथ": 8557,
      "##थय": 8558,
      "##गता": 8559,
      "परवोकत": 8560,
      "आईपी": 8561,
      "अगलो": 8562,
      "धारक": 8563,
      "निकालकर": 8564,
      "ऑफिस": 8565,
      "सभावनाए": 8566,
      "टकडा": 8567,
      "हडताल": 8568,
      "दायितवो": 8569,
      "बीमारियो": 8570,
      "बहमलय": 8571,
      "कतियो": 8572,
      "चनी": 8573,
      "बचना": 8574,
      "बमबई": 8575,
      "मम": 8576,
      "##चो": 8577,
      "##खणड": 8578,
      "##color": 8579,
      "काउ": 8580,
      "##राइड": 8581,
      "कारन": 8582,
      "##शीर": 8583,
      "बढाए": 8584,
      "सजावार": 8585,
      "अनपसथित": 8586,
      "आतमनिर": 8587,
      "हथियारो": 8588,
      "ललिता": 8589,
      "नियनतरण": 8590,
      "47": 8591,
      "पचच": 8592,
      "लडो": 8593,
      "सयो": 8594,
      "सकरम": 8595,
      "##ॉजी": 8596,
      "तोह": 8597,
      "अलफा": 8598,
      "सकताः": 8599,
      "हरित": 8600,
      "नीला": 8601,
      "सटअप": 8602,
      "##a¥a¤¯": 8603,
      "##जनातमक": 8604,
      "अधीनसथ": 8605,
      "##शोधन": 8606,
      "पनरवास": 8607,
      "इणड": 8608,
      "ओह": 8609,
      "##टवयर": 8610,
      "##पयी": 8611,
      "कोयल": 8612,
      "##दाशत": 8613,
      "##मात": 8614,
      "सीखा": 8615,
      "वायम": 8616,
      "कषतरक": 8617,
      "सदभावना": 8618,
      "##षठान": 8619,
      "माधय": 8620,
      "उतपादित": 8621,
      "##dition": 8622,
      "रौशनी": 8623,
      "छिदर": 8624,
      "बनियाद": 8625,
      "जयपर": 8626,
      "दरवाजा": 8627,
      "आवासीय": 8628,
      "शॉरटकट": 8629,
      "54": 8630,
      "per": 8631,
      "शिरा": 8632,
      "सान": 8633,
      "##ॉड": 8634,
      "##वटी": 8635,
      "##email": 8636,
      "##☻☻": 8637,
      "##नाई": 8638,
      "##माद": 8639,
      "परिपथ": 8640,
      "परवान": 8641,
      "अरजी": 8642,
      "रवाना": 8643,
      "जनजातियो": 8644,
      "वरगीकत": 8645,
      "पॉलिसी": 8646,
      "षडयतर": 8647,
      "52": 8648,
      "उगल": 8649,
      "नाथ": 8650,
      "गाड": 8651,
      "##यालम": 8652,
      "कलास": 8653,
      "जनमदिन": 8654,
      "आबटित": 8655,
      "सोसायटी": 8656,
      "pop": 8657,
      "चडी": 8658,
      "हठ": 8659,
      "अनल": 8660,
      "अलारम": 8661,
      "कषतरफल": 8662,
      "उठत": 8663,
      "बठकर": 8664,
      "पढो": 8665,
      "परमाणीकरण": 8666,
      "रहनवाल": 8667,
      "आमतरण": 8668,
      "मतरिम": 8669,
      "अशलील": 8670,
      "समारट": 8671,
      "जनजाति": 8672,
      "कमजोरी": 8673,
      "आचारय": 8674,
      "खट": 8675,
      "ताली": 8676,
      "सया": 8677,
      "##ht": 8678,
      "बाय": 8679,
      "दवनागरी": 8680,
      "दरख": 8681,
      "##a¥a¤¤": 8682,
      "सकरॉल": 8683,
      "तीवरता": 8684,
      "iso": 8685,
      "चमतकार": 8686,
      "घटी": 8687,
      "पठन": 8688,
      "ससत": 8689,
      "##दषटि": 8690,
      "##xx": 8691,
      "##ारइ": 8692,
      "अभिप": 8693,
      "मारो": 8694,
      "डाय": 8695,
      "सौहार": 8696,
      "यनानी": 8697,
      "अकषरो": 8698,
      "परयटक": 8699,
      "समीप": 8700,
      "इनतजार": 8701,
      "गलोबल": 8702,
      "एलगोरिथम": 8703,
      "ke": 8704,
      "अरणा": 8705,
      "घरा": 8706,
      "छान": 8707,
      "तचछ": 8708,
      "##सरा": 8709,
      "कोह": 8710,
      "मौन": 8711,
      "छोडो": 8712,
      "बठको": 8713,
      "##ore": 8714,
      "गनाहगार": 8715,
      "रससी": 8716,
      "अपमानजनक": 8717,
      "शौक": 8718,
      "अमीर": 8719,
      "खनन": 8720,
      "##han": 8721,
      "विराम": 8722,
      "गरभव": 8723,
      "##िगो": 8724,
      "सतरोत": 8725,
      "##डरस": 8726,
      "##दायगी": 8727,
      "हडडिया": 8728,
      "शिषय": 8729,
      "तबाह": 8730,
      "aol": 8731,
      "file": 8732,
      "ओज": 8733,
      "झलक": 8734,
      "##iv": 8735,
      "##वाइस": 8736,
      "##दरता": 8737,
      "पराग": 8738,
      "##डीए": 8739,
      "##सरग": 8740,
      "a¤²a¤": 8741,
      "मारकर": 8742,
      "डायर": 8743,
      "परबधित": 8744,
      "186": 8745,
      "125": 8746,
      "इटरफस": 8747,
      "a¤¹a¥": 8748,
      "##शिलप": 8749,
      "पणय": 8750,
      "##बास": 8751,
      "##णडो": 8752,
      "बाबा": 8753,
      "##धारको": 8754,
      "पडना": 8755,
      "##ियमित": 8756,
      "सामय": 8757,
      "दिखता": 8758,
      "खरात": 8759,
      "पदधतियो": 8760,
      "पकतियो": 8761,
      "मदरक": 8762,
      "अमानय": 8763,
      "शम": 8764,
      "##वारी": 8765,
      "##पको": 8766,
      "##mb": 8767,
      "दोसती": 8768,
      "अवशष": 8769,
      "उदभत": 8770,
      "एजट": 8771,
      "आसटरलिया": 8772,
      "धड": 8773,
      "रिए": 8774,
      "##णो": 8775,
      "करवान": 8776,
      "कारको": 8777,
      "सीरिया": 8778,
      "परवतीय": 8779,
      "हाय": 8780,
      "अरश": 8781,
      "कसौ": 8782,
      "अनयायियो": 8783,
      "बछड": 8784,
      "निरणयो": 8785,
      "वाशिगटन": 8786,
      "ar": 8787,
      "टिका": 8788,
      "एकात": 8789,
      "सापता": 8790,
      "सिड": 8791,
      "पील": 8792,
      "बडाई": 8793,
      "सपरि": 8794,
      "पोषक": 8795,
      "मशीनो": 8796,
      "भडारित": 8797,
      "अकारत": 8798,
      "नोकिया": 8799,
      "निःशलक": 8800,
      "gtk": 8801,
      "डिरकटरी": 8802,
      "आलम": 8803,
      "यवक": 8804,
      "अननय": 8805,
      "कषय": 8806,
      "बरहक": 8807,
      "उठी": 8808,
      "फलग": 8809,
      "कराबत": 8810,
      "कलाइट": 8811,
      "वबाल": 8812,
      "##गणित": 8813,
      "अधिषठा": 8814,
      "पलासटिक": 8815,
      "खजाना": 8816,
      "निगहबान": 8817,
      "कटी": 8818,
      "पप": 8819,
      "उपरात": 8820,
      "मागत": 8821,
      "दोहरी": 8822,
      "कमपन": 8823,
      "##पीएस": 8824,
      "मजहब": 8825,
      "रोमा": 8826,
      "##icen": 8827,
      "बखार": 8828,
      "##इडिग": 8829,
      "विवादो": 8830,
      "##मखी": 8831,
      "##खार": 8832,
      "पाकर": 8833,
      "होनवाली": 8834,
      "मदो": 8835,
      "मलतः": 8836,
      "मलयालम": 8837,
      "परिवरधित": 8838,
      "आखिरकार": 8839,
      "रोकना": 8840,
      "##rance": 8841,
      "पनरगठन": 8842,
      "1991": 8843,
      "##ecast": 8844,
      "आजञापालन": 8845,
      "वाजपयी": 8846,
      "forecast": 8847,
      "फोकस": 8848,
      "72": 8849,
      "ad": 8850,
      "##ry": 8851,
      "भीतरी": 8852,
      "अनबध": 8853,
      "अलिफ": 8854,
      "लगग": 8855,
      "ताजजब": 8856,
      "मारता": 8857,
      "##िटरी": 8858,
      "चिलला": 8859,
      "गदा": 8860,
      "पतरी": 8861,
      "मटा": 8862,
      "##सतरो": 8863,
      "##चिक": 8864,
      "इसट": 8865,
      "साज": 8866,
      "##कीरण": 8867,
      "उपदर": 8868,
      "मानस": 8869,
      "सिधी": 8870,
      "##रपान": 8871,
      "गरद": 8872,
      "बलराम": 8873,
      "निकलती": 8874,
      "बलिदान": 8875,
      "आविषकार": 8876,
      "औध": 8877,
      "शया": 8878,
      "##ust": 8879,
      "##jut": 8880,
      "##ारह": 8881,
      "करियर": 8882,
      "समच": 8883,
      "तरग": 8884,
      "पीढियो": 8885,
      "कलश": 8886,
      "वयायाम": 8887,
      "चौदह": 8888,
      "चितित": 8889,
      "विजता": 8890,
      "anjut": 8891,
      "परसतति": 8892,
      "याचिकाकरता": 8893,
      "उपासना": 8894,
      "मणिपर": 8895,
      "विततपोषण": 8896,
      "वशीभत": 8897,
      "गरभवती": 8898,
      "46": 8899,
      "बधक": 8900,
      "##बम": 8901,
      "##ue": 8902,
      "इसला": 8903,
      "परामाण": 8904,
      "पनरी": 8905,
      "पटना": 8906,
      "मकखी": 8907,
      "1997": 8908,
      "सनातकोततर": 8909,
      "समचचय": 8910,
      "जगम": 8911,
      "##वाका": 8912,
      "##थाम": 8913,
      "##ामय": 8914,
      "##जाज": 8915,
      "कषक": 8916,
      "a¤a¤ª": 8917,
      "##ould": 8918,
      "निकायो": 8919,
      "गभीरता": 8920,
      "मसौदा": 8921,
      "किशोर": 8922,
      "डविड": 8923,
      "मणी": 8924,
      "लडा": 8925,
      "##ber": 8926,
      "अनियमित": 8927,
      "बदकारी": 8928,
      "ताकी": 8929,
      "बहल": 8930,
      "सपल": 8931,
      "वयापत": 8932,
      "मजबान": 8933,
      "नाजक": 8934,
      "सिककिम": 8935,
      "फरिशता": 8936,
      "अकारथ": 8937,
      "इनायत": 8938,
      "ldap": 8939,
      "ev": 8940,
      "पियो": 8941,
      "लॉन": 8942,
      "##ितानी": 8943,
      "##ालीन": 8944,
      "राजकीय": 8945,
      "बराइयो": 8946,
      "अडमान": 8947,
      "##सवामी": 8948,
      "सामजसय": 8949,
      "56": 8950,
      "गिल": 8951,
      "सवत": 8952,
      "उतसक": 8953,
      "दरशक": 8954,
      "बनती": 8955,
      "बलक": 8956,
      "मारगदरशक": 8957,
      "घटको": 8958,
      "वकषो": 8959,
      "गनीमत": 8960,
      "anjuta": 8961,
      "इगित": 8962,
      "पपर": 8963,
      "मणडल": 8964,
      "लनी": 8965,
      "सई": 8966,
      "##माला": 8967,
      "##िराम": 8968,
      "##गरट": 8969,
      "पहना": 8970,
      "सवारी": 8971,
      "आयातित": 8972,
      "खराक": 8973,
      "शातिपरण": 8974,
      "समनवित": 8975,
      "##गणना": 8976,
      "अधिगरहण": 8977,
      "एसोसिएशन": 8978,
      "##िषणता": 8979,
      "आभासी": 8980,
      "सापताहिक": 8981,
      "##रीन": 8982,
      "नियोकता": 8983,
      "##चछिक": 8984,
      "आसतिया": 8985,
      "साफटवयर": 8986,
      "नारियल": 8987,
      "should": 8988,
      "##world": 8989,
      "राधाकषणन": 8990,
      "परामीटर": 8991,
      "खलो": 8992,
      "##रख": 8993,
      "##भवन": 8994,
      "नियोजित": 8995,
      "आरज": 8996,
      "गोपाल": 8997,
      "जहॉ": 8998,
      "मधयवरती": 8999,
      "पकारन": 9000,
      "1946": 9001,
      "##जजवल": 9002,
      "सिलसिल": 9003,
      "जॉरज": 9004,
      "खारिज": 9005,
      "400": 9006,
      "औचितय": 9007,
      "जॉ": 9008,
      "ढी": 9009,
      "यद": 9010,
      "२५": 9011,
      "वियत": 9012,
      "साय": 9013,
      "##परवाह": 9014,
      "माफी": 9015,
      "फरमाता": 9016,
      "असफलः": 9017,
      "विषयक": 9018,
      "भौतिकी": 9019,
      "1957": 9020,
      "हसताकषरित": 9021,
      "परपराओ": 9022,
      "बिसतर": 9023,
      "##ode": 9024,
      "92": 9025,
      "अरा": 9026,
      "ऊन": 9027,
      "कडिया": 9028,
      "##िदा": 9029,
      "##भास": 9030,
      "बागात": 9031,
      "इनजील": 9032,
      "##विधिक": 9033,
      "फरमाए": 9034,
      "धमरपान": 9035,
      "नबवत": 9036,
      "मगफिरत": 9037,
      "अरण": 9038,
      "भकप": 9039,
      "हान": 9040,
      "##दड": 9041,
      "##नीकरण": 9042,
      "राजयकषतर": 9043,
      "##ant": 9044,
      "बठत": 9045,
      "शासति": 9046,
      "थोप": 9047,
      "नगरो": 9048,
      "नाटय": 9049,
      "सौहारद": 9050,
      "बान": 9051,
      "रपया": 9052,
      "दिलान": 9053,
      "पदल": 9054,
      "अशदान": 9055,
      "1996": 9056,
      "एहसास": 9057,
      "परदाता": 9058,
      "विशषजञता": 9059,
      "अजीज": 9060,
      "दरशको": 9061,
      "साखय": 9062,
      "ko": 9063,
      "पिन": 9064,
      "हॉल": 9065,
      "रावण": 9066,
      "सवक": 9067,
      "a¤°": 9068,
      "समझती": 9069,
      "सखद": 9070,
      "विदवत": 9071,
      "टरसट": 9072,
      "चितरित": 9073,
      "निमतरण": 9074,
      "इफतरा": 9075,
      "सउदी": 9076,
      "अशो": 9077,
      "##पह": 9078,
      "##ौन": 9079,
      "##ject": 9080,
      "पररक": 9081,
      "##टीट": 9082,
      "आयाम": 9083,
      "बजान": 9084,
      "जनजातीय": 9085,
      "करणाकर": 9086,
      "ऋषि": 9087,
      "गसस": 9088,
      "छपी": 9089,
      "नश": 9090,
      "यकता": 9091,
      "रकषक": 9092,
      "शकल": 9093,
      "##ml": 9094,
      "##िरदश": 9095,
      "थाः": 9096,
      "बहतरी": 9097,
      "बरितानी": 9098,
      "नामित": 9099,
      "पतथरो": 9100,
      "रोकथाम": 9101,
      "भविषयवाणी": 9102,
      "टाग": 9103,
      "लकषमण": 9104,
      "अभियोग": 9105,
      "दिवसीय": 9106,
      "इटली": 9107,
      "रसोई": 9108,
      "मणीलाल": 9109,
      "एटर": 9110,
      "भन": 9111,
      "##वचन": 9112,
      "##यॉ": 9113,
      "##ak": 9114,
      "सरख": 9115,
      "करतवयो": 9116,
      "बनदा": 9117,
      "सीट": 9118,
      "सिपा": 9119,
      "बलॉक": 9120,
      "हावी": 9121,
      "खादी": 9122,
      "पारिस": 9123,
      "सपरती": 9124,
      "रोकता": 9125,
      "रचनाए": 9126,
      "इकाइया": 9127,
      "##सिटी": 9128,
      "condition": 9129,
      "डिबग": 9130,
      "नोडस": 9131,
      "ठक": 9132,
      "अपी": 9133,
      "वासतक": 9134,
      "गिरन": 9135,
      "जगलो": 9136,
      "टरकिग": 9137,
      "आधनिकीकरण": 9138,
      "हटाया": 9139,
      "चढाव": 9140,
      "विनिधान": 9141,
      "##अन": 9142,
      "##तिला": 9143,
      "##हाज": 9144,
      "##यको": 9145,
      "##पतरो": 9146,
      "सरलता": 9147,
      "उपनयासो": 9148,
      "a¤ªa¤": 9149,
      "रकावट": 9150,
      "इमज": 9151,
      "ठान": 9152,
      "धब": 9153,
      "धरा": 9154,
      "##वजा": 9155,
      "##कद": 9156,
      "##कलाप": 9157,
      "सरोज": 9158,
      "मानकर": 9159,
      "परीमियम": 9160,
      "बटरी": 9161,
      "दिलाया": 9162,
      "परयवकषण": 9163,
      "अभिपराय": 9164,
      "##पटी": 9165,
      "विच": 9166,
      "कषञ": 9167,
      "दनवाल": 9168,
      "जलकर": 9169,
      "विनयसत": 9170,
      "परारमभिक": 9171,
      "चौथाई": 9172,
      "मनाफिको": 9173,
      "##rica": 9174,
      "key": 9175,
      "शवास": 9176,
      "##बॉकस": 9177,
      "परिपर": 9178,
      "सदियो": 9179,
      "उठन": 9180,
      "ससथापक": 9181,
      "मिलाए": 9182,
      "##पलिकशन": 9183,
      "एकागर": 9184,
      "पोरटल": 9185,
      "शरोत": 9186,
      "सगरहित": 9187,
      "66": 9188,
      "शरा": 9189,
      "##णित": 9190,
      "##यानन": 9191,
      "कोटि": 9192,
      "##ोनिया": 9193,
      "वरलड": 9194,
      "चीख": 9195,
      "घटो": 9196,
      "##बोध": 9197,
      "लबित": 9198,
      "मनोव": 9199,
      "##नदरनाथ": 9200,
      "नाटकीय": 9201,
      "धरो": 9202,
      "मब": 9203,
      "मता": 9204,
      "##पड": 9205,
      "##अली": 9206,
      "##iz": 9207,
      "##िलो": 9208,
      "अतरिम": 9209,
      "मडली": 9210,
      "परसारित": 9211,
      "खलीफा": 9212,
      "मवाफिक": 9213,
      "सौनदरय": 9214,
      "99": 9215,
      "दाल": 9216,
      "फरो": 9217,
      "##वरा": 9218,
      "तमा": 9219,
      "साकतिक": 9220,
      "सबजियो": 9221,
      "चादर": 9222,
      "परिमाण": 9223,
      "जीतन": 9224,
      "##रमर": 9225,
      "बरताव": 9226,
      "समझदार": 9227,
      "##ोतसव": 9228,
      "सोशल": 9229,
      "कतयो": 9230,
      "खबसरत": 9231,
      "हडडियो": 9232,
      "अबदलला": 9233,
      "लाजिम": 9234,
      "जिननात": 9235,
      "निकोबार": 9236,
      "yah": 9237,
      "ठन": 9238,
      "हजरत": 9239,
      "##सिन": 9240,
      "##सिदध": 9241,
      "##sp": 9242,
      "उननी": 9243,
      "##करमी": 9244,
      "मानचितर": 9245,
      "##रपी": 9246,
      "सनना": 9247,
      "मखलकात": 9248,
      "मालो": 9249,
      "हासय": 9250,
      "##खतलाफ": 9251,
      "रिसालत": 9252,
      "फीसदी": 9253,
      "इसमाईल": 9254,
      "कटाई": 9255,
      "फकटरी": 9256,
      "सशक": 9257,
      "##काई": 9258,
      "##जीत": 9259,
      "वाहक": 9260,
      "नाभ": 9261,
      "##est": 9262,
      "विषयवसत": 9263,
      "शबदकोश": 9264,
      "परयावरणीय": 9265,
      "नतिकता": 9266,
      "उततजित": 9267,
      "##ound": 9268,
      "at": 9269,
      "मारी": 9270,
      "मथन": 9271,
      "समतल": 9272,
      "जीता": 9273,
      "मसखरा": 9274,
      "करियाकलाप": 9275,
      "नौसना": 9276,
      "पौधा": 9277,
      "ईरानी": 9278,
      "नाराज": 9279,
      "74": 9280,
      "बोन": 9281,
      "##फिया": 9282,
      "##mis": 9283,
      "##कषको": 9284,
      "उतथान": 9285,
      "पहलो": 9286,
      "##ong": 9287,
      "फरश": 9288,
      "##यारो": 9289,
      "##आईसी": 9290,
      "एचटी": 9291,
      "सथानातरण": 9292,
      "ph": 9293,
      "th": 9294,
      "उतरा": 9295,
      "कवा": 9296,
      "भणड": 9297,
      "##तमय": 9298,
      "पनरप": 9299,
      "उनमख": 9300,
      "वयापारियो": 9301,
      "सहयोगियो": 9302,
      "खासत": 9303,
      "सलामती": 9304,
      "चननई": 9305,
      "झकाव": 9306,
      "##मिग": 9307,
      "##कड": 9308,
      "##ालड": 9309,
      "##भाष": 9310,
      "सवारथ": 9311,
      "पातरो": 9312,
      "उतपी": 9313,
      "सिगा": 9314,
      "शरवय": 9315,
      "गणश": 9316,
      "लीला": 9317,
      "बढाप": 9318,
      "अफरीकी": 9319,
      "डिवाइस": 9320,
      "जिजञ": 9321,
      "बागवानी": 9322,
      "दवीपो": 9323,
      "नवानवषी": 9324,
      "सतभो": 9325,
      "छततीस": 9326,
      "मानदड": 9327,
      "महाकावय": 9328,
      "आमा": 9329,
      "बफर": 9330,
      "तोडन": 9331,
      "सकोग": 9332,
      "निरदोष": 9333,
      "फिरो": 9334,
      "बलान": 9335,
      "कपास": 9336,
      "##erv": 9337,
      "बताई": 9338,
      "बचाया": 9339,
      "##वरषीय": 9340,
      "हिमनद": 9341,
      "यनिवर": 9342,
      "कसौटी": 9343,
      "with": 9344,
      "इकरार": 9345,
      "छवियो": 9346,
      "##सकत": 9347,
      "##थल": 9348,
      "##इडर": 9349,
      "एकट": 9350,
      "हमद": 9351,
      "लाठी": 9352,
      "नाइ": 9353,
      "##one": 9354,
      "निशचिनत": 9355,
      "सपरदाय": 9356,
      "शखी": 9357,
      "चलाई": 9358,
      "चौक": 9359,
      "ऋणो": 9360,
      "सदरता": 9361,
      "अरणाचल": 9362,
      "58": 9363,
      "gr": 9364,
      "time": 9365,
      "खतरो": 9366,
      "तजा": 9367,
      "बाला": 9368,
      "##पषठ": 9369,
      "किततर": 9370,
      "अधिरो": 9371,
      "विकत": 9372,
      "परतयततर": 9373,
      "उदगम": 9374,
      "तलब": 9375,
      "##able": 9376,
      "1993": 9377,
      "शतानो": 9378,
      "1987": 9379,
      "डराइवर": 9380,
      "पनरावतति": 9381,
      "वासतकला": 9382,
      "##िष": 9383,
      "अनदाज": 9384,
      "अपनाना": 9385,
      "विकर": 9386,
      "असखय": 9387,
      "पहचत": 9388,
      "##पनिक": 9389,
      "जायज": 9390,
      "धारित": 9391,
      "अनमतिया": 9392,
      "कॉफी": 9393,
      "नगरपालिका": 9394,
      "गरथि": 9395,
      "कारयकलाप": 9396,
      "तिलक": 9397,
      "अवरोध": 9398,
      "अडो": 9399,
      "कली": 9400,
      "##विस": 9401,
      "##ारण": 9402,
      "परतिबनध": 9403,
      "बहता": 9404,
      "कलिए": 9405,
      "अभिम": 9406,
      "वयतीत": 9407,
      "बताय": 9408,
      "निकालत": 9409,
      "विधिवत": 9410,
      "विकलपो": 9411,
      "उपाधयकष": 9412,
      "पौरा": 9413,
      "परोगरामिग": 9414,
      "ततप": 9415,
      "भागीदारो": 9416,
      "सगमरमर": 9417,
      "घमाव": 9418,
      "आकाकषाओ": 9419,
      "सारवभौमिक": 9420,
      "अतिमानसिक": 9421,
      "खिडकी": 9422,
      "version": 9423,
      "फकत": 9424,
      "##ममा": 9425,
      "##ui": 9426,
      "निरो": 9427,
      "दनियावी": 9428,
      "परमाणन": 9429,
      "लाभकारी": 9430,
      "a¤a¤a¤": 9431,
      "चिनता": 9432,
      "चौपायो": 9433,
      "शह": 9434,
      "अपा": 9435,
      "रामल": 9436,
      "उतस": 9437,
      "दिशान": 9438,
      "अतरवसत": 9439,
      "मखयमतरी": 9440,
      "महाविद": 9441,
      "निकलना": 9442,
      "परिसपत": 9443,
      "फाउड": 9444,
      "जवाबद": 9445,
      "साझीदारो": 9446,
      "##oft": 9447,
      "उचचार": 9448,
      "अा": 9449,
      "ममबई": 9450,
      "##मोन": 9451,
      "##फोन": 9452,
      "जबर": 9453,
      "समझकर": 9454,
      "##तानत": 9455,
      "int": 9456,
      "##ary": 9457,
      "निकालता": 9458,
      "डराफट": 9459,
      "निरभरता": 9460,
      "1988": 9461,
      "नागरिकता": 9462,
      "गनह": 9463,
      "##हलना": 9464,
      "कननड": 9465,
      "सदिगध": 9466,
      "use": 9467,
      "गिड": 9468,
      "चश": 9469,
      "मगन": 9470,
      "वदो": 9471,
      "सॉल": 9472,
      "##जिय": 9473,
      "##भकति": 9474,
      "##pi": 9475,
      "अलपा": 9476,
      "दीप": 9477,
      "बसतिया": 9478,
      "करमिक": 9479,
      "कानपर": 9480,
      "मराद": 9481,
      "ततवदरशिता": 9482,
      "आतकवादियो": 9483,
      "सिफारिशो": 9484,
      "जागरक": 9485,
      "तातपरय": 9486,
      "परतिरकषा": 9487,
      "रढि": 9488,
      "अखडता": 9489,
      "आतमनिरभर": 9490,
      "अजन": 9491,
      "एत": 9492,
      "गपता": 9493,
      "छडा": 9494,
      "पगाम": 9495,
      "रखग": 9496,
      "ताक": 9497,
      "विचारण": 9498,
      "बठो": 9499,
      "सभालन": 9500,
      "ऊरध": 9501,
      "शिशन": 9502,
      "तारकिक": 9503,
      "खयाति": 9504,
      "सोलह": 9505,
      "फजीलत": 9506,
      "अछ": 9507,
      "आगत": 9508,
      "घिरा": 9509,
      "रोल": 9510,
      "##चको": 9511,
      "##ठो": 9512,
      "##ियाद": 9513,
      "##ोगय": 9514,
      "पाशचात": 9515,
      "सनग": 9516,
      "किसमो": 9517,
      "परभावो": 9518,
      "निमनतर": 9519,
      "नकश": 9520,
      "##सफी": 9521,
      "परदरशनी": 9522,
      "अभिनता": 9523,
      "असवीकत": 9524,
      "उततजना": 9525,
      "परिपकवता": 9526,
      "yahoo": 9527,
      "डट": 9528,
      "फित": 9529,
      "मिज": 9530,
      "यमना": 9531,
      "##सबध": 9532,
      "##¨a¤": 9533,
      "समप": 9534,
      "खाकर": 9535,
      "सपरदगी": 9536,
      "चारपा": 9537,
      "लोकल": 9538,
      "डीपीआई": 9539,
      "इलाक": 9540,
      "वाकयाश": 9541,
      "२००८": 9542,
      "दरशाया": 9543,
      "अवरदध": 9544,
      "फाउडशन": 9545,
      "licen": 9546,
      "आला": 9547,
      "थर": 9548,
      "लारड": 9549,
      "दवित": 9550,
      "सीमट": 9551,
      "a¤a¤¾a¤a¤": 9552,
      "आनतरिक": 9553,
      "डालकर": 9554,
      "रोटी": 9555,
      "खोलना": 9556,
      "पदम": 9557,
      "रीसट": 9558,
      "सममख": 9559,
      "खादयानन": 9560,
      "करियानवित": 9561,
      "उखाड": 9562,
      "अमी": 9563,
      "खता": 9564,
      "फीलड": 9565,
      "##फन": 9566,
      "##एकस": 9567,
      "##भड": 9568,
      "##ङग": 9569,
      "निहा": 9570,
      "सकतो": 9571,
      "दादी": 9572,
      "भागन": 9573,
      "सनात": 9574,
      "निवशक": 9575,
      "##a¤¾a¤°": 9576,
      "पकतिया": 9577,
      "परिसथितिया": 9578,
      "जमानत": 9579,
      "translate": 9580,
      "##परिषद": 9581,
      "ततपशचात": 9582,
      "le": 9583,
      "३०": 9584,
      "परिपतर": 9585,
      "अविल": 9586,
      "##वशी": 9587,
      "बरग": 9588,
      "a¤a¤¾": 9589,
      "परमचनद": 9590,
      "बठी": 9591,
      "सदरभित": 9592,
      "1970": 9593,
      "str": 9594,
      "आईसीटी": 9595,
      "एनआईओएस": 9596,
      "पारिसथित": 9597,
      "53": 9598,
      "इम": 9599,
      "लकीर": 9600,
      "##विनद": 9601,
      "##15": 9602,
      "थाम": 9603,
      "##लीग": 9604,
      "वरक": 9605,
      "परिपा": 9606,
      "डरगस": 9607,
      "##int": 9608,
      "अकतजञ": 9609,
      "महादवीप": 9610,
      "गोपनीय": 9611,
      "पॉपअप": 9612,
      "माइकरोस": 9613,
      "पचची": 9614,
      "झी": 9615,
      "बित": 9616,
      "##वनी": 9617,
      "##रच": 9618,
      "##40": 9619,
      "##up": 9620,
      "अपलोड": 9621,
      "अनभाग": 9622,
      "राजपत": 9623,
      "उठात": 9624,
      "अधिनिर": 9625,
      "जीवनी": 9626,
      "समझाया": 9627,
      "हवाओ": 9628,
      "उपकरमो": 9629,
      "नवाचार": 9630,
      "अबर": 9631,
      "झो": 9632,
      "तटीय": 9633,
      "दयता": 9634,
      "वकाल": 9635,
      "##वला": 9636,
      "##जजित": 9637,
      "भीम": 9638,
      "अनग": 9639,
      "##दरिक": 9640,
      "निरवहन": 9641,
      "ससती": 9642,
      "महगा": 9643,
      "##a¥a¤a¥a¤": 9644,
      "इबलीस": 9645,
      "अवसथाओ": 9646,
      "जोरदार": 9647,
      "साहिब": 9648,
      "कथाओ": 9649,
      "मिशर": 9650,
      "तफसील": 9651,
      "असीम": 9652,
      "text": 9653,
      "अवा": 9654,
      "ढलान": 9655,
      "फॉ": 9656,
      "बगी": 9657,
      "भया": 9658,
      "लॉक": 9659,
      "##टिल": 9660,
      "##नान": 9661,
      "##eb": 9662,
      "##िसता": 9663,
      "##ियानी": 9664,
      "वहत": 9665,
      "दखरख": 9666,
      "वरषीय": 9667,
      "शरीकषण": 9668,
      "कालपनिक": 9669,
      "फाड": 9670,
      "120": 9671,
      "##धरव": 9672,
      "आतमविशवास": 9673,
      "फरीक": 9674,
      "टलीविजन": 9675,
      "कारयवाहियो": 9676,
      "फन": 9677,
      "##इए": 9678,
      "निवल": 9679,
      "पराजित": 9680,
      "निरया": 9681,
      "##भीत": 9682,
      "खाया": 9683,
      "परमिट": 9684,
      "महतवाका": 9685,
      "शीट": 9686,
      "जिना": 9687,
      "अनपसथिति": 9688,
      "उपरोकत": 9689,
      "##ublic": 9690,
      "imap": 9691,
      "दिशानिरदश": 9692,
      "eur": 9693,
      "net": 9694,
      "ठडा": 9695,
      "लका": 9696,
      "लकषित": 9697,
      "##बिद": 9698,
      "##थिल": 9699,
      "##हड": 9700,
      "औरो": 9701,
      "काबल": 9702,
      "##गरन": 9703,
      "परिवी": 9704,
      "परिचर": 9705,
      "##नतव": 9706,
      "कनदरी": 9707,
      "रखाकित": 9708,
      "अरथशासतर": 9709,
      "चारट": 9710,
      "खरगो": 9711,
      "भगोल": 9712,
      "विफलता": 9713,
      "दशमनो": 9714,
      "##इजशन": 9715,
      "फफडो": 9716,
      "घटनो": 9717,
      "पौराणिक": 9718,
      "license": 9719,
      "बगम": 9720,
      "##सिग": 9721,
      "##हण": 9722,
      "##count": 9723,
      "##कषतरो": 9724,
      "अवहलना": 9725,
      "लगिक": 9726,
      "##ोरिया": 9727,
      "बहक": 9728,
      "उदघो": 9729,
      "पजीगत": 9730,
      "आशरित": 9731,
      "टकडो": 9732,
      "सशरी": 9733,
      "##mission": 9734,
      "ic": 9735,
      "दराज": 9736,
      "फसा": 9737,
      "इसान": 9738,
      "उपजा": 9739,
      "##दशिक": 9740,
      "##ोलो": 9741,
      "कमल": 9742,
      "##बधन": 9743,
      "गाथा": 9744,
      "परमचद": 9745,
      "मतदाता": 9746,
      "खलत": 9747,
      "##हारय": 9748,
      "##ite": 9749,
      "##चरित": 9750,
      "##our": 9751,
      "तिमाही": 9752,
      "लमबा": 9753,
      "डलटा": 9754,
      "मआवजा": 9755,
      "निहायत": 9756,
      "##डियम": 9757,
      "अलम": 9758,
      "निरजीव": 9759,
      "पासपोरट": 9760,
      "परवतो": 9761,
      "तलसी": 9762,
      "खदरा": 9763,
      "गजरत": 9764,
      "विधायी": 9765,
      "कसरत": 9766,
      "पडोसियो": 9767,
      "महानिदशक": 9768,
      "63": 9769,
      "उजजवल": 9770,
      "घसी": 9771,
      "छविया": 9772,
      "शएब": 9773,
      "सयम": 9774,
      "##बली": 9775,
      "##पिग": 9776,
      "##गगा": 9777,
      "##तापा": 9778,
      "##योगिक": 9779,
      "##ौरय": 9780,
      "होनवाल": 9781,
      "राषटरीयता": 9782,
      "कलाकारो": 9783,
      "शानत": 9784,
      "अहमदाबाद": 9785,
      "फकस": 9786,
      "##धरी": 9787,
      "जातिया": 9788,
      "##रीट": 9789,
      "सकस": 9790,
      "जानवाली": 9791,
      "कारयशील": 9792,
      "##वाहिक": 9793,
      "कतत": 9794,
      "बदधिमान": 9795,
[...]
